008bff8e
0154005e
00c7ffe5
004bffbc
01c7ffa8
00d3ff9d
0005ff88
00a9ff88
005fffaa
0182000b
00400050
01f6007b
009fffe0
0027fffa
016c0042
00efffc7
016e0064
00c20002
003e0002
006e0040
01440008
01f5ffe4
0183ffe0
0171ffa7
0149ff8d
018fff9a
00b9ffc2
0106003f
01360011
01120018
01a7fff0
005fffd0
0102000f
015a0023
006a003b
001c0042
00b7ffa6
0159fff6
00a9ffb8
0128005f
01700032
00e20061
0063fff6
01bdffa1
00d9ffbc
006bffb8
013e0040
0194001c
01e00059
0065ffed
0145ffc3
01d7ffe1
0081ff9b
01ddffbf
0007ffdc
01ac0032
00600040
0151ffc2
004a0054
00200076
00e7ffe7
001a007f
01d3ff8b
0011ff8b
0046002b
016dff8d
001c006c
000c002b
013dffa6
0103ff85
00f60018
00c9ffcc
01b3ffda
019a0008
017c000f
0019ff8a
01820044
01300031
00a9ff89
00a5ff82
0140001c
0078004f
0076005a
019fffb5
0193ff8d
0035ffdb
01ae0047
00cc0021
01ee0003
00280010
00dbfff2
006e0031
00ac0062
0113ffaf
00b3ffad
00060069
0197ffef
0180003e
01f40074
00be0012
0051ffde
01ee0016
0021ffc5
00e9ff99
0115ffc5
01e2000a
0067fffa
015a003e
01b7ffd7
0112003c
005a002b
000c0043
01f7fffc
0137ffc6
014dffc4
01900001
00b3ffb2
006bfffc
00efff94
01980046
01f7ffdf
01dc0034
0189ffd6
013a004c
019dffb9
00560008
01b6002f
01420027
01a7ffc9
00f9ff89
00c20049
017fff9f
01100039
01a20015
009e0074
00220015
0106000d
008fffb0
00200014
013a000c
00280013
010c0004
00ddffea
00440003
01d1ffc6
016c0040
00c1ffa8
00c00079
01020063
017bfffe
0089fffa
006bff85
00de0006
00b20037
000a006d
017c006f
01ee0009
013c0063
011a006b
01380064
0049ffb1
0157fffb
0010000a
0173ff91
00f60057
0068006b
013dffc8
01f1fff5
00affffd
00e20071
01b7ffdc
0132002c
004c0016
0031ff9e
01e5fff5
01b6004e
004c0059
01100078
01b80024
0055ffd9
0108003d
00480039
0187ffba
00400015
00960040
004dffdc
00740031
0020004b
00dc0053
00a0006f
01b20062
0129ffdb
000bfff1
00900011
012bfff3
0122007e
0078006c
0196000d
00540058
01dfffd0
01be006e
0008002f
0060006e
0071ffea
00ec0008
00ac002e
01d5ffd7
01760074
00e80009
01ddffe0
00c7ffb9
01c9ffea
011bffe8
01adffa3
008e006f
0176007d
013fffaa
014e0013
00b1ffd3
012c002f
0109fffe
01e00051
00540059
0139ffbf
00300068
00afffb5
00260044
0160006f
0117ffc4
010a002e
00460061
00d5ffd1
000dffa6
01d9ffc6
01ea0024
00ebfff5
01c2005d
00680022
0023ffa4
00d4001b
017e0024
00800037
00dc001b
00660010
01460012
003e001c
01540075
0001ffe8
007e002c
00ea000b
01f40077
000a005a
0091ff88
00c40003
01fdffa9
01ddffd0
007dffca
0117ff9e
0172007a
01120007
01980023
00f1ffa1
0135ff9f
00380070
017c0043
00cdff85
002dffbe
01920055
00b00040
016bffe5
0031ffc4
0057ff8a
0089ff8c
0074000f
0063ff94
01b0001d
01b40017
0163ffa6
01ca0037
002dff8a
018a000b
005e007d
012e004f
0022001d
00240012
008e005c
007c0065
0096004d
00ec000f
01380018
01f6000d
008fff8b
00cbffef
004c0016
0191ffaa
01c1fff9
01bdffed
008fff9c
01b2003a
00140023
017c0054
01a4007e
0198000c
01d4000e
017a0036
01bdffae
01f7ffb1
008fffb4
0066005a
0038005b
00de0078
004bff8f
0019ffbb
0160005a
014dffb0
01fc0041
017dfff5
0025ffc2
0129ffc1
009fff91
00a3ff9b
00860047
0097ff8d
00c00019
01d3ff88
0083ff92
00c7ffda
0166004e
0065ffc9
00c20029
01760024
01560067
0011fff7
01100033
0097ffb1
00cfffec
00dbffc4
00bfffde
0117ffeb
0051ffc1
014fff84
01ba003e
009a0061
019c0019
019dffde
0045ffea
007e0073
00dfffde
00020054
017bffc9
0096000f
00080028
01b9ffbe
0161ff86
000bfffa
01580063
002bff86
00760013
01880072
01300077
01f80026
01a40030
01080044
01f9ffc4
0019ffb8
008c0004
0141fffb
00a9ffc2
01f1ffe3
01700039
01da004a
00d00070
01b8001f
0112001a
0001ffd4
015a0026
00f7ff86
018a0006
01a8007e
018bffa0
0053ffe3
0125ffef
01c40060
006fffb8
0075ffb5
01580003
00bbffb8
0031ffc9
017bfffb
00d1ffd9
015e0032
00c00058
018c0018
004dffca
01620032
0065ffc0
01f3ffa5
0187ff84
008e000e
01c00003
0175ff94
00380056
00fbffc8
0041ffa0
01a6005d
0019fffa
01bc0008
00c00048
01860002
0163ffa0
0099ffaf
00860011
0169fff5
0093ff9b
0105ff8f
00b4000a
00c40036
0027ffcf
001c0059
001e002a
0091ff86
01e60016
000e005c
00c1ffaf
01b8003a
00a4006f
00780017
01a5ff99
01d3ffa0
0172000b
007dfff7
0166006f
01cfffd1
010c0026
0105ffcf
0031ff94
002a0046
01ce0021
0160002a
01d80055
01c8004b
0058000e
009dffaa
00cfffe4
01f7fffb
00720028
00e60040
005c000a
00cfff8e
00fa0036
01a20023
00a60037
01b40060
0009ffcc
00a80066
010bffb4
0089fff1
00180071
01f7ffb9
01ce003e
00160034
00e5ffe4
00d5fffc
00a9ff93
006e0006
00a40068
010e005e
01560029
00cfffc0
01ae0071
01e80042
0067ffa9
013fffd8
01dfffdc
0098004b
00b4001e
01c2006c
016fffc4
014e0073
0134003a
0143ffc7
002a006b
0003fff7
018bffb9
01dbffcd
00100072
01880069
00ebffa2
01760025
0029fffe
0120001d
0027ffe6
01fa005d
01edff8c
0105ffbe
00f4006c
01f5ffcb
0155ff9e
00ca0038
018fffb1
00a9ffed
01e9ff9b
01cc004f
0001ffc5
0153ff9d
0185ffe8
0065ffaa
00f4001a
00020003
01260010
00860016
019dffe0
0023fffe
00920004
00bc0046
00000064
004dffd0
0091fff8
01760061
00720067
0136004a
001dff99
0160000e
002e0007
009bff9f
0114007e
0001ff87
0146004f
0135ffce
01fa007d
0098001f
0013ffe6
004dfffe
003fffea
009c007f
0180001d
00f80079
00c0006c
00f0003a
0041ffad
01aa0078
0084005c
01bdffd2
01e7ffc4
00f5ffd9
013c0042
01ec000e
01fe0026
015fffa9
00b9ffa9
0143ffed
01a20078
013a0072
019bffaf
003e0039
00960037
0099ffb5
00ddffc7
0021ff8e
00ce003e
00060022
00840024
00fe0061
0113ffb5
01c80010
01edffe3
01080026
00ae007d
01a9ff95
01be006c
00a40024
006fffaa
00260039
01f3ffe7
0087ffa8
00b1ffcf
