01abffd6
0068000d
0143ffdd
0083ff96
00760035
01d0000d
00c40042
016e0030
01b9ffd4
01e9ffd5
017c0023
00680058
01e9ff8e
01640055
00d3ff8e
008dffdd
012e0078
010fff95
0025ffd1
00c9ff9d
00ae000c
01d7ffb3
00abff81
00840061
01c00013
01f7ffbe
00f60013
01be0026
0153ffd2
01b5ff9f
00320004
016dffb5
00180029
00e80004
0081ffe0
010dff97
00000000
00000000
00000000
00000000
00000000
00000000
00000000
00000000
00000000
00000000
00000000
00000000
00000000
00000000
00000000
00000000
00000000
00000000
00000000
00000000
00000000
00000000
00000000
00000000
00000000
00000000
00000000
00000000
