01ABFFD6
0068000D
0143FFDD
0083FF96
00760035
01D0000D
00C40042
016E0030
01B9FFD4
01E9FFD5
017C0023
00680058
01E9FF8E
01640055
00D3FF8E
008DFFDD
012E0078
010FFF95
0025FFD1
00C9FF9D
00AE000C
01D7FFB3
00ABFF81
00840061
01C00013
01F7FFBE
00F60013
01BE0026
0153FFD2
01B5FF9F
00320004
016DFFB5
00180029
00E80004
0081FFE0
010DFF97
