#ifndef CONV2_WEIGHTS_SIMD_H
#define CONV2_WEIGHTS_SIMD_H

#include <stdint.h>

// auto-generated by scripts/weights/weight_simd_pack.py
// source : layer2_0_weight.npy (16,8,3,3) int8
// pairing W0=W[k], W1=W[k+8], k=0..7 ; order (k,ic,kh,kw)
// element A_port = W1*2^17 + W0 (25-bit, 32-bit ext)

#define CONV2_SIMD_NUM_PAIRS  8
#define CONV2_SIMD_PAIR_STRIDE 8
#define CONV2_SIMD_IN_CH      8
#define CONV2_SIMD_KH         3
#define CONV2_SIMD_KW         3

#define CONV2_WEIGHTS_SIMD_LEN  576

static const uint32_t conv2_weights_simd[CONV2_WEIGHTS_SIMD_LEN] = {
    0x008BFF8Eu, 0x0154005Eu, 0x00C7FFE5u, 0x004BFFBCu,
    0x01C7FFA8u, 0x00D3FF9Du, 0x0005FF88u, 0x00A9FF88u,
    0x005FFFAAu, 0x0182000Bu, 0x00400050u, 0x01F6007Bu,
    0x009FFFE0u, 0x0027FFFAu, 0x016C0042u, 0x00EFFFC7u,
    0x016E0064u, 0x00C20002u, 0x003E0002u, 0x006E0040u,
    0x01440008u, 0x01F5FFE4u, 0x0183FFE0u, 0x0171FFA7u,
    0x0149FF8Du, 0x018FFF9Au, 0x00B9FFC2u, 0x0106003Fu,
    0x01360011u, 0x01120018u, 0x01A7FFF0u, 0x005FFFD0u,
    0x0102000Fu, 0x015A0023u, 0x006A003Bu, 0x001C0042u,
    0x00B7FFA6u, 0x0159FFF6u, 0x00A9FFB8u, 0x0128005Fu,
    0x01700032u, 0x00E20061u, 0x0063FFF6u, 0x01BDFFA1u,
    0x00D9FFBCu, 0x006BFFB8u, 0x013E0040u, 0x0194001Cu,
    0x01E00059u, 0x0065FFEDu, 0x0145FFC3u, 0x01D7FFE1u,
    0x0081FF9Bu, 0x01DDFFBFu, 0x0007FFDCu, 0x01AC0032u,
    0x00600040u, 0x0151FFC2u, 0x004A0054u, 0x00200076u,
    0x00E7FFE7u, 0x001A007Fu, 0x01D3FF8Bu, 0x0011FF8Bu,
    0x0046002Bu, 0x016DFF8Du, 0x001C006Cu, 0x000C002Bu,
    0x013DFFA6u, 0x0103FF85u, 0x00F60018u, 0x00C9FFCCu,
    0x01B3FFDAu, 0x019A0008u, 0x017C000Fu, 0x0019FF8Au,
    0x01820044u, 0x01300031u, 0x00A9FF89u, 0x00A5FF82u,
    0x0140001Cu, 0x0078004Fu, 0x0076005Au, 0x019FFFB5u,
    0x0193FF8Du, 0x0035FFDBu, 0x01AE0047u, 0x00CC0021u,
    0x01EE0003u, 0x00280010u, 0x00DBFFF2u, 0x006E0031u,
    0x00AC0062u, 0x0113FFAFu, 0x00B3FFADu, 0x00060069u,
    0x0197FFEFu, 0x0180003Eu, 0x01F40074u, 0x00BE0012u,
    0x0051FFDEu, 0x01EE0016u, 0x0021FFC5u, 0x00E9FF99u,
    0x0115FFC5u, 0x01E2000Au, 0x0067FFFAu, 0x015A003Eu,
    0x01B7FFD7u, 0x0112003Cu, 0x005A002Bu, 0x000C0043u,
    0x01F7FFFCu, 0x0137FFC6u, 0x014DFFC4u, 0x01900001u,
    0x00B3FFB2u, 0x006BFFFCu, 0x00EFFF94u, 0x01980046u,
    0x01F7FFDFu, 0x01DC0034u, 0x0189FFD6u, 0x013A004Cu,
    0x019DFFB9u, 0x00560008u, 0x01B6002Fu, 0x01420027u,
    0x01A7FFC9u, 0x00F9FF89u, 0x00C20049u, 0x017FFF9Fu,
    0x01100039u, 0x01A20015u, 0x009E0074u, 0x00220015u,
    0x0106000Du, 0x008FFFB0u, 0x00200014u, 0x013A000Cu,
    0x00280013u, 0x010C0004u, 0x00DDFFEAu, 0x00440003u,
    0x01D1FFC6u, 0x016C0040u, 0x00C1FFA8u, 0x00C00079u,
    0x01020063u, 0x017BFFFEu, 0x0089FFFAu, 0x006BFF85u,
    0x00DE0006u, 0x00B20037u, 0x000A006Du, 0x017C006Fu,
    0x01EE0009u, 0x013C0063u, 0x011A006Bu, 0x01380064u,
    0x0049FFB1u, 0x0157FFFBu, 0x0010000Au, 0x0173FF91u,
    0x00F60057u, 0x0068006Bu, 0x013DFFC8u, 0x01F1FFF5u,
    0x00AFFFFDu, 0x00E20071u, 0x01B7FFDCu, 0x0132002Cu,
    0x004C0016u, 0x0031FF9Eu, 0x01E5FFF5u, 0x01B6004Eu,
    0x004C0059u, 0x01100078u, 0x01B80024u, 0x0055FFD9u,
    0x0108003Du, 0x00480039u, 0x0187FFBAu, 0x00400015u,
    0x00960040u, 0x004DFFDCu, 0x00740031u, 0x0020004Bu,
    0x00DC0053u, 0x00A0006Fu, 0x01B20062u, 0x0129FFDBu,
    0x000BFFF1u, 0x00900011u, 0x012BFFF3u, 0x0122007Eu,
    0x0078006Cu, 0x0196000Du, 0x00540058u, 0x01DFFFD0u,
    0x01BE006Eu, 0x0008002Fu, 0x0060006Eu, 0x0071FFEAu,
    0x00EC0008u, 0x00AC002Eu, 0x01D5FFD7u, 0x01760074u,
    0x00E80009u, 0x01DDFFE0u, 0x00C7FFB9u, 0x01C9FFEAu,
    0x011BFFE8u, 0x01ADFFA3u, 0x008E006Fu, 0x0176007Du,
    0x013FFFAAu, 0x014E0013u, 0x00B1FFD3u, 0x012C002Fu,
    0x0109FFFEu, 0x01E00051u, 0x00540059u, 0x0139FFBFu,
    0x00300068u, 0x00AFFFB5u, 0x00260044u, 0x0160006Fu,
    0x0117FFC4u, 0x010A002Eu, 0x00460061u, 0x00D5FFD1u,
    0x000DFFA6u, 0x01D9FFC6u, 0x01EA0024u, 0x00EBFFF5u,
    0x01C2005Du, 0x00680022u, 0x0023FFA4u, 0x00D4001Bu,
    0x017E0024u, 0x00800037u, 0x00DC001Bu, 0x00660010u,
    0x01460012u, 0x003E001Cu, 0x01540075u, 0x0001FFE8u,
    0x007E002Cu, 0x00EA000Bu, 0x01F40077u, 0x000A005Au,
    0x0091FF88u, 0x00C40003u, 0x01FDFFA9u, 0x01DDFFD0u,
    0x007DFFCAu, 0x0117FF9Eu, 0x0172007Au, 0x01120007u,
    0x01980023u, 0x00F1FFA1u, 0x0135FF9Fu, 0x00380070u,
    0x017C0043u, 0x00CDFF85u, 0x002DFFBEu, 0x01920055u,
    0x00B00040u, 0x016BFFE5u, 0x0031FFC4u, 0x0057FF8Au,
    0x0089FF8Cu, 0x0074000Fu, 0x0063FF94u, 0x01B0001Du,
    0x01B40017u, 0x0163FFA6u, 0x01CA0037u, 0x002DFF8Au,
    0x018A000Bu, 0x005E007Du, 0x012E004Fu, 0x0022001Du,
    0x00240012u, 0x008E005Cu, 0x007C0065u, 0x0096004Du,
    0x00EC000Fu, 0x01380018u, 0x01F6000Du, 0x008FFF8Bu,
    0x00CBFFEFu, 0x004C0016u, 0x0191FFAAu, 0x01C1FFF9u,
    0x01BDFFEDu, 0x008FFF9Cu, 0x01B2003Au, 0x00140023u,
    0x017C0054u, 0x01A4007Eu, 0x0198000Cu, 0x01D4000Eu,
    0x017A0036u, 0x01BDFFAEu, 0x01F7FFB1u, 0x008FFFB4u,
    0x0066005Au, 0x0038005Bu, 0x00DE0078u, 0x004BFF8Fu,
    0x0019FFBBu, 0x0160005Au, 0x014DFFB0u, 0x01FC0041u,
    0x017DFFF5u, 0x0025FFC2u, 0x0129FFC1u, 0x009FFF91u,
    0x00A3FF9Bu, 0x00860047u, 0x0097FF8Du, 0x00C00019u,
    0x01D3FF88u, 0x0083FF92u, 0x00C7FFDAu, 0x0166004Eu,
    0x0065FFC9u, 0x00C20029u, 0x01760024u, 0x01560067u,
    0x0011FFF7u, 0x01100033u, 0x0097FFB1u, 0x00CFFFECu,
    0x00DBFFC4u, 0x00BFFFDEu, 0x0117FFEBu, 0x0051FFC1u,
    0x014FFF84u, 0x01BA003Eu, 0x009A0061u, 0x019C0019u,
    0x019DFFDEu, 0x0045FFEAu, 0x007E0073u, 0x00DFFFDEu,
    0x00020054u, 0x017BFFC9u, 0x0096000Fu, 0x00080028u,
    0x01B9FFBEu, 0x0161FF86u, 0x000BFFFAu, 0x01580063u,
    0x002BFF86u, 0x00760013u, 0x01880072u, 0x01300077u,
    0x01F80026u, 0x01A40030u, 0x01080044u, 0x01F9FFC4u,
    0x0019FFB8u, 0x008C0004u, 0x0141FFFBu, 0x00A9FFC2u,
    0x01F1FFE3u, 0x01700039u, 0x01DA004Au, 0x00D00070u,
    0x01B8001Fu, 0x0112001Au, 0x0001FFD4u, 0x015A0026u,
    0x00F7FF86u, 0x018A0006u, 0x01A8007Eu, 0x018BFFA0u,
    0x0053FFE3u, 0x0125FFEFu, 0x01C40060u, 0x006FFFB8u,
    0x0075FFB5u, 0x01580003u, 0x00BBFFB8u, 0x0031FFC9u,
    0x017BFFFBu, 0x00D1FFD9u, 0x015E0032u, 0x00C00058u,
    0x018C0018u, 0x004DFFCAu, 0x01620032u, 0x0065FFC0u,
    0x01F3FFA5u, 0x0187FF84u, 0x008E000Eu, 0x01C00003u,
    0x0175FF94u, 0x00380056u, 0x00FBFFC8u, 0x0041FFA0u,
    0x01A6005Du, 0x0019FFFAu, 0x01BC0008u, 0x00C00048u,
    0x01860002u, 0x0163FFA0u, 0x0099FFAFu, 0x00860011u,
    0x0169FFF5u, 0x0093FF9Bu, 0x0105FF8Fu, 0x00B4000Au,
    0x00C40036u, 0x0027FFCFu, 0x001C0059u, 0x001E002Au,
    0x0091FF86u, 0x01E60016u, 0x000E005Cu, 0x00C1FFAFu,
    0x01B8003Au, 0x00A4006Fu, 0x00780017u, 0x01A5FF99u,
    0x01D3FFA0u, 0x0172000Bu, 0x007DFFF7u, 0x0166006Fu,
    0x01CFFFD1u, 0x010C0026u, 0x0105FFCFu, 0x0031FF94u,
    0x002A0046u, 0x01CE0021u, 0x0160002Au, 0x01D80055u,
    0x01C8004Bu, 0x0058000Eu, 0x009DFFAAu, 0x00CFFFE4u,
    0x01F7FFFBu, 0x00720028u, 0x00E60040u, 0x005C000Au,
    0x00CFFF8Eu, 0x00FA0036u, 0x01A20023u, 0x00A60037u,
    0x01B40060u, 0x0009FFCCu, 0x00A80066u, 0x010BFFB4u,
    0x0089FFF1u, 0x00180071u, 0x01F7FFB9u, 0x01CE003Eu,
    0x00160034u, 0x00E5FFE4u, 0x00D5FFFCu, 0x00A9FF93u,
    0x006E0006u, 0x00A40068u, 0x010E005Eu, 0x01560029u,
    0x00CFFFC0u, 0x01AE0071u, 0x01E80042u, 0x0067FFA9u,
    0x013FFFD8u, 0x01DFFFDCu, 0x0098004Bu, 0x00B4001Eu,
    0x01C2006Cu, 0x016FFFC4u, 0x014E0073u, 0x0134003Au,
    0x0143FFC7u, 0x002A006Bu, 0x0003FFF7u, 0x018BFFB9u,
    0x01DBFFCDu, 0x00100072u, 0x01880069u, 0x00EBFFA2u,
    0x01760025u, 0x0029FFFEu, 0x0120001Du, 0x0027FFE6u,
    0x01FA005Du, 0x01EDFF8Cu, 0x0105FFBEu, 0x00F4006Cu,
    0x01F5FFCBu, 0x0155FF9Eu, 0x00CA0038u, 0x018FFFB1u,
    0x00A9FFEDu, 0x01E9FF9Bu, 0x01CC004Fu, 0x0001FFC5u,
    0x0153FF9Du, 0x0185FFE8u, 0x0065FFAAu, 0x00F4001Au,
    0x00020003u, 0x01260010u, 0x00860016u, 0x019DFFE0u,
    0x0023FFFEu, 0x00920004u, 0x00BC0046u, 0x00000064u,
    0x004DFFD0u, 0x0091FFF8u, 0x01760061u, 0x00720067u,
    0x0136004Au, 0x001DFF99u, 0x0160000Eu, 0x002E0007u,
    0x009BFF9Fu, 0x0114007Eu, 0x0001FF87u, 0x0146004Fu,
    0x0135FFCEu, 0x01FA007Du, 0x0098001Fu, 0x0013FFE6u,
    0x004DFFFEu, 0x003FFFEAu, 0x009C007Fu, 0x0180001Du,
    0x00F80079u, 0x00C0006Cu, 0x00F0003Au, 0x0041FFADu,
    0x01AA0078u, 0x0084005Cu, 0x01BDFFD2u, 0x01E7FFC4u,
    0x00F5FFD9u, 0x013C0042u, 0x01EC000Eu, 0x01FE0026u,
    0x015FFFA9u, 0x00B9FFA9u, 0x0143FFEDu, 0x01A20078u,
    0x013A0072u, 0x019BFFAFu, 0x003E0039u, 0x00960037u,
    0x0099FFB5u, 0x00DDFFC7u, 0x0021FF8Eu, 0x00CE003Eu,
    0x00060022u, 0x00840024u, 0x00FE0061u, 0x0113FFB5u,
    0x01C80010u, 0x01EDFFE3u, 0x01080026u, 0x00AE007Du,
    0x01A9FF95u, 0x01BE006Cu, 0x00A40024u, 0x006FFFAAu,
    0x00260039u, 0x01F3FFE7u, 0x0087FFA8u, 0x00B1FFCFu
};

#endif // CONV2_WEIGHTS_SIMD_H
