#ifndef FC_WEIGHTS_SIMD_H
#define FC_WEIGHTS_SIMD_H

#include <stdint.h>

// auto-generated by scripts/weights/weight_simd_pack.py
// source : fc1_weight.npy (10,2304) int8
// pairing W0=fc1[2*pair,j], W1=fc1[2*pair+1,j], j=c*144+s
// order (pair,s,c); line = pair*144*16 + s*16 + c
// element A_port = W1*2^17 + W0 (25-bit, 32-bit ext)

#define FC_SIMD_NUM_PAIRS 5
#define FC_SIMD_SPATIAL   144
#define FC_SIMD_CHANNELS  16

#define FC_WEIGHTS_SIMD_LEN  11520

static const uint32_t fc_weights_simd[FC_WEIGHTS_SIMD_LEN] = {
    0x005BFFF3u, 0x00720008u, 0x00440047u, 0x00380001u,
    0x0188002Fu, 0x0013FFE5u, 0x01860012u, 0x0081FFF4u,
    0x0055FFE2u, 0x01DA001Fu, 0x00200019u, 0x0192002Eu,
    0x0033FFF5u, 0x0069FFCCu, 0x008E004Fu, 0x0187FFE7u,
    0x017A002Bu, 0x00260045u, 0x01E60028u, 0x001A001Du,
    0x01940023u, 0x016C004Du, 0x01EA003Au, 0x005FFFDEu,
    0x009FFFF6u, 0x00160011u, 0x000E001Cu, 0x01BC0001u,
    0x01A1FFF8u, 0x0068000Cu, 0x01CFFFE8u, 0x01EDFFC8u,
    0x01A3FFC1u, 0x017FFFEFu, 0x0199FFE6u, 0x01900028u,
    0x0063FFE7u, 0x0040001Bu, 0x01C1FFE0u, 0x0077FFD4u,
    0x006DFFBEu, 0x00560033u, 0x003A0033u, 0x00920012u,
    0x01C6001Au, 0x01E0000Au, 0x01F60010u, 0x01A9FFD3u,
    0x0091FFC5u, 0x00ADFFE5u, 0x01F2002Au, 0x0195FFD8u,
    0x00440015u, 0x00800042u, 0x01B0001Fu, 0x0039FFFCu,
    0x018C0021u, 0x00260037u, 0x00A1FFB7u, 0x00C00026u,
    0x002A001Du, 0x01E5FFE9u, 0x01C5FFF2u, 0x0195FFC8u,
    0x0029FFE5u, 0x00600035u, 0x01A40034u, 0x0097FFD5u,
    0x01D5FFE9u, 0x003C0037u, 0x01CBFFBBu, 0x018BFFBBu,
    0x0053FFCDu, 0x0017FFF4u, 0x0010000Fu, 0x007DFFF4u,
    0x0161FFD0u, 0x01F1FFE7u, 0x0095FFDCu, 0x019A003Au,
    0x00580016u, 0x006A0027u, 0x006FFFEBu, 0x01C40044u,
    0x0072003Bu, 0x01EE002Cu, 0x01BE0019u, 0x01DC001Fu,
    0x01C20000u, 0x005FFFC6u, 0x00700007u, 0x0077FFE3u,
    0x01980026u, 0x01F4002Eu, 0x01EFFFF5u, 0x00A6001Bu,
    0x0005FFDCu, 0x006BFFF6u, 0x01ADFFBBu, 0x01A9FFC2u,
    0x01A5FFDEu, 0x01D3FFEDu, 0x0059FFF9u, 0x01E3FFC1u,
    0x004DFFE2u, 0x01E0002Au, 0x0192003Fu, 0x00A6001Eu,
    0x002DFFD2u, 0x019FFFD5u, 0x01F1FFC6u, 0x0028001Bu,
    0x0001FFECu, 0x0039FFB4u, 0x01D40002u, 0x00400016u,
    0x000FFFD2u, 0x0030001Eu, 0x0014001Cu, 0x009FFFABu,
    0x01F00039u, 0x0017FFE2u, 0x0006002Au, 0x0079FFDDu,
    0x018FFFCAu, 0x002BFFF8u, 0x00400023u, 0x01B1FFD5u,
    0x002E003Fu, 0x0071FFF2u, 0x0051FFF1u, 0x0036004Cu,
    0x0017FFF0u, 0x0009FFB2u, 0x0071FFE1u, 0x0197FFC0u,
    0x0185FFF4u, 0x00640019u, 0x005E0021u, 0x003E0002u,
    0x0075FFE1u, 0x019FFFDAu, 0x01D9FFB7u, 0x00700054u,
    0x0055FFF5u, 0x0011FFE2u, 0x01DDFFC7u, 0x01F4005Au,
    0x00560005u, 0x00840008u, 0x01DE0013u, 0x0019FFEAu,
    0x01A9FFEEu, 0x0091FFE6u, 0x01A40004u, 0x0038004Bu,
    0x01B20003u, 0x0009FFD8u, 0x019DFFEFu, 0x0003FFFCu,
    0x0198003Bu, 0x0062001Au, 0x01FFFFE6u, 0x01AC0019u,
    0x0099FFFEu, 0x00440035u, 0x018C000Du, 0x00860026u,
    0x00200020u, 0x01D0003Eu, 0x0053FFD3u, 0x000A0006u,
    0x01A0002Du, 0x004E0029u, 0x01C5FFEEu, 0x006DFFD5u,
    0x01DFFFC4u, 0x01B80009u, 0x000DFFDEu, 0x01B9FFF7u,
    0x0017FFF4u, 0x0062003Cu, 0x01B2000Bu, 0x00340033u,
    0x0189FFD8u, 0x01CBFFF9u, 0x0025FFC0u, 0x00AFFFF4u,
    0x01E3FFD4u, 0x01A4001Cu, 0x0025FFD3u, 0x0000003Du,
    0x01CDFFD6u, 0x00060005u, 0x016FFFE9u, 0x005E0006u,
    0x01DDFFBBu, 0x01E60022u, 0x0054000Au, 0x00240001u,
    0x0053FFC1u, 0x0096004Fu, 0x006A003Au, 0x006DFFCEu,
    0x01E9FFBBu, 0x0184000Bu, 0x01B5FFD2u, 0x004C0003u,
    0x01DA0001u, 0x019FFFB8u, 0x0036003Au, 0x007FFFD7u,
    0x0091FFD0u, 0x01F5FFC0u, 0x0085FFF9u, 0x019E0039u,
    0x0003FFBFu, 0x0001FFD7u, 0x0033FFFDu, 0x000E0024u,
    0x0079FFEFu, 0x0028000Eu, 0x01B5FFD7u, 0x003BFFD5u,
    0x0071FFC2u, 0x01F3FFCDu, 0x01B3FFDAu, 0x019BFFB8u,
    0x0052000Au, 0x01FDFFC5u, 0x004BFFB7u, 0x0179FFF3u,
    0x01B7FFB8u, 0x00100010u, 0x007FFFE1u, 0x016A001Fu,
    0x006A0001u, 0x01D60023u, 0x018FFFCDu, 0x0009FFB2u,
    0x00140011u, 0x00120014u, 0x01AC0009u, 0x01AC0013u,
    0x0040001Au, 0x0030000Fu, 0x01D7FFD2u, 0x001FFFDCu,
    0x00200043u, 0x01EFFFE6u, 0x01FFFFBAu, 0x0007FFFDu,
    0x0180002Au, 0x01D60025u, 0x0006000Fu, 0x0015FFF2u,
    0x0092000Fu, 0x0080003Du, 0x01C1FFD4u, 0x01F40017u,
    0x00680049u, 0x00A7FFC6u, 0x002A001Bu, 0x00A60030u,
    0x00240021u, 0x01CBFFD5u, 0x004E0028u, 0x0054002Fu,
    0x01E5FFDBu, 0x01740034u, 0x006E0007u, 0x0035FFCDu,
    0x016FFFB4u, 0x01A3FFF3u, 0x005BFFEAu, 0x0180002Eu,
    0x00900032u, 0x0030000Du, 0x01B6003Bu, 0x0052002Du,
    0x002A0041u, 0x01AE0026u, 0x01B5FFFCu, 0x00700009u,
    0x01A1FFF2u, 0x01FBFFDAu, 0x0061FFC0u, 0x0193FFCDu,
    0x01DFFFCCu, 0x0021FFDAu, 0x00A80043u, 0x01EFFFDDu,
    0x01A1FFE2u, 0x0038003Bu, 0x0198001Cu, 0x0194001Du,
    0x01DDFFF2u, 0x002BFFC4u, 0x01BA0028u, 0x01EFFFB0u,
    0x0192000Au, 0x0015FFD0u, 0x001FFFDBu, 0x0182002Au,
    0x0085FFF2u, 0x0177FFF8u, 0x009DFFFDu, 0x017FFFC0u,
    0x01C1FFD9u, 0x00680008u, 0x004FFFFFu, 0x01D0001Au,
    0x0049FFCCu, 0x01C5FFF3u, 0x01CBFFEEu, 0x003DFFF4u,
    0x01FC0018u, 0x01FE0014u, 0x01D80046u, 0x00400001u,
    0x0085FFF2u, 0x01EFFFCEu, 0x0177FFF4u, 0x002FFFFBu,
    0x0165FFE7u, 0x000C0032u, 0x01C9FFDEu, 0x007A0023u,
    0x018DFFF8u, 0x005BFFEEu, 0x0181FFEFu, 0x01ADFFF3u,
    0x00500033u, 0x0000004Au, 0x004BFFE9u, 0x000DFFFEu,
    0x009BFFC6u, 0x01C1FFD5u, 0x0001FFE2u, 0x0027FFCCu,
    0x01B2005Bu, 0x019FFFE3u, 0x01B7FFCAu, 0x0047FFCAu,
    0x0065FFF2u, 0x0021FFC8u, 0x001BFFC5u, 0x01EC0015u,
    0x00A1FFF3u, 0x019BFFD8u, 0x005DFFFEu, 0x007C0001u,
    0x00A3FFD0u, 0x0099FFFFu, 0x00060001u, 0x008FFFDFu,
    0x01940020u, 0x01D20022u, 0x008DFFEDu, 0x01A3FFE6u,
    0x01D5FFF6u, 0x01C20004u, 0x0033FFF0u, 0x0000001Au,
    0x00520041u, 0x01BDFFCEu, 0x01F1FFEDu, 0x01F1FFFDu,
    0x01EE0019u, 0x0033FFE2u, 0x01A1FFD0u, 0x005C003Cu,
    0x00060037u, 0x01F4002Bu, 0x00020020u, 0x0090000Bu,
    0x01EBFFE0u, 0x01AA000Fu, 0x0019FFC5u, 0x0169FFFBu,
    0x00460031u, 0x0079FFEFu, 0x019A0027u, 0x00080054u,
    0x0040004Au, 0x01A4003Cu, 0x01C20032u, 0x01B9FFD6u,
    0x01F0002Fu, 0x01CA0037u, 0x01F7FFFEu, 0x01FDFFECu,
    0x01D9FFCAu, 0x004FFFF8u, 0x00800000u, 0x01FC001Fu,
    0x0077FFF9u, 0x017BFFB5u, 0x0079FFFBu, 0x015FFFAEu,
    0x01C60014u, 0x01E2003Bu, 0x01C1FFFAu, 0x00860012u,
    0x0069FFDBu, 0x0017FFDBu, 0x01D1FFF5u, 0x00960025u,
    0x016BFFC1u, 0x005A0038u, 0x006A0037u, 0x016C0022u,
    0x0021FFB5u, 0x006A0033u, 0x0009FFD9u, 0x01D6001Fu,
    0x00600015u, 0x01FBFFCBu, 0x004DFFF1u, 0x018FFFD7u,
    0x01800024u, 0x01FBFFB1u, 0x00880021u, 0x01FDFFD6u,
    0x0019FFDDu, 0x005FFFF3u, 0x01F6000Eu, 0x006A001Fu,
    0x00220014u, 0x01A60027u, 0x01A9FFE7u, 0x01EA0035u,
    0x0166002Fu, 0x0021FFC2u, 0x003BFFECu, 0x009BFFCBu,
    0x001DFFF1u, 0x000BFFCDu, 0x0185FFF0u, 0x018DFFB1u,
    0x01DC0009u, 0x0045FFBBu, 0x002E0037u, 0x01E00011u,
    0x00560036u, 0x01BA0015u, 0x01B7FFB6u, 0x017A0005u,
    0x0013FFACu, 0x01DBFFE9u, 0x01AC000Bu, 0x005FFFE2u,
    0x0048001Cu, 0x01E40014u, 0x0074003Du, 0x0025FFEEu,
    0x0003FFB9u, 0x0185FFA4u, 0x0052000Bu, 0x01EC000Eu,
    0x004E0007u, 0x001C0038u, 0x01D7FFC8u, 0x01CA0009u,
    0x001DFFCEu, 0x01D40037u, 0x0055FFE8u, 0x002E0038u,
    0x0069FFDCu, 0x000FFFD1u, 0x008DFFF6u, 0x003DFFDEu,
    0x005DFFD5u, 0x001E0029u, 0x01EC000Fu, 0x0009FFBBu,
    0x017DFFDFu, 0x0028001Fu, 0x019C0023u, 0x017DFFEEu,
    0x01EA0033u, 0x018E0026u, 0x01B00003u, 0x000DFFD9u,
    0x01A80019u, 0x01ADFFECu, 0x01F6003Bu, 0x01F80022u,
    0x01FBFFC0u, 0x019A0037u, 0x01D1FFE0u, 0x0033FFC7u,
    0x007C0021u, 0x00A8003Cu, 0x01FBFFFDu, 0x0075FFE3u,
    0x01DFFFFBu, 0x0027FFF9u, 0x0065FFDFu, 0x003BFFE0u,
    0x0063FFDEu, 0x0087FFFFu, 0x0021FFCFu, 0x01B8004Bu,
    0x000C002Au, 0x0059FFE8u, 0x01FFFFA1u, 0x015FFFEFu,
    0x019FFFD7u, 0x01ABFFE5u, 0x01C20015u, 0x01AE0035u,
    0x01F0002Du, 0x00560022u, 0x00420021u, 0x01B8000Fu,
    0x019A0005u, 0x00680014u, 0x004A0004u, 0x0005FFDAu,
    0x01F00044u, 0x01CFFFE7u, 0x006DFFF5u, 0x006A0017u,
    0x01EFFFFCu, 0x01EE0054u, 0x01D00024u, 0x0190000Bu,
    0x00A5FFDDu, 0x017E0006u, 0x0171FFCBu, 0x0169FFD8u,
    0x00540060u, 0x01CFFFF7u, 0x0058000Au, 0x01AFFFEAu,
    0x01B00047u, 0x000C0034u, 0x017BFFCBu, 0x0033FFE2u,
    0x005DFFDBu, 0x016C0011u, 0x01EFFFDCu, 0x01E9FFCCu,
    0x01CE0012u, 0x004A0014u, 0x01D7FFF6u, 0x003E0018u,
    0x01DA0041u, 0x007C0049u, 0x006A0012u, 0x00620049u,
    0x0049FFBCu, 0x0029FFEEu, 0x000BFFD8u, 0x0069FFF5u,
    0x0024002Au, 0x0001FFF9u, 0x00280031u, 0x01FC0010u,
    0x0013FFD6u, 0x00860026u, 0x01A3FFDDu, 0x0041FFE7u,
    0x0053FFCCu, 0x0049FFA9u, 0x000DFFF3u, 0x01FFFFBEu,
    0x016BFFBAu, 0x01820046u, 0x002A0015u, 0x004FFFB9u,
    0x0191FFAEu, 0x018FFFFAu, 0x01780023u, 0x016E0034u,
    0x01E80001u, 0x01CDFFD7u, 0x004E0029u, 0x0023FFF5u,
    0x0001FFE9u, 0x0011FFE6u, 0x01EFFFD7u, 0x01820028u,
    0x004DFFDAu, 0x01DDFFFBu, 0x01F3FFC6u, 0x0001FFE8u,
    0x01EFFFB5u, 0x0071FFF6u, 0x001BFFEBu, 0x00140014u,
    0x01DC0007u, 0x0079FFF0u, 0x01E9FFDEu, 0x007E0001u,
    0x01BA0024u, 0x000DFFEEu, 0x00500003u, 0x0063FFEDu,
    0x015FFFCEu, 0x0020001Cu, 0x0195FFC1u, 0x0019FFB6u,
    0x00140001u, 0x016E0008u, 0x0197FFDEu, 0x018FFFCFu,
    0x01C00023u, 0x01EBFFFDu, 0x01B1FFEFu, 0x0089FFDAu,
    0x01B20040u, 0x01CFFFB9u, 0x018E001Fu, 0x017C0032u,
    0x000DFFE4u, 0x01F3FFBCu, 0x0019FFEDu, 0x00620007u,
    0x017DFFAFu, 0x0039FFD2u, 0x002E0012u, 0x01A3FFBFu,
    0x01D3FFC5u, 0x017BFFE9u, 0x01D6001Au, 0x00520034u,
    0x003C0054u, 0x0077FFEAu, 0x0003FFDAu, 0x0083FFDEu,
    0x0021FFEBu, 0x01C9FFF0u, 0x01AFFFD2u, 0x0080001Eu,
    0x01FFFFF5u, 0x00740045u, 0x01C3FFE3u, 0x01B80023u,
    0x0198000Au, 0x00400038u, 0x0017FFEAu, 0x01960003u,
    0x0087FFC8u, 0x01EBFFCEu, 0x01EBFFFAu, 0x016FFFEDu,
    0x00200024u, 0x000E002Au, 0x00480031u, 0x019C001Fu,
    0x005DFFFCu, 0x000A0039u, 0x0190000Au, 0x0005FFBDu,
    0x0011FFD7u, 0x01A8004Au, 0x00380000u, 0x017FFFEBu,
    0x01BE003Cu, 0x01DA000Cu, 0x01C4002Bu, 0x01A40021u,
    0x01DBFFE6u, 0x013FFFD0u, 0x00320036u, 0x01D1FFCEu,
    0x01280049u, 0x000FFFB4u, 0x0007FFEFu, 0x0020001Fu,
    0x01A5FFF3u, 0x01D4000Au, 0x0190001Cu, 0x002BFFBAu,
    0x004A0012u, 0x01CA0025u, 0x01B2000Eu, 0x0062004Cu,
    0x01D1FFB4u, 0x01EE0005u, 0x003BFFE4u, 0x01A0004Du,
    0x003DFFD7u, 0x01A1FFE1u, 0x00520040u, 0x01E8001Au,
    0x01D9FFBFu, 0x01CE0039u, 0x00380037u, 0x019A002Cu,
    0x007E0015u, 0x01D6000Fu, 0x00440005u, 0x00580045u,
    0x0081FFE5u, 0x01760040u, 0x01B5FF9Du, 0x00320041u,
    0x01840027u, 0x014A005Au, 0x00440024u, 0x01C00010u,
    0x01FDFFD2u, 0x01AFFFF7u, 0x0071FFD3u, 0x0002000Cu,
    0x01FBFFD9u, 0x01720016u, 0x001BFFFDu, 0x01E8003Du,
    0x01740031u, 0x01ADFFD1u, 0x01BBFFB6u, 0x01720017u,
    0x00960007u, 0x017FFFEFu, 0x018BFFE8u, 0x006DFFDFu,
    0x0185FFF4u, 0x0054000Du, 0x006DFFDCu, 0x01F1FFDBu,
    0x01C20067u, 0x01C60017u, 0x00020031u, 0x0167FFE4u,
    0x0073FFDCu, 0x006BFFD1u, 0x0193FFCFu, 0x01C80053u,
    0x0185FFEBu, 0x01CE004Cu, 0x01D9FFF6u, 0x00220022u,
    0x01B60023u, 0x01B3FFFCu, 0x0036001Eu, 0x0189FFD4u,
    0x01AC000Fu, 0x00080001u, 0x0165FFE7u, 0x006BFFCBu,
    0x019BFFE0u, 0x01EDFFEAu, 0x006E0004u, 0x01D80012u,
    0x018E0020u, 0x018A0041u, 0x00760049u, 0x0184002Cu,
    0x01840007u, 0x01BFFFC6u, 0x01C7FFBBu, 0x0188001Fu,
    0x01520029u, 0x001DFFE7u, 0x01760022u, 0x0030001Eu,
    0x0019FFD9u, 0x018FFFE8u, 0x01B0003Au, 0x004A0039u,
    0x01A5FFE3u, 0x0011FFCDu, 0x01500000u, 0x017FFFBFu,
    0x0072001Bu, 0x01EDFFBBu, 0x0061FFF4u, 0x01B5FFECu,
    0x0173FFBEu, 0x0034001Bu, 0x0013FFEBu, 0x0048001Fu,
    0x004C0023u, 0x0035FFEEu, 0x01DA0042u, 0x0056002Cu,
    0x0049FFA6u, 0x004C000Eu, 0x0083FFD6u, 0x0194003Eu,
    0x0035FFD0u, 0x002C0034u, 0x0041FFEAu, 0x0035FFAEu,
    0x017BFFEDu, 0x0086001Eu, 0x0002001Bu, 0x01DFFFBFu,
    0x008BFFDBu, 0x00080015u, 0x01E40011u, 0x018FFFE0u,
    0x00600014u, 0x01F00005u, 0x000FFFBAu, 0x01C0004Du,
    0x0042002Eu, 0x0084003Fu, 0x0008003Du, 0x018E000Cu,
    0x0067FFCCu, 0x015E0037u, 0x017E0003u, 0x0068003Fu,
    0x01C7FFF1u, 0x01BC0010u, 0x01F40008u, 0x007C0033u,
    0x0025FFE1u, 0x0071FFFFu, 0x008A0001u, 0x0053FFFAu,
    0x0028000Cu, 0x01940008u, 0x01FBFFE8u, 0x0004000Cu,
    0x001BFFD4u, 0x00340018u, 0x0017FFD2u, 0x018BFFDDu,
    0x018FFFF3u, 0x01EA0038u, 0x018C003Bu, 0x018E0048u,
    0x01B20038u, 0x017FFFE9u, 0x0013FFC2u, 0x001E001Eu,
    0x003E0033u, 0x01DE0031u, 0x0044002Eu, 0x01F3FFB0u,
    0x0180004Au, 0x01FE0015u, 0x006BFFD1u, 0x016A003Du,
    0x0039FFE3u, 0x0051FFB9u, 0x005BFFD4u, 0x01A5FFF0u,
    0x0027FFC3u, 0x01BA0000u, 0x0022001Eu, 0x0055FFE1u,
    0x01B00019u, 0x00560026u, 0x0077FFC7u, 0x01A0001Du,
    0x019E004Eu, 0x01C1FFF2u, 0x01DC0041u, 0x00000020u,
    0x0144001Au, 0x0043FFFBu, 0x0044002Fu, 0x008C0031u,
    0x0015FFD0u, 0x01D9FFE9u, 0x016A000Du, 0x01CE0016u,
    0x01CC0000u, 0x01FE0056u, 0x01F7FFE5u, 0x01FC001Cu,
    0x01D40016u, 0x001A0036u, 0x0021FFDEu, 0x0093FFC8u,
    0x0041FFDEu, 0x0157FFC6u, 0x01B7FFD2u, 0x0075FFF8u,
    0x01AC0009u, 0x000A000Eu, 0x00ADFFCDu, 0x001A0008u,
    0x0070002Au, 0x00000043u, 0x005C001Au, 0x0033FFD7u,
    0x00C6000Eu, 0x001BFFF7u, 0x01EFFFE7u, 0x01D40031u,
    0x000DFFF1u, 0x01840036u, 0x01BBFFFFu, 0x01D5FFD0u,
    0x01F40023u, 0x01840013u, 0x00A3FFBFu, 0x0047FFD8u,
    0x01CA0035u, 0x01E8000Bu, 0x01F8000Cu, 0x016DFFFAu,
    0x0003FFCBu, 0x01D8000Du, 0x019FFFD6u, 0x016FFFD8u,
    0x01FBFFF0u, 0x000A0000u, 0x003E0028u, 0x01BC0021u,
    0x00700043u, 0x01CA004Du, 0x01C1FFC1u, 0x01CA000Au,
    0x0033FFDBu, 0x01AC0059u, 0x00380042u, 0x0081FFCCu,
    0x0182001Bu, 0x0194000Bu, 0x00260037u, 0x018FFFDDu,
    0x0199FFD6u, 0x01EE0030u, 0x005E000Bu, 0x005DFFDCu,
    0x01F5FFB2u, 0x00520048u, 0x006DFFEBu, 0x0195FFDBu,
    0x00200016u, 0x01B40005u, 0x0077FFE3u, 0x01E0000Du,
    0x01EC0022u, 0x01F80011u, 0x0040002Bu, 0x01A3FFF3u,
    0x0024003Cu, 0x01A5FFEEu, 0x0069FFBEu, 0x0153FFBCu,
    0x005A0015u, 0x01A80058u, 0x01AFFFF5u, 0x01AA000Eu,
    0x01AFFFFBu, 0x0032004Bu, 0x004FFFEEu, 0x0043FFE0u,
    0x004DFFE9u, 0x01D20030u, 0x01F60013u, 0x01E2004Eu,
    0x01ABFFC4u, 0x0165FFD2u, 0x01FFFFC5u, 0x0049FFE9u,
    0x002FFFDAu, 0x016BFFE7u, 0x005E003Fu, 0x01D3FFEFu,
    0x01A80034u, 0x0081FFC3u, 0x01920014u, 0x019A0015u,
    0x0199FFF2u, 0x000FFFC0u, 0x00420030u, 0x0039FFDAu,
    0x00080029u, 0x01CFFFC3u, 0x0014003Fu, 0x0167FFC3u,
    0x01FC0001u, 0x0057FFD0u, 0x0006000Eu, 0x01E2001Bu,
    0x01DBFFD6u, 0x019FFFDAu, 0x018DFFC2u, 0x0015FFEEu,
    0x001A002Fu, 0x0076001Du, 0x01CFFFF6u, 0x0061FFB6u,
    0x000DFFF8u, 0x016C0012u, 0x008E001Au, 0x016BFFF8u,
    0x01640007u, 0x01E0003Au, 0x01F40010u, 0x01D2001Eu,
    0x01F7FFCAu, 0x00320015u, 0x004BFFBFu, 0x00360024u,
    0x00200048u, 0x00480042u, 0x017DFFC9u, 0x0057FFC6u,
    0x01DC001Cu, 0x0016003Bu, 0x00220050u, 0x01800039u,
    0x00520009u, 0x01AFFFDDu, 0x01EA0019u, 0x019E001Au,
    0x007E0038u, 0x003C003Du, 0x0046003Fu, 0x01F3FFC4u,
    0x01F1FFE6u, 0x00620047u, 0x01DA0034u, 0x01AFFFD0u,
    0x01940017u, 0x0032003Du, 0x0198003Du, 0x01960034u,
    0x0039FFCDu, 0x01CC0036u, 0x01B1FFD7u, 0x0173FFE4u,
    0x005BFFC3u, 0x0171FFFCu, 0x00580005u, 0x0187FFC9u,
    0x001C0028u, 0x0005FFE1u, 0x0034003Au, 0x0050001Au,
    0x01FDFFD6u, 0x00320011u, 0x01B20013u, 0x014C0023u,
    0x01B7FFB9u, 0x019E0039u, 0x000C0020u, 0x019E0032u,
    0x01E40025u, 0x0037FFEAu, 0x01B40013u, 0x00540015u,
    0x00080058u, 0x01B6000Bu, 0x019BFFFAu, 0x0007FFE5u,
    0x017DFFD3u, 0x0156003Bu, 0x002BFFD8u, 0x01C00022u,
    0x01D1FFD9u, 0x01FBFFB8u, 0x01E40067u, 0x005DFFE3u,
    0x01A0001Au, 0x0008005Au, 0x007BFFDBu, 0x01A1FFE4u,
    0x0017FFD9u, 0x00AE0026u, 0x00080030u, 0x0193FFC1u,
    0x006BFFD6u, 0x01CA001Eu, 0x004FFFE1u, 0x000FFFE6u,
    0x0038001Fu, 0x002DFFDDu, 0x01F7FFCCu, 0x017A000Cu,
    0x01ABFFB8u, 0x0036000Cu, 0x0035FFC9u, 0x01FDFFC8u,
    0x01AC0026u, 0x002C0039u, 0x0045FFF8u, 0x01D4003Au,
    0x01B1FFB5u, 0x0031FFBFu, 0x019C0032u, 0x001E0036u,
    0x0169FFB8u, 0x006A0033u, 0x00CC0046u, 0x001BFFEAu,
    0x007E0032u, 0x015DFFF1u, 0x005C0040u, 0x005BFFF0u,
    0x0091FFF9u, 0x003C0029u, 0x0028002Cu, 0x0080004Au,
    0x00640026u, 0x01A5FFCAu, 0x014DFFFBu, 0x0045FFFCu,
    0x0035FFC8u, 0x01FBFFF8u, 0x01A1FFDAu, 0x01A9FFFFu,
    0x017DFFDDu, 0x001DFFBFu, 0x01940022u, 0x0015FFEDu,
    0x006FFFF2u, 0x002DFFF7u, 0x019BFFD3u, 0x0025FFFFu,
    0x01BA0018u, 0x0055FFD2u, 0x01FE0034u, 0x01F7FFE3u,
    0x019A003Cu, 0x00400002u, 0x0039FFF4u, 0x0194003Cu,
    0x00240036u, 0x018E0047u, 0x0193FFC8u, 0x008E0028u,
    0x01EDFFB9u, 0x01B1FFE9u, 0x0061FFE5u, 0x000E000Au,
    0x016C000Bu, 0x014DFFD6u, 0x01C00013u, 0x016DFFFFu,
    0x01A6001Fu, 0x01660047u, 0x008BFFE1u, 0x00640005u,
    0x0199FFF4u, 0x017DFFC8u, 0x00660037u, 0x01D7FFD0u,
    0x01C3FFF8u, 0x017A0027u, 0x0035FFEBu, 0x007E002Au,
    0x0033FFD9u, 0x0158000Cu, 0x00720043u, 0x01A5FFC7u,
    0x0016000Cu, 0x0011FFC5u, 0x0093FFCBu, 0x01E60004u,
    0x017C001Du, 0x0085FFDAu, 0x009BFFE4u, 0x016FFFACu,
    0x0019FFCCu, 0x003E0046u, 0x000FFFD7u, 0x0005FFEFu,
    0x0035FFB2u, 0x01900047u, 0x01E9FFCAu, 0x004A0025u,
    0x00060032u, 0x01B80041u, 0x001BFFC1u, 0x0174000Fu,
    0x0039FFE4u, 0x015FFFF6u, 0x01980042u, 0x0053FFCEu,
    0x0071FFC8u, 0x0061FFCAu, 0x01DC0049u, 0x01C1FFB1u,
    0x0071FFB9u, 0x0187FFCFu, 0x01AFFFE7u, 0x016C0032u,
    0x002FFFD7u, 0x00560018u, 0x006A0027u, 0x01920019u,
    0x00780000u, 0x0044004Fu, 0x00260015u, 0x0065FFE8u,
    0x006BFFFEu, 0x0009FFDDu, 0x00260012u, 0x01E7FFE2u,
    0x0033FFF4u, 0x017E0024u, 0x0177FFC1u, 0x006BFFBEu,
    0x006FFFCFu, 0x004DFFCAu, 0x0011FFFAu, 0x00080012u,
    0x0045FFF5u, 0x002DFFCAu, 0x01F20012u, 0x0023FFBAu,
    0x001E0031u, 0x0002001Bu, 0x01DDFFF7u, 0x00560026u,
    0x01760010u, 0x006A0021u, 0x0193FFD5u, 0x0035FFDAu,
    0x01900039u, 0x0184000Au, 0x016FFFF0u, 0x0075FFCFu,
    0x01EDFFFAu, 0x00880031u, 0x01740005u, 0x01FFFFE8u,
    0x0079FFD1u, 0x0013FFCEu, 0x008FFFC9u, 0x01FA0031u,
    0x0045FFCBu, 0x01CFFFC6u, 0x018A0044u, 0x01A80014u,
    0x01D8001Fu, 0x01BA0019u, 0x015A0062u, 0x005BFFD8u,
    0x01DBFFCEu, 0x0015FFC9u, 0x01CDFFFDu, 0x01F40006u,
    0x01D4003Du, 0x01AA0043u, 0x00A1FFFDu, 0x0055FFDCu,
    0x00880017u, 0x0195FFDEu, 0x00680033u, 0x0017FFF2u,
    0x0099FFBCu, 0x01980014u, 0x01700043u, 0x0007FFD7u,
    0x01CDFFBBu, 0x0034001Au, 0x006BFFD6u, 0x0089FFBCu,
    0x002E0011u, 0x01BC001Fu, 0x01EDFFC0u, 0x01FBFFFEu,
    0x01F80040u, 0x0098000Bu, 0x004DFFCAu, 0x004DFFACu,
    0x01AA0022u, 0x01C6003Au, 0x0192002Au, 0x00320011u,
    0x0023FFFDu, 0x0175FFE6u, 0x0071FFD4u, 0x00700034u,
    0x0096002Fu, 0x01EDFFDDu, 0x0069FFF8u, 0x017DFFF9u,
    0x0075FFC5u, 0x003FFF9Du, 0x006FFFF6u, 0x01840014u,
    0x0013FFF9u, 0x0053FFE5u, 0x00820038u, 0x0059FFBBu,
    0x0188001Fu, 0x01E0002Au, 0x019BFFD3u, 0x01EFFFD6u,
    0x0007FFE8u, 0x0085FFDCu, 0x004DFFB9u, 0x0035FFFDu,
    0x001DFFEBu, 0x0074000Fu, 0x01E5FFB5u, 0x0020003Au,
    0x01F3FFBFu, 0x00580011u, 0x01ABFFF4u, 0x01DA000Cu,
    0x018C001Bu, 0x00580030u, 0x01D40012u, 0x0020002Cu,
    0x01C00025u, 0x01900026u, 0x01B80037u, 0x01520015u,
    0x01B9FFCBu, 0x0063FFE6u, 0x006A0027u, 0x0035FFF8u,
    0x018E0052u, 0x01860019u, 0x017C003Bu, 0x017E0007u,
    0x0048004Au, 0x0006003Cu, 0x0197FFD1u, 0x01880002u,
    0x01EDFFD9u, 0x01CFFFE4u, 0x01DC002Bu, 0x01A9FFD3u,
    0x0169FFE2u, 0x00120046u, 0x000C0049u, 0x0170003Du,
    0x0161FFF7u, 0x01CE0029u, 0x006C0006u, 0x0047FFB5u,
    0x0182003Eu, 0x005A0031u, 0x001A002Du, 0x01EDFFC6u,
    0x01A7FFE8u, 0x0087FFD1u, 0x000FFFDEu, 0x0043FFF5u,
    0x000FFFEBu, 0x01F3FFDFu, 0x017A0032u, 0x01EBFFB3u,
    0x0071FFC9u, 0x01D0001Eu, 0x01DA000Cu, 0x01560003u,
    0x004DFFFEu, 0x01D6001Au, 0x01FFFFF3u, 0x01CFFFFEu,
    0x018C0013u, 0x01D20023u, 0x017C0044u, 0x01F8000Bu,
    0x0170001Du, 0x00560017u, 0x0079FFF7u, 0x016E0019u,
    0x01760036u, 0x0004003Fu, 0x00100038u, 0x01880036u,
    0x00240011u, 0x0170002Eu, 0x0059FFD6u, 0x001E003Au,
    0x00440022u, 0x006A0027u, 0x01A9FFBEu, 0x0001FFEAu,
    0x0021FFEAu, 0x0021FFF3u, 0x00660032u, 0x0183FFEFu,
    0x01D2003Eu, 0x01A4002Cu, 0x015DFFFCu, 0x0168004Bu,
    0x0070003Cu, 0x01B3FFC4u, 0x00080038u, 0x0164001Bu,
    0x01C7FFCFu, 0x01EC003Fu, 0x018E000Cu, 0x001DFFC8u,
    0x01CA0000u, 0x0021FFC1u, 0x01A00011u, 0x003A0005u,
    0x01B9FFC6u, 0x01FC004Cu, 0x0009FFC2u, 0x0061FFEEu,
    0x001E0046u, 0x01D7FFECu, 0x00560015u, 0x01BDFFCDu,
    0x00400006u, 0x01C5FFF1u, 0x0152000Fu, 0x017DFFD9u,
    0x0169FFEFu, 0x01860029u, 0x0195FFF4u, 0x01E8004Cu,
    0x017DFFD1u, 0x0022000Cu, 0x003E0017u, 0x00060004u,
    0x01D1FFFCu, 0x01F00019u, 0x0035FFCBu, 0x000DFFD6u,
    0x01F5FFDCu, 0x01AA0026u, 0x005BFFCEu, 0x019BFFCEu,
    0x0057FFD6u, 0x01D5FFC9u, 0x01F60025u, 0x01EA0040u,
    0x003E0042u, 0x01A4000Cu, 0x0196004Cu, 0x01AFFFC8u,
    0x00AA0044u, 0x01E1FFDBu, 0x0049FFDDu, 0x01FE001Du,
    0x01C80026u, 0x000FFFEAu, 0x0044001Eu, 0x01F3FFE9u,
    0x0199FFD8u, 0x00500014u, 0x0193FFD3u, 0x0057FFF7u,
    0x01D6000Fu, 0x00A00039u, 0x01DFFFEAu, 0x00780009u,
    0x01DE0005u, 0x01E20022u, 0x00980017u, 0x01B0001Cu,
    0x0027FFD2u, 0x0001FFC2u, 0x01DBFFE0u, 0x003FFFE2u,
    0x00660016u, 0x003FFFF8u, 0x0063FFD1u, 0x00700025u,
    0x01B3FFFDu, 0x000A002Du, 0x006DFFF6u, 0x00600036u,
    0x009FFFF3u, 0x00660011u, 0x0173FFF4u, 0x0022000Au,
    0x00800027u, 0x01780014u, 0x016E002Fu, 0x017DFFB7u,
    0x007A002Bu, 0x001A001Au, 0x0013FFB7u, 0x0041FFC5u,
    0x002BFFFCu, 0x01E40014u, 0x01C1FFF8u, 0x01EDFFB7u,
    0x001DFFBFu, 0x01EE002Eu, 0x0157FFE0u, 0x0051FFE9u,
    0x002BFFF9u, 0x0059FFEDu, 0x0067FFC8u, 0x01CDFFCDu,
    0x01C9FFCEu, 0x005E0017u, 0x0049FFEEu, 0x0001FFE8u,
    0x01BFFFF8u, 0x0059FFC5u, 0x0181FFBDu, 0x007A0002u,
    0x01D1FFEEu, 0x0033FFD5u, 0x004DFFF2u, 0x0061FF99u,
    0x004DFFDEu, 0x01520030u, 0x0065FFC1u, 0x01F5FFC9u,
    0x01B5FFCCu, 0x00320024u, 0x007E004Au, 0x01F00023u,
    0x0011FFC3u, 0x001E0007u, 0x01D5FFECu, 0x00580016u,
    0x01A20043u, 0x00880010u, 0x0178000Au, 0x01A40037u,
    0x015E0032u, 0x006BFFC0u, 0x01E2000Bu, 0x003E0017u,
    0x0057FFE8u, 0x00180041u, 0x01F20041u, 0x01EFFFE0u,
    0x01740001u, 0x00480005u, 0x01ADFFF6u, 0x006A0041u,
    0x016E002Fu, 0x0071FFF5u, 0x00760020u, 0x0071FFD0u,
    0x000E000Cu, 0x01900015u, 0x01F3FFBDu, 0x004C002Bu,
    0x01EE0027u, 0x01BFFFDCu, 0x01DDFFF8u, 0x01840040u,
    0x0038002Fu, 0x001DFFD8u, 0x005FFFB1u, 0x0063FFBCu,
    0x01F0004Bu, 0x01D2003Au, 0x0063FFC5u, 0x0053FFDBu,
    0x00140027u, 0x00100009u, 0x016DFFB9u, 0x01D00028u,
    0x0171FFF7u, 0x01E3FFAFu, 0x00720021u, 0x00680021u,
    0x0058002Fu, 0x0179FFD9u, 0x01DC0019u, 0x004C0044u,
    0x00500018u, 0x01B9FFB8u, 0x0051FFD8u, 0x00700009u,
    0x01A5FFCDu, 0x00680043u, 0x01C9FFC2u, 0x01D1FFC0u,
    0x005DFFEFu, 0x01AFFFE0u, 0x0029FFFBu, 0x018E001Du,
    0x001FFFCBu, 0x01E40042u, 0x0157FFB9u, 0x006DFFC6u,
    0x01F80011u, 0x005C003Cu, 0x01840047u, 0x0013FFE7u,
    0x003A0028u, 0x01C5FFD5u, 0x01C5FFFBu, 0x00220010u,
    0x000C0010u, 0x01A2002Fu, 0x006C0022u, 0x015BFFFEu,
    0x0023FFF0u, 0x0067FFDFu, 0x01A1FFC8u, 0x01B8002Cu,
    0x007E0003u, 0x01E8001Cu, 0x005C001Fu, 0x00040014u,
    0x0185FFE4u, 0x0069FFDCu, 0x001E0058u, 0x000DFFD9u,
    0x01E6001Fu, 0x014FFFD9u, 0x0183FFE5u, 0x01720006u,
    0x001BFFF6u, 0x003FFFF6u, 0x003E001Eu, 0x004DFFEAu,
    0x01A5FFDBu, 0x0188003Eu, 0x01C60000u, 0x0067FFCFu,
    0x017C0032u, 0x0033FFF4u, 0x0006000Du, 0x01DDFFF7u,
    0x00760018u, 0x01A1FFCAu, 0x0198002Eu, 0x00280028u,
    0x002A0018u, 0x00800010u, 0x0075FFCEu, 0x008E0035u,
    0x01B40028u, 0x01DC005Bu, 0x01B5FFFEu, 0x0170001Cu,
    0x01B80003u, 0x005E001Au, 0x0179FFD6u, 0x00900011u,
    0x00A2000Au, 0x01A7FFF1u, 0x00520042u, 0x0191FFBEu,
    0x01DDFFC5u, 0x001A001Bu, 0x0022005Du, 0x0194003Au,
    0x01EDFFBEu, 0x01A7FFF0u, 0x00500040u, 0x01B6000Fu,
    0x01D8004Bu, 0x01EBFFEBu, 0x0171FFC5u, 0x0158001Bu,
    0x0021FFECu, 0x0057FFCBu, 0x019BFFFDu, 0x0163FFF5u,
    0x002E001Du, 0x0091FFC6u, 0x00480046u, 0x01FC0023u,
    0x0059FFFAu, 0x006C0048u, 0x01CA0007u, 0x0191FFA5u,
    0x0021FFC3u, 0x016BFFF6u, 0x0045FFD0u, 0x01FBFFE4u,
    0x0042001Eu, 0x01820016u, 0x01A1FFCBu, 0x01C9FFD5u,
    0x01D9FFCAu, 0x006C0025u, 0x0179FFE4u, 0x001E001Bu,
    0x0052004Bu, 0x007E002Au, 0x00440042u, 0x0197FFFDu,
    0x01A20002u, 0x01C3FFD9u, 0x01EBFFF8u, 0x017C0015u,
    0x01D3FFFDu, 0x01A8002Fu, 0x017DFFFBu, 0x0041FFF0u,
    0x01AE003Au, 0x0061FFCBu, 0x01A20023u, 0x00780033u,
    0x01A4002Du, 0x0197FFEFu, 0x01B5FFECu, 0x0051FFC2u,
    0x0069FFE5u, 0x0154002Bu, 0x000C0014u, 0x00600029u,
    0x0025FFBBu, 0x01AE0029u, 0x00480030u, 0x0041FFC0u,
    0x00080021u, 0x01FE0038u, 0x0057FFCBu, 0x002C002Fu,
    0x01E80003u, 0x00720008u, 0x01760026u, 0x008BFFB7u,
    0x0005FFB4u, 0x0005FFC5u, 0x01FA0024u, 0x00640036u,
    0x0082001Du, 0x0018000Du, 0x0059FFCEu, 0x01E6001Bu,
    0x01E1FFEEu, 0x01F3FFC4u, 0x01CBFFB5u, 0x0034003Au,
    0x01E00022u, 0x0194002Cu, 0x004BFFFFu, 0x01E3FFA4u,
    0x01D40037u, 0x01620019u, 0x01CE0019u, 0x0025FFEAu,
    0x01C40030u, 0x0005FFC4u, 0x01880015u, 0x0025FFD2u,
    0x01900024u, 0x018E0022u, 0x01FA000Du, 0x0063FFD8u,
    0x0065FFB1u, 0x01A80033u, 0x0053FFFAu, 0x018DFFFBu,
    0x01E4001Fu, 0x01E3FFD0u, 0x0088004Au, 0x019BFFD4u,
    0x000A002Cu, 0x01CC0005u, 0x01940033u, 0x0190002Fu,
    0x016BFFD4u, 0x01C7FFC8u, 0x003FFFE4u, 0x01B9FFD6u,
    0x01B0001Eu, 0x01CBFFF4u, 0x01FE0013u, 0x000FFFF5u,
    0x0052002Eu, 0x0009FFE1u, 0x01E00019u, 0x0009FFCDu,
    0x008BFFF3u, 0x01C0003Au, 0x00120023u, 0x01C40015u,
    0x0082002Cu, 0x00680009u, 0x018E0015u, 0x01CA003Bu,
    0x01E80029u, 0x01D8000Cu, 0x01A9FFE7u, 0x0176000Cu,
    0x0082001Du, 0x01760042u, 0x018FFFC7u, 0x01C60038u,
    0x015DFFD1u, 0x006A0013u, 0x0083FFB1u, 0x01760015u,
    0x0007FFD1u, 0x01CFFFD6u, 0x00540019u, 0x01AA0026u,
    0x0023FFBAu, 0x0002001Bu, 0x01820006u, 0x015FFFE6u,
    0x0093FFF0u, 0x01C40029u, 0x005C0056u, 0x0027FFE7u,
    0x002A0005u, 0x01CDFFE6u, 0x0197FFF3u, 0x01C3FFCFu,
    0x01D40029u, 0x01AE0041u, 0x0156001Du, 0x0005FFC0u,
    0x01FDFFC0u, 0x01EBFFFDu, 0x000C0042u, 0x015BFFFBu,
    0x019C0006u, 0x01E40045u, 0x01B3FFD2u, 0x00180025u,
    0x0075FFC9u, 0x003C0037u, 0x006DFFBDu, 0x0089FFE8u,
    0x018DFFE0u, 0x0074003Cu, 0x01A00006u, 0x00380019u,
    0x01E20008u, 0x01DE004Fu, 0x00720007u, 0x019C002Du,
    0x0037FFECu, 0x01BBFFC1u, 0x0033FFF6u, 0x0193FFF9u,
    0x003A0045u, 0x01F80030u, 0x009A001Bu, 0x00580033u,
    0x00120008u, 0x01BFFFE7u, 0x0058002Fu, 0x007BFFD4u,
    0x0053FFFFu, 0x01F60006u, 0x0017FFC7u, 0x0005FFCBu,
    0x01EFFFFCu, 0x00720027u, 0x001DFFC4u, 0x0023FFFFu,
    0x01B1FFF4u, 0x0017FFDEu, 0x0001FFC9u, 0x005E001Cu,
    0x00820027u, 0x019BFFC6u, 0x006FFFD9u, 0x01E8003Fu,
    0x0017FFE7u, 0x002DFFCFu, 0x018A0024u, 0x0017FFF7u,
    0x005FFFC0u, 0x019E002Fu, 0x01A20027u, 0x00300017u,
    0x01CDFFECu, 0x014C0023u, 0x0123FFCEu, 0x01DFFFF4u,
    0x01940026u, 0x004C0012u, 0x01F60022u, 0x01FA0015u,
    0x00600043u, 0x0081FFD0u, 0x01BFFFCFu, 0x0023FFDAu,
    0x004E002Bu, 0x01FC0023u, 0x01E9FFC0u, 0x01B7FFEAu,
    0x0032003Bu, 0x0011FFCDu, 0x01FA0055u, 0x01DDFFBDu,
    0x01E20032u, 0x0055FFC7u, 0x006DFFE3u, 0x0194002Eu,
    0x01DBFFB9u, 0x01E20028u, 0x01B60034u, 0x0193FFAEu,
    0x008E0021u, 0x0162001Fu, 0x0171FFC4u, 0x0069FFC4u,
    0x00640031u, 0x01AFFFD3u, 0x01F3FFDCu, 0x01CA0015u,
    0x017A0013u, 0x01BC0009u, 0x0011FFEDu, 0x01A9FFEEu,
    0x007E0017u, 0x018DFFFBu, 0x00240019u, 0x018C002Du,
    0x00360007u, 0x007E000Bu, 0x01CBFFADu, 0x0033FFC4u,
    0x01C9FFFDu, 0x0047FFD7u, 0x01A20028u, 0x01D20022u,
    0x006DFFFDu, 0x01B4001Eu, 0x01A0002Au, 0x005C003Au,
    0x0037FFCBu, 0x0027FFDFu, 0x01E9FFD5u, 0x0183FFFAu,
    0x0174000Du, 0x018E001Cu, 0x0017FFB3u, 0x00920037u,
    0x018DFFB6u, 0x01F1FFB0u, 0x01C20017u, 0x01B9FFEAu,
    0x01A0000Eu, 0x003A0031u, 0x0097FFC8u, 0x0178002Bu,
    0x0015FFFCu, 0x007FFFE8u, 0x00180012u, 0x005E0046u,
    0x000C003Cu, 0x01E3FFC9u, 0x007DFFE8u, 0x00420024u,
    0x01C1FFDCu, 0x0059FFC9u, 0x01C9FFD2u, 0x007E003Eu,
    0x01D40027u, 0x003FFFE6u, 0x006BFFCEu, 0x01B3FFFAu,
    0x0176001Bu, 0x00A7FFF6u, 0x01C7FFF9u, 0x00840003u,
    0x01EE003Cu, 0x01CE0014u, 0x00A40036u, 0x01D5FFCFu,
    0x01940000u, 0x01A5FFCEu, 0x0061FFD6u, 0x01E9FFB7u,
    0x01F3FFF6u, 0x01F5FFE1u, 0x00840028u, 0x005E0034u,
    0x01CE000Bu, 0x00160000u, 0x01D20039u, 0x0177FFCCu,
    0x014FFFBFu, 0x01FFFFEDu, 0x003BFFEBu, 0x01FC0046u,
    0x01F60027u, 0x00020010u, 0x0065FFE1u, 0x009FFFD4u,
    0x006DFFF1u, 0x000E0021u, 0x003BFFD6u, 0x01FFFFB3u,
    0x01F7FFCBu, 0x01940055u, 0x01FE0004u, 0x01B80025u,
    0x00080013u, 0x01D1FFFCu, 0x01F7FFF9u, 0x00A2002Eu,
    0x006DFFF5u, 0x01B7FFB7u, 0x01BFFFFBu, 0x00740021u,
    0x01C3FFCEu, 0x018FFFFCu, 0x0185FFE6u, 0x004FFFB9u,
    0x01F7FFE6u, 0x01680019u, 0x018C0012u, 0x01C3FFD8u,
    0x01C5FFEAu, 0x005DFFDEu, 0x01A80018u, 0x00860042u,
    0x019E002Bu, 0x01BBFFC5u, 0x009FFFC5u, 0x01A20013u,
    0x01E7FFECu, 0x0189FFDCu, 0x0057FFDBu, 0x00140027u,
    0x01EC0024u, 0x01D00029u, 0x01C5FFDDu, 0x0069FFECu,
    0x007A0004u, 0x00340021u, 0x0199FFEBu, 0x00360020u,
    0x01EA001Au, 0x01A1FFFEu, 0x0015FFCCu, 0x001BFFD5u,
    0x007FFFDBu, 0x018A0002u, 0x003FFFE0u, 0x0190000Cu,
    0x003A0036u, 0x003A0012u, 0x01F8002Fu, 0x0033FFFCu,
    0x0089FFAEu, 0x01BA0010u, 0x0099FFE6u, 0x01EE0022u,
    0x01FA0000u, 0x002E0022u, 0x01BDFFEEu, 0x01AFFFB9u,
    0x0003FFF2u, 0x0095FFCFu, 0x01C3FFD6u, 0x01CE0012u,
    0x01720042u, 0x01E20030u, 0x01FBFFCFu, 0x01E7FFDBu,
    0x01D40023u, 0x01D20037u, 0x001E0025u, 0x0047FFF3u,
    0x01E9FFF7u, 0x00740032u, 0x01D5FFEEu, 0x0011FFFCu,
    0x004A0035u, 0x006BFFE5u, 0x009E0016u, 0x0035FFDBu,
    0x01A3FFE4u, 0x0087FFECu, 0x005A0036u, 0x006C0011u,
    0x003FFFF5u, 0x0081FFC6u, 0x01D1FFBCu, 0x01EFFFEEu,
    0x01F6004Cu, 0x0083FFBCu, 0x007A002Au, 0x01E4000Bu,
    0x01EA000Bu, 0x019BFFF8u, 0x002DFFB7u, 0x01B3FFD5u,
    0x0062001Bu, 0x000BFFD3u, 0x01B3FFE9u, 0x01C5FFFFu,
    0x008DFFFBu, 0x005C0056u, 0x0083FFBDu, 0x01DA003Cu,
    0x019A000Cu, 0x0019FFB3u, 0x00A1FFFBu, 0x00A7FFFDu,
    0x0197FFC6u, 0x008FFFEEu, 0x0013FFD8u, 0x0013FFC4u,
    0x01E00039u, 0x0059FFC5u, 0x01CBFFFCu, 0x0189FFD4u,
    0x00380000u, 0x00A5FFD9u, 0x01FFFFF2u, 0x01F6000Du,
    0x0050003Eu, 0x004BFFBAu, 0x00920041u, 0x01EDFFB4u,
    0x01E80022u, 0x005BFFDAu, 0x000A000Cu, 0x004C0014u,
    0x0045FFD5u, 0x0054001Eu, 0x01B5FFD4u, 0x01DBFFBAu,
    0x01F60038u, 0x000DFFCAu, 0x01FA001Cu, 0x0031FFFCu,
    0x01B5FFF2u, 0x019C001Au, 0x01AE0008u, 0x01C00023u,
    0x019E002Au, 0x01700047u, 0x017DFFB0u, 0x005E0039u,
    0x00180025u, 0x01A5FFC6u, 0x0161FFB5u, 0x00020006u,
    0x01740048u, 0x019E0046u, 0x0024002Fu, 0x006C0023u,
    0x016BFFC4u, 0x01E9FFD3u, 0x006BFFBBu, 0x0042001Eu,
    0x01AFFFB8u, 0x00420026u, 0x018E0003u, 0x01C1FFBDu,
    0x00320007u, 0x01EDFFCAu, 0x01CDFFD8u, 0x01B80007u,
    0x001E0029u, 0x01880024u, 0x01A20035u, 0x0018003Bu,
    0x0028000Cu, 0x0065FFF1u, 0x01F80022u, 0x001E0011u,
    0x001DFFEBu, 0x0071FFC5u, 0x01C3FFE4u, 0x0029FFCAu,
    0x006DFFE5u, 0x0195FFE8u, 0x01E5FFF1u, 0x00360036u,
    0x01AA000Fu, 0x01E5FFD7u, 0x01A1FFF5u, 0x0053FFB7u,
    0x0073FFB0u, 0x01B80021u, 0x002BFFCDu, 0x0071FFDFu,
    0x01F00013u, 0x0021FFEFu, 0x0087FFCEu, 0x01E1FFE0u,
    0x001BFFCFu, 0x0007FFDEu, 0x01DC000Cu, 0x01BFFFDCu,
    0x0040002Eu, 0x0003FFE1u, 0x0082003Du, 0x0181FFD8u,
    0x01F8000Eu, 0x00520014u, 0x002BFFCDu, 0x01DE0038u,
    0x018A0036u, 0x0041FFCAu, 0x005E0016u, 0x01660015u,
    0x008E000Au, 0x01E7FFD4u, 0x01AA0005u, 0x01DE0007u,
    0x01C40016u, 0x0004002Du, 0x0028002Eu, 0x01F20008u,
    0x0001FF9Eu, 0x00220033u, 0x00100001u, 0x004FFFF9u,
    0x006E0004u, 0x019A0012u, 0x01FE0006u, 0x00540020u,
    0x01AA0040u, 0x01AC0016u, 0x00620000u, 0x01E00016u,
    0x01C9FFE6u, 0x01A3FFE3u, 0x01DFFFE7u, 0x0170003Bu,
    0x0025FFF4u, 0x00080020u, 0x01FBFFF2u, 0x007DFFDFu,
    0x0088004Du, 0x01AA005Du, 0x00660043u, 0x01D9FFE1u,
    0x003DFFF3u, 0x0009FFB1u, 0x01D3FFD0u, 0x002A001Eu,
    0x01B00020u, 0x017C0010u, 0x01900025u, 0x01800046u,
    0x01F3FFC1u, 0x01F1FFDAu, 0x0047FFB5u, 0x0055FFF2u,
    0x01D9FFDAu, 0x01CC0008u, 0x01960020u, 0x0185FFF4u,
    0x0041FFF2u, 0x01A20024u, 0x0069FFEAu, 0x01A0002Au,
    0x01E8001Cu, 0x017C0042u, 0x01FDFFC5u, 0x006A0016u,
    0x0061FFF2u, 0x019A0004u, 0x009C0009u, 0x0053FFFEu,
    0x01A9FFE1u, 0x0007FFC0u, 0x0019FFBBu, 0x0197FFD9u,
    0x0067FFE0u, 0x0075FFD3u, 0x0018003Bu, 0x019BFFB9u,
    0x016A0043u, 0x00960043u, 0x01F1FFFCu, 0x007FFFF0u,
    0x01BBFFDDu, 0x001FFFF7u, 0x00140055u, 0x01C80021u,
    0x0065FFE2u, 0x01E0000Eu, 0x0197FFB6u, 0x01EFFFDBu,
    0x0049FFDFu, 0x0009FFC2u, 0x01CA001Bu, 0x01DBFFC3u,
    0x0187FFC6u, 0x01C5FFF5u, 0x01A60019u, 0x007FFFBDu,
    0x0089FFF9u, 0x00320040u, 0x01C9FFBDu, 0x00500004u,
    0x0025FFFCu, 0x002C001Au, 0x01F2002Cu, 0x0167FFE3u,
    0x01BFFFFDu, 0x00760033u, 0x01CA0033u, 0x0051FFC6u,
    0x01D7FFAEu, 0x01C7FFCAu, 0x01F9FFE7u, 0x0039FFBCu,
    0x01880034u, 0x009A0001u, 0x008DFFB0u, 0x0183FFC2u,
    0x01EA000Eu, 0x01DFFFD3u, 0x0097FFEDu, 0x01E7FFD4u,
    0x002BFFB5u, 0x01700015u, 0x009FFFD0u, 0x018BFFFAu,
    0x01960044u, 0x007FFFDBu, 0x018BFFB9u, 0x003DFFF4u,
    0x0001FFDFu, 0x0193FFBFu, 0x01AFFFFEu, 0x001FFFBEu,
    0x00A1FFC4u, 0x0046002Bu, 0x01D3FFD3u, 0x0181FFAEu,
    0x00520001u, 0x017E0016u, 0x006E000Du, 0x004A000Du,
    0x018BFFCCu, 0x0095FFD9u, 0x0007FFEBu, 0x0049FFE9u,
    0x01F3FFBFu, 0x01A8001Fu, 0x00700027u, 0x002DFFBFu,
    0x01700034u, 0x006DFFBDu, 0x0033FFFEu, 0x003C0027u,
    0x00180028u, 0x0069FFEBu, 0x00A3FFCCu, 0x01E5FFFDu,
    0x0084002Au, 0x01F20034u, 0x01920048u, 0x0033FFF7u,
    0x004E0028u, 0x002DFFEEu, 0x004A0047u, 0x01D6001Eu,
    0x007A0015u, 0x01EC0019u, 0x019A0006u, 0x0031FFF9u,
    0x0081FFC6u, 0x018C0020u, 0x01B9FFD8u, 0x01EFFFFBu,
    0x0097FFEBu, 0x00340021u, 0x001E0042u, 0x0169FFD2u,
    0x01B8000Bu, 0x017DFFCFu, 0x01F1FFD7u, 0x01B7FFE6u,
    0x00560037u, 0x0188004Eu, 0x0099FFFCu, 0x005DFFD1u,
    0x0084003Bu, 0x00500021u, 0x00A3FFD6u, 0x01F2002Cu,
    0x01D5FFFCu, 0x0061FFD2u, 0x00360022u, 0x017C0028u,
    0x000A004Fu, 0x01D60029u, 0x000FFFF8u, 0x00360043u,
    0x003C0037u, 0x006A004Fu, 0x01D6002Cu, 0x01E00000u,
    0x01ABFFEFu, 0x006A000Au, 0x0187FFDDu, 0x00280006u,
    0x003BFFC4u, 0x018FFFC1u, 0x00640004u, 0x0064002Eu,
    0x0055FFFBu, 0x0062002Cu, 0x01860038u, 0x0164000Eu,
    0x00A3FFE2u, 0x00440029u, 0x01AA005Bu, 0x003BFFE9u,
    0x01D1FFDDu, 0x000C0027u, 0x01DA001Eu, 0x0024002Au,
    0x0071FFF7u, 0x01F5FFB5u, 0x01F40029u, 0x01C9FFFBu,
    0x0169FFC5u, 0x0047FFD2u, 0x019BFFF2u, 0x017DFFF3u,
    0x00360055u, 0x0035FFDEu, 0x0065FFF7u, 0x0041FFCBu,
    0x01D5FFCBu, 0x00360041u, 0x01D9FFE1u, 0x0175FFC9u,
    0x01F40033u, 0x01F9FFB4u, 0x018FFFE4u, 0x01D20008u,
    0x0013FFDAu, 0x008DFFF7u, 0x0069FFC1u, 0x019BFFE1u,
    0x01C5FFDAu, 0x0196005Cu, 0x0015FFB5u, 0x00380057u,
    0x01E4003Du, 0x001E0043u, 0x0054000Du, 0x00580034u,
    0x00380042u, 0x005E0015u, 0x006C0027u, 0x001BFFF1u,
    0x01F40041u, 0x005FFFBDu, 0x01700007u, 0x01A4001Cu,
    0x01BC0039u, 0x01E8000Bu, 0x006BFFDCu, 0x004DFFC9u,
    0x016C0018u, 0x002A0046u, 0x01CDFFD6u, 0x01C1FFD4u,
    0x00000048u, 0x01DE0016u, 0x01C3FFFEu, 0x018FFFDCu,
    0x00300030u, 0x0161FFDAu, 0x0183FFDFu, 0x01A5FFF8u,
    0x0067FFFFu, 0x016DFFE8u, 0x00120031u, 0x01E40002u,
    0x008A002Cu, 0x00260060u, 0x0045FFE4u, 0x01CBFFD9u,
    0x01BBFFE2u, 0x01B3FFC0u, 0x0056000Au, 0x0055FFF0u,
    0x00860024u, 0x004A000Eu, 0x01E60015u, 0x007A0026u,
    0x0199FFD0u, 0x01D80034u, 0x017FFFCEu, 0x01860007u,
    0x00380012u, 0x01E40004u, 0x00280027u, 0x004E0005u,
    0x018C0039u, 0x006FFFADu, 0x0033FFFEu, 0x0073FFC9u,
    0x0165FFFDu, 0x0047FFC4u, 0x01CDFFBDu, 0x01EE0003u,
    0x01F7FFEFu, 0x00760043u, 0x00240004u, 0x01FC0047u,
    0x0087FFCEu, 0x0011FFFDu, 0x01B2001Au, 0x00560023u,
    0x01EBFFE5u, 0x00820010u, 0x01CFFFCCu, 0x015DFFF8u,
    0x0000001Du, 0x0035FFFAu, 0x0061FFBFu, 0x0041FFCDu,
    0x00920024u, 0x01AA0039u, 0x0009FFC3u, 0x0032002Fu,
    0x01B7FFD1u, 0x009A0023u, 0x01EBFFC9u, 0x01A80002u,
    0x01ADFFCDu, 0x004C0009u, 0x0035FFF9u, 0x01C9FFE3u,
    0x0186004Cu, 0x006DFFE7u, 0x01EA0010u, 0x01EFFFFAu,
    0x0187FFF4u, 0x01D6003Au, 0x0019FFBEu, 0x0051FFCFu,
    0x00760036u, 0x0184004Au, 0x01A80029u, 0x0025FFC2u,
    0x01C5FFE5u, 0x016E002Cu, 0x0035FFDFu, 0x0046003Cu,
    0x007DFFF5u, 0x01B0000Bu, 0x0054002Bu, 0x0053FFCDu,
    0x00760056u, 0x00660051u, 0x01EBFFF1u, 0x01B5FFE6u,
    0x01D1FFEFu, 0x0037FFF2u, 0x01AFFFDAu, 0x01EE002Eu,
    0x0004002Cu, 0x01E40027u, 0x01BC0018u, 0x01C20058u,
    0x01E60036u, 0x0027FFDFu, 0x006A000Du, 0x004DFFFBu,
    0x0199FFD6u, 0x01D5FFEDu, 0x005DFFE0u, 0x01C9FFC6u,
    0x01BA004Eu, 0x01BA0042u, 0x000E0009u, 0x01CBFFEBu,
    0x0161FFDFu, 0x006FFFF1u, 0x0007FFE6u, 0x01B00005u,
    0x01BE000Bu, 0x006C0019u, 0x002BFFE7u, 0x01ADFFF1u,
    0x019C0039u, 0x01BE0039u, 0x0087FFFCu, 0x01E6002Fu,
    0x002FFFFAu, 0x000DFFE5u, 0x007E0028u, 0x0065FFCBu,
    0x0170000Du, 0x0151FFAEu, 0x0053FFFBu, 0x004A003Au,
    0x01E9FFCFu, 0x000FFFE2u, 0x004E003Du, 0x003A0043u,
    0x0082004Du, 0x001DFFD9u, 0x000DFFD9u, 0x01D7FFCEu,
    0x016FFFAFu, 0x0068002Au, 0x0018002Fu, 0x01ADFFC3u,
    0x019DFFE0u, 0x00340027u, 0x01F2002Cu, 0x01F9FFE3u,
    0x0097FFCAu, 0x01EBFFCCu, 0x01FE000Fu, 0x01C3FFDAu,
    0x01EA004Cu, 0x0027FFF0u, 0x0003FFBAu, 0x01D5FFC9u,
    0x01DBFFD5u, 0x00400013u, 0x003DFFEEu, 0x01EDFFECu,
    0x01B1FFD1u, 0x0053FFA3u, 0x001C0003u, 0x001C0015u,
    0x001BFFC4u, 0x0179FFF6u, 0x009FFFCDu, 0x01D2004Au,
    0x000FFFEAu, 0x0004004Cu, 0x0009FFF5u, 0x007DFFE0u,
    0x0029FFFBu, 0x01960048u, 0x0023FFF7u, 0x0037FFEDu,
    0x0095FFF9u, 0x0199FFDCu, 0x0050003Du, 0x0021FFEEu,
    0x01BFFFF6u, 0x0003FFD5u, 0x000BFFFCu, 0x019BFFE6u,
    0x001C002Fu, 0x01A60029u, 0x0011FFE3u, 0x00600044u,
    0x00160052u, 0x001A0012u, 0x006FFFD0u, 0x006BFFD8u,
    0x01900028u, 0x0013FFEDu, 0x006DFFCAu, 0x00380000u,
    0x01EDFFEBu, 0x01E1FFD1u, 0x005FFFB1u, 0x01B5FFEEu,
    0x01A40043u, 0x0027FFBBu, 0x0012003Au, 0x01C00033u,
    0x01C60048u, 0x006E0049u, 0x01BE0043u, 0x002FFFE1u,
    0x018C0016u, 0x01EE000Du, 0x000E001Fu, 0x01AC0046u,
    0x004DFFAFu, 0x0043FFCCu, 0x003DFFABu, 0x01DBFFD4u,
    0x015E0011u, 0x019A003Au, 0x00780038u, 0x01AC0032u,
    0x0089FFBDu, 0x00240046u, 0x0003FFDEu, 0x01E7FFF8u,
    0x00620009u, 0x017E0020u, 0x01C60009u, 0x01840003u,
    0x01F2001Du, 0x01F0001Cu, 0x0067FFEEu, 0x01E5FFC5u,
    0x001FFFDCu, 0x0171FFC1u, 0x01840039u, 0x018DFFB2u,
    0x001DFFEAu, 0x002DFFB2u, 0x01F1FFD4u, 0x000FFFAEu,
    0x01D3FFE5u, 0x01A3FFECu, 0x0055FFFFu, 0x01B6000Eu,
    0x0151FFCBu, 0x007C003Cu, 0x015E0017u, 0x0197FFDFu,
    0x0053FFC6u, 0x0053FFD7u, 0x0055FFC6u, 0x00320024u,
    0x003BFFE4u, 0x0027FFDFu, 0x01C1FFD9u, 0x01B8002Bu,
    0x01BFFFD9u, 0x00080000u, 0x01EDFFC8u, 0x001C0019u,
    0x004A002Bu, 0x0183FFDCu, 0x00440007u, 0x003A003Au,
    0x01E2001Bu, 0x01D3FFD9u, 0x0077FFD0u, 0x01960023u,
    0x0070003Fu, 0x0057FFCEu, 0x000C000Bu, 0x0028001Eu,
    0x01E20028u, 0x016FFFD3u, 0x001C000Cu, 0x003E0023u,
    0x0003FFD7u, 0x000FFFF0u, 0x0173FFD4u, 0x01ADFFFDu,
    0x00360053u, 0x00740007u, 0x019C003Fu, 0x01A9FFE3u,
    0x00540033u, 0x00600038u, 0x009C0020u, 0x01E80029u,
    0x0003FFB2u, 0x01AFFFE3u, 0x0183FFCDu, 0x01D8000Eu,
    0x0007FFC2u, 0x01E60031u, 0x0077FFB1u, 0x007DFFE9u,
    0x01EDFFD3u, 0x01DFFFF1u, 0x0037FFB7u, 0x0053FFDDu,
    0x0081FFF6u, 0x01C1FFCAu, 0x00080030u, 0x0185FFF6u,
    0x000C0016u, 0x01EDFFE6u, 0x017DFFCCu, 0x01B2002Du,
    0x01EA0013u, 0x001BFFF4u, 0x01F20004u, 0x0074000Au,
    0x01B1FFFFu, 0x018BFFE7u, 0x0023FFC3u, 0x00840008u,
    0x018BFFECu, 0x01E40010u, 0x01A20016u, 0x0077FFF4u,
    0x019E003Fu, 0x01DE0021u, 0x003FFFB7u, 0x019DFFE6u,
    0x008C000Fu, 0x0080000Fu, 0x01F80035u, 0x003E001Cu,
    0x00540043u, 0x01CDFFE5u, 0x007DFFCFu, 0x008BFFFEu,
    0x01B9FFDEu, 0x01740002u, 0x0082004Au, 0x003A004Bu,
    0x01A5FFD2u, 0x01C9FFDEu, 0x01F6003Fu, 0x005DFFE4u,
    0x0181FFDEu, 0x00200046u, 0x01CA0006u, 0x01C9FFFFu,
    0x019E0031u, 0x0187FFBBu, 0x0083FFCFu, 0x0063FFEEu,
    0x01D2003Fu, 0x00540057u, 0x002A0013u, 0x01A80025u,
    0x01FC002Cu, 0x0030000Fu, 0x00520038u, 0x01DE003Eu,
    0x005A0000u, 0x01A00024u, 0x019A000Bu, 0x0002004Cu,
    0x0197FFF1u, 0x0065FFF7u, 0x00720011u, 0x0005FFC3u,
    0x0016001Du, 0x01C00034u, 0x01900042u, 0x00680030u,
    0x004E0048u, 0x0021FFAEu, 0x0021FFFBu, 0x006C0002u,
    0x008FFFDFu, 0x0020003Fu, 0x006A000Bu, 0x017FFFCAu,
    0x003DFFBAu, 0x01A7FFCBu, 0x00260017u, 0x01F0003Bu,
    0x01A8002Du, 0x00780007u, 0x003C0047u, 0x0199FFFEu,
    0x01F7FFCEu, 0x0004000Bu, 0x01EA0006u, 0x019A0033u,
    0x00180010u, 0x00460039u, 0x01F9FFCBu, 0x0178003Fu,
    0x016E0018u, 0x01D3FFF1u, 0x01BA0031u, 0x01A7FFE8u,
    0x0057FFBCu, 0x0001FFD7u, 0x01C5FFC4u, 0x0025FFE5u,
    0x0084000Du, 0x01BC0021u, 0x00820006u, 0x018BFFEBu,
    0x003DFFC0u, 0x0001FFE1u, 0x0019FFF2u, 0x01C9FFFDu,
    0x0027FFBBu, 0x0037FFF7u, 0x00620015u, 0x018C002Du,
    0x00840021u, 0x01FE002Du, 0x00320025u, 0x019C0010u,
    0x0195FFE9u, 0x01D5FFDFu, 0x00640027u, 0x0041FFDCu,
    0x0185FFD7u, 0x01EFFFCFu, 0x01A80017u, 0x0175FFBAu,
    0x01560002u, 0x01A9FFC4u, 0x00560022u, 0x0039FFE7u,
    0x01C1FFB9u, 0x0051FFD1u, 0x0173FFC7u, 0x015A0025u,
    0x01E00007u, 0x0009FFD9u, 0x00A40002u, 0x01D7FFFEu,
    0x01C60005u, 0x006C001Eu, 0x01DFFFCFu, 0x01FFFFFAu,
    0x01C1FFF6u, 0x008E0006u, 0x0075FFEDu, 0x019C000Fu,
    0x001C0017u, 0x00320005u, 0x01DC002Fu, 0x0001FFF0u,
    0x01D0001Cu, 0x0027FFE6u, 0x00420004u, 0x005BFFD3u,
    0x01B3FFF7u, 0x00480048u, 0x01820016u, 0x00B80026u,
    0x01FE003Au, 0x01B40008u, 0x01BE002Bu, 0x0017FFF0u,
    0x01B8000Eu, 0x017C004Du, 0x01E1FFC7u, 0x0185FFFAu,
    0x0025FFCAu, 0x01A20019u, 0x0007FFBFu, 0x000C001Au,
    0x001FFFF3u, 0x00A2003Eu, 0x008E0005u, 0x01E3FFBAu,
    0x000A000Fu, 0x0049FFACu, 0x01AC0041u, 0x007A0022u,
    0x0021FFD5u, 0x01F7FFE8u, 0x01AC0019u, 0x01E5FFF0u,
    0x00040030u, 0x01FA0050u, 0x01B20029u, 0x0083FFCFu,
    0x00240024u, 0x0035FFE6u, 0x0027FFFEu, 0x00680038u,
    0x0011FFF3u, 0x0095FFE7u, 0x01AE0027u, 0x01A5FFE6u,
    0x00320035u, 0x00320007u, 0x01E00005u, 0x01D8001Cu,
    0x01BC001Au, 0x017FFFE9u, 0x0007FFC3u, 0x01F40012u,
    0x01EFFFD2u, 0x01D00014u, 0x01D5FFDEu, 0x01FA004Cu,
    0x01E20044u, 0x01E80038u, 0x01C3FFABu, 0x0189FFCAu,
    0x016A000Fu, 0x0021FFC8u, 0x01F40015u, 0x003A0015u,
    0x01B9FF94u, 0x017FFFF1u, 0x014E0027u, 0x019FFFD7u,
    0x002E0034u, 0x004BFFD6u, 0x01DA0001u, 0x00380007u,
    0x0067FFF1u, 0x004FFFF1u, 0x0008002Du, 0x01FDFFB9u,
    0x01C3FFCCu, 0x001DFFC6u, 0x00400042u, 0x004BFFC1u,
    0x0025FFBEu, 0x00020008u, 0x01AA001Du, 0x0036000Bu,
    0x01DFFFFAu, 0x01D20047u, 0x014A0010u, 0x01A8003Eu,
    0x00520011u, 0x01F8002Eu, 0x000FFFD8u, 0x00260003u,
    0x01EE0031u, 0x002A0045u, 0x01D5FFB3u, 0x0048002Cu,
    0x01FC0055u, 0x001FFFBEu, 0x01D80030u, 0x01F5FFF3u,
    0x006FFFCDu, 0x002BFFC3u, 0x003E0012u, 0x01F8000Fu,
    0x01EDFFF7u, 0x0063FFD2u, 0x01C7FFFAu, 0x00300018u,
    0x0002001Fu, 0x003BFFD9u, 0x0037FFD2u, 0x01D9FFE5u,
    0x01AA002Au, 0x0015FFD2u, 0x0013FFD2u, 0x0033FFE6u,
    0x01ABFFCFu, 0x017E0003u, 0x0093FFBFu, 0x01800005u,
    0x000DFFF3u, 0x0005FFD1u, 0x01F60038u, 0x0006002Bu,
    0x00200032u, 0x0032000Fu, 0x00700031u, 0x0189FFEAu,
    0x01DC002Du, 0x01FC0039u, 0x018E0036u, 0x01F7FFF9u,
    0x005DFFD2u, 0x002FFFECu, 0x01D7FFC5u, 0x006A0028u,
    0x01A40015u, 0x006A002Fu, 0x01CC0033u, 0x0001FFD4u,
    0x01EC0013u, 0x001BFFFDu, 0x01EDFFF2u, 0x0199FFCAu,
    0x00000028u, 0x0095FFEAu, 0x002A001Eu, 0x005FFFC9u,
    0x00A5FFFAu, 0x0057FFE7u, 0x01C60015u, 0x0037FFABu,
    0x018DFFFAu, 0x00420001u, 0x01AA0061u, 0x0021FFF6u,
    0x0043FFF6u, 0x0083FFC6u, 0x006A003Au, 0x019DFFE9u,
    0x002FFFCDu, 0x01D20001u, 0x0074002Bu, 0x01900007u,
    0x0189FFE6u, 0x01AA0000u, 0x002C000Cu, 0x01FDFFB4u,
    0x0019FFCAu, 0x003FFFE3u, 0x01760018u, 0x01C6001Eu,
    0x0025FFD9u, 0x00080005u, 0x0045FFE3u, 0x0157FFE2u,
    0x008FFFD0u, 0x0033FFB6u, 0x01FC002Eu, 0x01F00018u,
    0x01C3FFABu, 0x0031FFC0u, 0x019A000Du, 0x01A40007u,
    0x01940024u, 0x015BFFD8u, 0x0187FFCFu, 0x0069FFB2u,
    0x0009FFE3u, 0x00940044u, 0x0087FFE4u, 0x018FFFF3u,
    0x01980014u, 0x0033FFD1u, 0x019C000Fu, 0x01A3FFCCu,
    0x01C7FFFEu, 0x00560018u, 0x006C003Cu, 0x00BA0041u,
    0x01D6002Du, 0x01F8000Au, 0x008FFFBDu, 0x00260009u,
    0x00360057u, 0x0008004Cu, 0x01FC0037u, 0x001C0012u,
    0x01B5FFEBu, 0x002C0047u, 0x018E0000u, 0x003C0011u,
    0x01C6004Au, 0x00000055u, 0x01CE0009u, 0x00A9FFCDu,
    0x01F1FFEAu, 0x0175FFBBu, 0x01B40023u, 0x01D9FFA9u,
    0x01AE0011u, 0x0019FFDBu, 0x01A60014u, 0x00600031u,
    0x0181FFAEu, 0x018BFFF8u, 0x00500012u, 0x00780019u,
    0x01E20015u, 0x00440030u, 0x0079FFCFu, 0x0065FFD4u,
    0x01DC0013u, 0x0016001Cu, 0x000BFFEBu, 0x01AA0005u,
    0x01FDFFFBu, 0x001C003Du, 0x01A1FFFCu, 0x0170001Du,
    0x01920005u, 0x01E7FFF9u, 0x0037FFB7u, 0x017DFFCBu,
    0x001E0017u, 0x0094000Eu, 0x008DFFD6u, 0x01F3FFFDu,
    0x01D40014u, 0x003E0016u, 0x01D80001u, 0x01940006u,
    0x018FFFE2u, 0x015DFFD3u, 0x0164002Du, 0x000C0023u,
    0x003DFFCEu, 0x01DDFFDBu, 0x0053FFECu, 0x01B6000Bu,
    0x0055FFE3u, 0x009BFFE6u, 0x018C0041u, 0x005A003Cu,
    0x01F1FFD6u, 0x01D9FF9Eu, 0x002FFFBFu, 0x01D3FFA4u,
    0x00620001u, 0x01C5FFD2u, 0x01A60025u, 0x000A000Du,
    0x01B40022u, 0x015A0003u, 0x01FA000Eu, 0x00540024u,
    0x01FC001Au, 0x00200013u, 0x00740018u, 0x0021FFC4u,
    0x006C000Du, 0x01ADFFC4u, 0x01F9FFBFu, 0x01AC000Du,
    0x018A005Au, 0x01420025u, 0x0189FFE5u, 0x016FFFFEu,
    0x0195FFBDu, 0x01B60027u, 0x01D0003Bu, 0x019E0013u,
    0x001DFFD3u, 0x005DFFD3u, 0x01860012u, 0x0029FFCBu,
    0x0061FFB2u, 0x0042002Cu, 0x01C00039u, 0x0001FFE6u,
    0x01C60046u, 0x0077FFEAu, 0x0095FFCCu, 0x0196001Fu,
    0x01BA0042u, 0x0031FFC1u, 0x003A0000u, 0x0034002Bu,
    0x005E0008u, 0x01D40006u, 0x00A80042u, 0x0046001Au,
    0x01AFFFCDu, 0x01B3FFD2u, 0x00360052u, 0x0087FFCEu,
    0x001BFFF0u, 0x007E0042u, 0x018FFFD1u, 0x01BFFFC9u,
    0x018C0027u, 0x0095FFDFu, 0x0068002Eu, 0x0048002Au,
    0x01CBFFB5u, 0x01A40030u, 0x0045FFD1u, 0x00000018u,
    0x01A7FFBFu, 0x018DFFD0u, 0x01B7FFDDu, 0x01B20024u,
    0x0005FFC7u, 0x0184000Au, 0x00820007u, 0x01780010u,
    0x00660007u, 0x01E7FFD1u, 0x0039FFF6u, 0x00580054u,
    0x002C0015u, 0x01C8002Au, 0x0087FFE5u, 0x01CBFFCFu,
    0x0195FFADu, 0x01B7FFE9u, 0x01580001u, 0x01800005u,
    0x01B60023u, 0x0003FFECu, 0x0018003Du, 0x002BFFB8u,
    0x000A0020u, 0x01C6003Cu, 0x0189FFB5u, 0x01CFFFECu,
    0x01BDFFC0u, 0x01A9FFC4u, 0x00B1FFB8u, 0x01A2001Eu,
    0x01B80012u, 0x01CBFFC1u, 0x01E3FFD2u, 0x007A0042u,
    0x01A7FFE3u, 0x0053FFDEu, 0x01EE0000u, 0x01860036u,
    0x0039FFC1u, 0x0045FFB5u, 0x0041FFD4u, 0x01DE0006u,
    0x01DFFFC4u, 0x01F4000Cu, 0x002FFFEBu, 0x016FFFB8u,
    0x01FFFFC1u, 0x005E000Cu, 0x01CFFFC0u, 0x017E003Fu,
    0x01D1FFD0u, 0x01A0002Bu, 0x0047FFE4u, 0x0053FFD0u,
    0x009A001Cu, 0x0052002Fu, 0x0193FFB3u, 0x01D6001Au,
    0x01F9FFF8u, 0x009E004Cu, 0x00080031u, 0x00420031u,
    0x00B00000u, 0x01A1FFCDu, 0x01AA003Du, 0x01F8000Bu,
    0x00060018u, 0x005C0000u, 0x0049FFFAu, 0x000E001Au,
    0x004A0031u, 0x01DFFFE9u, 0x01B20029u, 0x006DFFC7u,
    0x01FC0025u, 0x00280010u, 0x00080036u, 0x01F9FFE4u,
    0x008E002Cu, 0x01B80015u, 0x0171FFCFu, 0x0011FFF9u,
    0x005C0040u, 0x01D20013u, 0x0027FFBEu, 0x00560014u,
    0x01ADFFAAu, 0x002FFFF3u, 0x0048002Eu, 0x00960013u,
    0x004E0046u, 0x0085FFF4u, 0x0036002Fu, 0x00300022u,
    0x001DFFAFu, 0x01E5FFFBu, 0x0069FFFFu, 0x0019FFE9u,
    0x01F60011u, 0x0185FFC4u, 0x0183FFF4u, 0x01F3FFEFu,
    0x01E20013u, 0x009BFFECu, 0x0085FFE9u, 0x01E80000u,
    0x002A002Cu, 0x001E005Cu, 0x006DFFE3u, 0x008C0029u,
    0x01B7FFECu, 0x019FFFF4u, 0x003DFFF4u, 0x01CBFFC1u,
    0x0065FFC4u, 0x003FFFD6u, 0x00700021u, 0x002C0010u,
    0x000BFF97u, 0x0197FFE5u, 0x01B7FFB5u, 0x0063FFDCu,
    0x0013FFF1u, 0x00440056u, 0x00A0003Du, 0x003C0011u,
    0x01DBFFE9u, 0x00300027u, 0x00020023u, 0x0069FFB5u,
    0x01E2003Du, 0x01A9FFD5u, 0x0021FFE9u, 0x01D2000Fu,
    0x01F3FFC3u, 0x01D5FFE6u, 0x019E0028u, 0x01A9FFA5u,
    0x019BFFC1u, 0x009C0002u, 0x017E0010u, 0x0063FFFEu,
    0x01E5FFC2u, 0x003A0000u, 0x01400036u, 0x01720015u,
    0x019DFFEDu, 0x01C80021u, 0x0090001Bu, 0x000E004Du,
    0x0046004Au, 0x000DFFFBu, 0x0165FFD2u, 0x0034001Du,
    0x01AFFFCBu, 0x00420043u, 0x0039FFF3u, 0x0076000Fu,
    0x01DE002Au, 0x01C00046u, 0x001FFFF9u, 0x004A0014u,
    0x0047FFB6u, 0x0164000Du, 0x001C003Au, 0x00540039u,
    0x002DFFB0u, 0x019A0040u, 0x0013FFD9u, 0x01AC003Bu,
    0x01B00022u, 0x0021FFD9u, 0x0192002Du, 0x01F00037u,
    0x00A20011u, 0x019E003Bu, 0x0034003Au, 0x01B0001Du,
    0x01A80034u, 0x0069FFB0u, 0x01C4003Cu, 0x0017FFBCu,
    0x01C20013u, 0x01CA005Du, 0x016DFFD2u, 0x00660019u,
    0x01B80010u, 0x01D1FFDEu, 0x00260016u, 0x0020003Eu,
    0x008FFFCCu, 0x01D20059u, 0x019E000Au, 0x01E7FFBEu,
    0x00200028u, 0x01B4000Fu, 0x01D5FFC9u, 0x0039FFDEu,
    0x016DFFE6u, 0x005FFFFDu, 0x01AA000Du, 0x01E5FFDCu,
    0x001A000Fu, 0x0097FFEDu, 0x0029FFECu, 0x01A60014u,
    0x01980002u, 0x005A001Fu, 0x018DFFB7u, 0x008FFFF9u,
    0x001A003Cu, 0x0059FFE6u, 0x01BBFFEBu, 0x01BE0016u,
    0x01D7FFFCu, 0x00840040u, 0x01CDFFEDu, 0x01EE000Du,
    0x01B6004Au, 0x00B80018u, 0x00620042u, 0x0085FFABu,
    0x016FFFEDu, 0x01C00021u, 0x00520028u, 0x01D1FFF1u,
    0x01D3FFC1u, 0x01860011u, 0x001C0012u, 0x01B7FFE1u,
    0x01E9FFE0u, 0x001C0001u, 0x00380001u, 0x01960021u,
    0x015C003Cu, 0x004DFFDBu, 0x005A0029u, 0x00ABFFD6u,
    0x0171FFDBu, 0x0024000Cu, 0x0089FFCFu, 0x0009FFC2u,
    0x00220002u, 0x008DFFDEu, 0x01C5FFE3u, 0x01C7FFC0u,
    0x01AA002Cu, 0x01F7FFDBu, 0x004A0045u, 0x018A0017u,
    0x01FC003Au, 0x0019FFCAu, 0x01EBFFCDu, 0x00400030u,
    0x00A60014u, 0x01EDFFCDu, 0x0097FFE4u, 0x000FFFE1u,
    0x009A0023u, 0x00A80025u, 0x01760033u, 0x01EDFFF2u,
    0x01EDFFE1u, 0x005C0023u, 0x017FFFDCu, 0x01B7FFF8u,
    0x01FE001Du, 0x00560053u, 0x01DBFFE1u, 0x01C7FFE6u,
    0x01B5FFDAu, 0x0041FFE6u, 0x005A0033u, 0x0019FFEBu,
    0x0065FFF5u, 0x01C4000Cu, 0x01EC000Du, 0x003FFFEFu,
    0x0087FFB0u, 0x01D9FFDDu, 0x00580024u, 0x001DFFA2u,
    0x0037FFD1u, 0x01C5FFD4u, 0x01FDFFF6u, 0x01C3FFE6u,
    0x0078001Fu, 0x00280005u, 0x01BFFFE3u, 0x01F5FFDAu,
    0x0085FFFAu, 0x0027FFDAu, 0x01B9FFBCu, 0x007A001Du,
    0x003DFFAFu, 0x01AA002Fu, 0x01A60016u, 0x0067FFF2u,
    0x00880007u, 0x0089FFE2u, 0x01D5FFEDu, 0x01B40014u,
    0x01D8001Au, 0x01B1FFE7u, 0x004FFF95u, 0x01B9FFCEu,
    0x0075FFD0u, 0x01F00027u, 0x01BDFFB7u, 0x005C0003u,
    0x01D7FFD3u, 0x01E3FFC6u, 0x000A002Au, 0x019C000Bu,
    0x0080002Fu, 0x0073FFE0u, 0x0025FFEBu, 0x01EBFFA4u,
    0x01A5FFC7u, 0x0199FFF5u, 0x0010001Fu, 0x0001FFC8u,
    0x019C0030u, 0x01B60027u, 0x0094002Fu, 0x01C40026u,
    0x0012001Cu, 0x0056003Eu, 0x0041FFB1u, 0x01E7FFB4u,
    0x01A80062u, 0x0027FFE2u, 0x0013FFF5u, 0x01BA002Fu,
    0x00BFFFC3u, 0x0041FFF3u, 0x0002002Cu, 0x0165FFD5u,
    0x0039FFFDu, 0x01800041u, 0x003C001Fu, 0x0074001Cu,
    0x01EC0007u, 0x0083FFD8u, 0x0069FFC5u, 0x002DFFD3u,
    0x01900027u, 0x006C000Au, 0x003C0006u, 0x01640010u,
    0x000FFFBBu, 0x0025FFC9u, 0x01F0000Bu, 0x01B60029u,
    0x01DBFFFDu, 0x00500005u, 0x01B9FFF6u, 0x006DFFC5u,
    0x01640017u, 0x01F7FFF0u, 0x005E001Eu, 0x001BFFCBu,
    0x001BFFE5u, 0x01C9FFE5u, 0x00A40052u, 0x0079FFACu,
    0x0070001Cu, 0x01CA002Fu, 0x005DFFFCu, 0x003E001Cu,
    0x015FFFDBu, 0x000C000Cu, 0x0058001Au, 0x01CBFFC4u,
    0x01F5FFE1u, 0x018FFFFBu, 0x0003FFE6u, 0x01EBFFF9u,
    0x000C0024u, 0x00420027u, 0x0035FFE7u, 0x01CA0009u,
    0x01CA003Fu, 0x00960019u, 0x0017FFFEu, 0x0079FFD9u,
    0x01A40036u, 0x00800037u, 0x0078000Eu, 0x0189FFDAu,
    0x00060025u, 0x002E0021u, 0x01D9FFEAu, 0x000DFFC4u,
    0x01CBFFEAu, 0x0186000Eu, 0x0046003Du, 0x001FFFDEu,
    0x01D1FFCBu, 0x009C0031u, 0x002FFFF2u, 0x0027FFF0u,
    0x0023FFF8u, 0x0061FFF6u, 0x0079FFFFu, 0x01D5FFEBu,
    0x008BFFEDu, 0x0171FFD6u, 0x003E0036u, 0x01840001u,
    0x01D7FFCBu, 0x000A002Fu, 0x016BFFDEu, 0x002BFFDCu,
    0x014C0018u, 0x01D9FFE2u, 0x01B3FFB9u, 0x01AFFFE7u,
    0x003DFFCCu, 0x0019FFD3u, 0x003E001Bu, 0x018C0056u,
    0x0064000Cu, 0x0053FFC8u, 0x005DFFE9u, 0x00BE002Eu,
    0x0177FFFFu, 0x01BA001Bu, 0x01500045u, 0x01C2005Au,
    0x0032005Du, 0x01EFFFF9u, 0x000BFFBDu, 0x003A0011u,
    0x0195FFB5u, 0x0025FFB7u, 0x001A002Fu, 0x00820002u,
    0x01E00005u, 0x0085FFCBu, 0x005A0053u, 0x0055FFC8u,
    0x00B3FFFBu, 0x00080032u, 0x0189FFFFu, 0x01F40005u,
    0x01E6002Eu, 0x00640015u, 0x005FFFB1u, 0x0048003Eu,
    0x00A3FFDDu, 0x01A2002Cu, 0x006A0008u, 0x0023FFF9u,
    0x01D20028u, 0x01BBFFFFu, 0x01460029u, 0x00480011u,
    0x00960007u, 0x01E20008u, 0x01D5FFC5u, 0x002FFFD8u,
    0x017C0039u, 0x01DA003Fu, 0x0019FFEBu, 0x00400038u,
    0x0079FFC8u, 0x01EC003Du, 0x0013FFD9u, 0x009C0001u,
    0x01ADFFF2u, 0x00000029u, 0x00040040u, 0x01B5FFEEu,
    0x0093FFFAu, 0x00760029u, 0x00640020u, 0x004FFFCDu,
    0x002C004Cu, 0x01EE002Bu, 0x00A0001Au, 0x0189FFCFu,
    0x01A1FFFDu, 0x0185FFFFu, 0x01BDFFE8u, 0x00A7FFE1u,
    0x000DFFE7u, 0x01F5FFE5u, 0x006C002Cu, 0x003E0016u,
    0x01D9FFD2u, 0x01B5FFFCu, 0x015BFFF9u, 0x0054003Cu,
    0x00840055u, 0x01D60037u, 0x01EA0000u, 0x01FA0042u,
    0x0152003Cu, 0x00600027u, 0x01B80014u, 0x0055FFE7u,
    0x0188001Du, 0x0137FFCDu, 0x00560018u, 0x01F20023u,
    0x00780024u, 0x01E00000u, 0x01C9FFFCu, 0x005BFFB5u,
    0x01A8000Bu, 0x0064000Du, 0x01C1FFAEu, 0x01E3FFE1u,
    0x0187FFD6u, 0x0010002Au, 0x01920043u, 0x0001FFD9u,
    0x0043FFBBu, 0x014BFFFAu, 0x00380028u, 0x01AFFFEEu,
    0x00B3FFEFu, 0x0071FFF6u, 0x0187FFCBu, 0x004BFFCCu,
    0x01CE0028u, 0x00140016u, 0x01DDFFD5u, 0x0023FFD1u,
    0x01B7FFC8u, 0x00520036u, 0x003FFFD8u, 0x0015FFFDu,
    0x0193FFC6u, 0x01E20017u, 0x003FFFD3u, 0x01D6000Du,
    0x01C1FFE2u, 0x000FFFECu, 0x01A40008u, 0x0003FFE1u,
    0x01C80026u, 0x01BC000Fu, 0x00CC002Au, 0x0043FFE7u,
    0x00120009u, 0x00540024u, 0x0159FFEBu, 0x0035FFEBu,
    0x007FFFE3u, 0x000E000Du, 0x01A20013u, 0x01FC0013u,
    0x0033FFEDu, 0x0057FFDDu, 0x006A0053u, 0x0197FFEFu,
    0x003DFFD0u, 0x01C7FFBAu, 0x0011FFACu, 0x01DE0035u,
    0x005FFFEDu, 0x01A7FFF6u, 0x0075FFE2u, 0x002FFFDAu,
    0x005BFFE6u, 0x0181FFF4u, 0x019BFFE3u, 0x00040015u,
    0x00360057u, 0x01F00032u, 0x017C0037u, 0x0008002Bu,
    0x01E8001Bu, 0x01E3FFB3u, 0x01CC000Eu, 0x0055FFD5u,
    0x01D7FFE4u, 0x01900027u, 0x01EFFFF6u, 0x004E000Eu,
    0x01B80014u, 0x0192000Eu, 0x005C0015u, 0x001E0000u,
    0x00840010u, 0x01A3FFC9u, 0x00240053u, 0x01F7FFFCu,
    0x01B6000Eu, 0x01D1FFEDu, 0x01C8000Bu, 0x019DFFF3u,
    0x017DFFF7u, 0x00500040u, 0x01D20017u, 0x0048002Au,
    0x00400002u, 0x01FA0036u, 0x01BFFFD9u, 0x00740024u,
    0x018DFFF3u, 0x004A0042u, 0x01CC0045u, 0x01CE0023u,
    0x01CC0001u, 0x00B00003u, 0x001FFFCDu, 0x008BFFF3u,
    0x01FE0053u, 0x01D6004Fu, 0x019DFFDDu, 0x0049FFF5u,
    0x002DFFF4u, 0x00820011u, 0x019A005Au, 0x00C60004u,
    0x0021FFDDu, 0x0192003Fu, 0x0187FFF4u, 0x006C000Cu,
    0x00380034u, 0x01AFFFD9u, 0x0096001Bu, 0x01AFFFFBu,
    0x0075FFB5u, 0x01D3FFCAu, 0x000A0043u, 0x01CFFFCBu,
    0x00060036u, 0x01EBFFFAu, 0x0185FFCFu, 0x002DFFDCu,
    0x01F60030u, 0x006DFFD4u, 0x019FFFFBu, 0x0051FFD9u,
    0x01F7FFDAu, 0x004C0050u, 0x005FFFC5u, 0x01A3FFD6u,
    0x01B80015u, 0x01EC001Fu, 0x00080006u, 0x01AA0030u,
    0x00B9FFF0u, 0x0061FFEDu, 0x01C1FFE0u, 0x004FFFF1u,
    0x00280008u, 0x0017FFDAu, 0x01AA0046u, 0x016A0023u,
    0x01AA0064u, 0x004DFFFDu, 0x01F80017u, 0x01E20018u,
    0x006A0013u, 0x0017FFC8u, 0x0006002Cu, 0x0079FFF9u,
    0x019E0044u, 0x01E6003Eu, 0x0042002Au, 0x0014000Du,
    0x01E7FFE2u, 0x01BFFFE2u, 0x002A0046u, 0x0197FFD3u,
    0x0032000Fu, 0x0069FFD1u, 0x007DFFFAu, 0x00220047u,
    0x0039FFC6u, 0x0157FFCAu, 0x01780006u, 0x0007FFB8u,
    0x004E0034u, 0x0168005Au, 0x00120034u, 0x0063FFECu,
    0x01FBFFCDu, 0x017BFFCFu, 0x01D8004Eu, 0x0185FFCFu,
    0x01A2003Fu, 0x0187FFBEu, 0x01E7FFF7u, 0x002C001Au,
    0x01CA0018u, 0x006FFFD4u, 0x00580010u, 0x005DFFDBu,
    0x00380023u, 0x0029FFEDu, 0x00720004u, 0x0009FFE8u,
    0x0183FFE1u, 0x001BFFD3u, 0x00000008u, 0x0087FFDDu,
    0x001DFFD1u, 0x0186002Cu, 0x0029FFE3u, 0x00460027u,
    0x0177FFDAu, 0x01D4004Au, 0x01700006u, 0x00C0003Eu,
    0x01E1FFA5u, 0x01C20030u, 0x0055FFF2u, 0x01F0003Eu,
    0x01C8001Fu, 0x000E001Cu, 0x0182000Bu, 0x004E0023u,
    0x00660011u, 0x01E60017u, 0x01B3FFBEu, 0x0038002Eu,
    0x01D5FFE3u, 0x0181FFEDu, 0x004FFFDBu, 0x01FA0035u,
    0x0059FFE9u, 0x0018002Bu, 0x01FA000Cu, 0x01DDFFDCu,
    0x01FDFFCBu, 0x018E0007u, 0x0070001Eu, 0x0177FFF5u,
    0x01BC0014u, 0x0067FFDDu, 0x01EFFFEAu, 0x000C002Bu,
    0x01FC0011u, 0x01F8000Eu, 0x01D7FFD2u, 0x01B7FFD0u,
    0x0077FFD5u, 0x01A8003Fu, 0x004BFFD7u, 0x01CA0021u,
    0x00160006u, 0x01B00055u, 0x00460034u, 0x018A0020u,
    0x00060031u, 0x0031FFFDu, 0x0067FFFAu, 0x01C1FFCCu,
    0x01FC0020u, 0x0173FFFCu, 0x0029FFDFu, 0x00220002u,
    0x01FDFFC4u, 0x0041FFFCu, 0x01D40028u, 0x00420017u,
    0x002A0033u, 0x005BFFEFu, 0x01EFFFC9u, 0x01940036u,
    0x002A0036u, 0x0091FFE8u, 0x01BDFFDFu, 0x0168005Fu,
    0x01BE0031u, 0x006FFFEFu, 0x0185FFFCu, 0x004DFFF1u,
    0x004A0032u, 0x0003FFD2u, 0x01DC0003u, 0x01AC000Du,
    0x01B5FFE2u, 0x00120013u, 0x006E0016u, 0x0040001Au,
    0x00600015u, 0x001DFFF5u, 0x00340048u, 0x0082001Cu,
    0x01E2001Bu, 0x01D5FFDFu, 0x01C1FFCBu, 0x0195FFDCu,
    0x000C0038u, 0x01D80029u, 0x01AE000Fu, 0x01DFFFF9u,
    0x01BDFFE1u, 0x01880002u, 0x01FA000Eu, 0x01BE005Eu,
    0x01D5FFFAu, 0x003E004Fu, 0x006A0037u, 0x01B0004Fu,
    0x00040006u, 0x0019FFC4u, 0x003A0019u, 0x01B5FFF9u,
    0x00B60009u, 0x01E9FFCFu, 0x00B20025u, 0x001A0006u,
    0x002E000Au, 0x0090002Au, 0x0064005Eu, 0x00280048u,
    0x00540045u, 0x007A0024u, 0x01E00036u, 0x00520052u,
    0x0077FFF5u, 0x0014001Eu, 0x00460026u, 0x01BE0024u,
    0x01B4002Bu, 0x0185FFB7u, 0x001BFFEAu, 0x01C1FFD9u,
    0x00A5FFC9u, 0x01A60010u, 0x01B00005u, 0x01DDFFC7u,
    0x01F1FFDCu, 0x0007FFF4u, 0x002A0036u, 0x003FFFFBu,
    0x00660020u, 0x0088003Eu, 0x019FFFD0u, 0x00440009u,
    0x004E002Cu, 0x018A004Au, 0x001DFFEBu, 0x0096001Au,
    0x0061FFDAu, 0x006FFFD6u, 0x0024003Du, 0x005FFFFFu,
    0x00800025u, 0x0197FFD1u, 0x005C001Cu, 0x0025FFEFu,
    0x005FFFD1u, 0x017A0028u, 0x01C5FFC4u, 0x0002003Du,
    0x01E3FFCCu, 0x0165FFE6u, 0x016A002Fu, 0x00320030u,
    0x01DC003Cu, 0x019FFFD9u, 0x01AFFFFAu, 0x01E8000Fu,
    0x01B3FFDFu, 0x01D7FFD6u, 0x00A3FFB2u, 0x01D5FFD7u,
    0x00340014u, 0x0037FFEBu, 0x0061FFCAu, 0x0027FFCDu,
    0x0051FFFAu, 0x01E7FFD1u, 0x001FFFD8u, 0x005E0032u,
    0x0012003Bu, 0x01E00030u, 0x0188002Au, 0x016C0052u,
    0x01B80016u, 0x016E000Bu, 0x005A000Bu, 0x0072002Cu,
    0x0177FFE1u, 0x01C8001Fu, 0x0036001Cu, 0x01F20002u,
    0x002BFFD3u, 0x01F1FFC8u, 0x019DFFC5u, 0x00220048u,
    0x005DFFDBu, 0x000BFFF2u, 0x015FFFFAu, 0x01BE002Eu,
    0x01A60006u, 0x01A20043u, 0x005BFFBFu, 0x0005FFF3u,
    0x00320005u, 0x01EBFFE1u, 0x01E60037u, 0x01A00016u,
    0x01FE0022u, 0x01F20020u, 0x0065FFBEu, 0x01660049u,
    0x003E0027u, 0x01F3FFE6u, 0x0153FFC8u, 0x019BFFE9u,
    0x00220037u, 0x01E5FFDBu, 0x0149FFBDu, 0x0025FFB9u,
    0x01C80025u, 0x0016002Du, 0x001C0033u, 0x01A40024u,
    0x0190003Du, 0x0000001Au, 0x01B4002Bu, 0x018DFFE9u,
    0x01C7FFF5u, 0x002C0029u, 0x00140027u, 0x01E5FFBBu,
    0x01EA004Bu, 0x01BA000Du, 0x01D00001u, 0x0074001Du,
    0x0031FFEAu, 0x0002004Cu, 0x006A002Bu, 0x0070001Fu,
    0x01F2001Eu, 0x0079FFD6u, 0x0050001Au, 0x00720012u,
    0x01C5FFF8u, 0x0081FFFBu, 0x00A3FFC7u, 0x01F3FFFBu,
    0x01940000u, 0x01DC0005u, 0x019DFFDFu, 0x01F5FFCCu,
    0x01F60011u, 0x00560008u, 0x005DFFEAu, 0x006E005Du,
    0x0014003Eu, 0x0029FFEEu, 0x006DFFCDu, 0x00660035u,
    0x01BDFFF0u, 0x01AE0043u, 0x0016000Au, 0x01A5FFE9u,
    0x01D9FFFBu, 0x01BBFFD5u, 0x00420001u, 0x01E20004u,
    0x0031FFD4u, 0x01860018u, 0x019DFFD0u, 0x01380035u,
    0x003BFFE5u, 0x01BBFFD5u, 0x0033FFFCu, 0x004DFFE4u,
    0x00460007u, 0x003C0056u, 0x01CC000Au, 0x00320041u,
    0x01E9FFDCu, 0x01B5FFDCu, 0x01760054u, 0x00400009u,
    0x009DFFEFu, 0x01EE0036u, 0x01E60057u, 0x0009FFF1u,
    0x015C0034u, 0x019FFFCEu, 0x00560041u, 0x00380010u,
    0x01D6002Cu, 0x0026003Du, 0x01EA0000u, 0x01740028u,
    0x004BFFD3u, 0x00480020u, 0x00560024u, 0x0017FFF2u,
    0x01B4004Au, 0x01FE002Cu, 0x01B20005u, 0x004FFFE5u,
    0x01EA000Du, 0x019E0006u, 0x01D1FFDCu, 0x01CA003Du,
    0x01D80011u, 0x001C005Bu, 0x00120006u, 0x005DFFFEu,
    0x01B0000Au, 0x0033FFD6u, 0x0177FFE8u, 0x000BFFE4u,
    0x000FFFF7u, 0x004E0029u, 0x01BC0002u, 0x005E0016u,
    0x01F7FFF4u, 0x0091FFD7u, 0x00880032u, 0x01A60034u,
    0x0061FFF0u, 0x01B80031u, 0x00520018u, 0x01D80036u,
    0x007A0037u, 0x018A0039u, 0x00180027u, 0x000FFFD9u,
    0x007FFFD3u, 0x0060004Cu, 0x0019FFDBu, 0x019E0028u,
    0x01AFFFD5u, 0x0028001Cu, 0x006DFFF6u, 0x004C004Au,
    0x00920014u, 0x01EA0035u, 0x002BFFBDu, 0x00200004u,
    0x0096002Bu, 0x01AC003Du, 0x00860048u, 0x0057FFCFu,
    0x0177FFF2u, 0x0015FFDDu, 0x017DFFEAu, 0x00BA003Eu,
    0x0187FFD6u, 0x00A00049u, 0x01F9FFCFu, 0x01FBFFF6u,
    0x01C9FFF7u, 0x019A0037u, 0x01CDFFE2u, 0x006BFFBEu,
    0x00560041u, 0x016C0045u, 0x01A3FFD4u, 0x004DFFDBu,
    0x0029FFC9u, 0x01C1FFF3u, 0x01D40012u, 0x01D3FFE5u,
    0x00460025u, 0x0030001Au, 0x005A000Au, 0x002DFFCEu,
    0x00ABFFC5u, 0x0187FFCAu, 0x01FC001Bu, 0x0081FFF1u,
    0x0054004Eu, 0x01940000u, 0x002DFFCBu, 0x008A0023u,
    0x004C0034u, 0x006FFFCBu, 0x0038000Fu, 0x002FFFDAu,
    0x01F3FFE3u, 0x006FFF96u, 0x01EE0014u, 0x01A7FFFDu,
    0x00000006u, 0x01F60014u, 0x013BFFB7u, 0x0064001Eu,
    0x0087FFEAu, 0x00720006u, 0x01EC002Au, 0x0188002Fu,
    0x01FE0034u, 0x01720004u, 0x0185FFB9u, 0x009BFFBCu,
    0x0029FFB2u, 0x0187FFBDu, 0x01FBFFC5u, 0x0155FFCDu,
    0x001DFFD5u, 0x005C0006u, 0x0159FFA9u, 0x015DFFD0u,
    0x01B5FFC0u, 0x005E0002u, 0x01E4002Eu, 0x00400012u,
    0x01CC0003u, 0x01B5FFEDu, 0x004E0024u, 0x0006003Au,
    0x01780012u, 0x0034003Bu, 0x01D1FFD7u, 0x01F80030u,
    0x00360014u, 0x0066000Du, 0x01F00026u, 0x003A0027u,
    0x019E000Du, 0x0035FFA1u, 0x00780032u, 0x008DFFDFu,
    0x017DFFF2u, 0x01AA0055u, 0x01AC002Bu, 0x01BA0020u,
    0x0177FFA9u, 0x0043FFC1u, 0x0084000Du, 0x01FFFFF0u,
    0x0019FFD5u, 0x0016003Eu, 0x0177FF9Du, 0x0197FFEEu,
    0x019C0005u, 0x01A20029u, 0x01D40021u, 0x00480002u,
    0x0037FFF2u, 0x003C003Fu, 0x01AE003Eu, 0x00020016u,
    0x01E40027u, 0x00B60027u, 0x00060038u, 0x0035FFF6u,
    0x01EC002Au, 0x0031FFE2u, 0x009E0015u, 0x0009FFF6u,
    0x0081FFECu, 0x01BE0015u, 0x00360008u, 0x0059FFFBu,
    0x01C8000Du, 0x014A0038u, 0x005FFFF5u, 0x00460041u,
    0x01A9FFDCu, 0x00680017u, 0x01F1FFD5u, 0x01B5FFC9u,
    0x0023FFC1u, 0x00660014u, 0x016A001Eu, 0x01FC0035u,
    0x000E0017u, 0x0049FFE4u, 0x001A000Du, 0x007C0031u,
    0x0043FFDEu, 0x00480040u, 0x01ADFFD2u, 0x01CDFFDBu,
    0x0058002Cu, 0x0044000Fu, 0x004BFFE8u, 0x0032000Bu,
    0x01D0001Eu, 0x01CBFFCEu, 0x0067FFDBu, 0x01E9FFFDu,
    0x0035FFFDu, 0x01AFFFD2u, 0x00020005u, 0x002C003Du,
    0x01FA0040u, 0x002C003Du, 0x0181FFCEu, 0x0164003Au,
    0x01DE0018u, 0x01C7FFD2u, 0x01A3FFCCu, 0x004C004Eu,
    0x0049FFE7u, 0x016FFFCEu, 0x008BFFE8u, 0x0199FFEFu,
    0x0191FFDCu, 0x0035FFBDu, 0x0013FFDCu, 0x01D00030u,
    0x002C003Fu, 0x00220011u, 0x0061FFF7u, 0x0026000Eu,
    0x01B40038u, 0x0084002Fu, 0x00260028u, 0x0023FFC6u,
    0x01F7FFD2u, 0x00140025u, 0x016BFFEEu, 0x00280000u,
    0x000C000Bu, 0x0197FFDFu, 0x01A5FFF3u, 0x01A00011u,
    0x01820050u, 0x0197FFBFu, 0x0071FFCCu, 0x0176000Cu,
    0x01DFFFC1u, 0x01C9FFEEu, 0x00360014u, 0x006C0021u,
    0x01D60012u, 0x01D2004Fu, 0x01FE000Au, 0x0088002Fu,
    0x017DFFF0u, 0x00A2002Eu, 0x01D3FFCCu, 0x0065FF9Cu,
    0x003DFFE8u, 0x0091FFECu, 0x00220034u, 0x0185FFCFu,
    0x0087FFD0u, 0x00520004u, 0x0003FFC3u, 0x000DFFAFu,
    0x016FFFEEu, 0x0087FFCDu, 0x003DFFF5u, 0x019C0039u,
    0x01F40041u, 0x01F4001Eu, 0x0041FFB7u, 0x0074000Fu,
    0x01A9FFC5u, 0x0001FFFDu, 0x00400031u, 0x01B1FFE7u,
    0x0055FFF7u, 0x0069FFEFu, 0x01ABFFC8u, 0x00400035u,
    0x0185FFEBu, 0x00620046u, 0x01680007u, 0x0189FFECu,
    0x01DE0038u, 0x01E3FFBAu, 0x0037FFFDu, 0x001FFFE1u,
    0x01DA0029u, 0x01B3FFEDu, 0x002C001Fu, 0x0003FFC5u,
    0x01B80011u, 0x01DBFFCFu, 0x00660021u, 0x000BFFFEu,
    0x001FFFBCu, 0x00200019u, 0x01CFFF91u, 0x01AE0027u,
    0x0049FFC5u, 0x01C40016u, 0x01D40002u, 0x01EFFF9Fu,
    0x00100004u, 0x00080013u, 0x0043FFB4u, 0x00420013u,
    0x01F80017u, 0x0071FFBEu, 0x000E0045u, 0x01ABFFD1u,
    0x01D20021u, 0x01CFFFEDu, 0x0189FFB2u, 0x01CFFFF7u,
    0x000DFFC8u, 0x01CC0009u, 0x0176003Eu, 0x002C001Cu,
    0x01880027u, 0x005A002Au, 0x00140027u, 0x018BFFE1u,
    0x0017FFB3u, 0x002BFFB7u, 0x0065FFB5u, 0x01960025u,
    0x0069FFFBu, 0x007A0025u, 0x0078002Cu, 0x017DFFE3u,
    0x00620020u, 0x01B60014u, 0x01B3FFC2u, 0x01C7FFCDu,
    0x008DFFCDu, 0x01FC0016u, 0x01B3FFE3u, 0x01EA0038u,
    0x0029FFE7u, 0x015A0000u, 0x01940007u, 0x01B5FFE2u,
    0x01E4000Fu, 0x018BFFBBu, 0x01F0001Fu, 0x0039FFBEu,
    0x001E0002u, 0x0051FFDBu, 0x01A9FFE6u, 0x01F9FFEEu,
    0x019A004Du, 0x003E0037u, 0x01A3FFB6u, 0x0183FFF2u,
    0x001C0048u, 0x0015FFDDu, 0x00260010u, 0x00740016u,
    0x01EE0017u, 0x007BFFCCu, 0x0085FFB5u, 0x005DFFB7u,
    0x01F80033u, 0x01C9FFD0u, 0x006A0011u, 0x01DA0030u,
    0x0188001Cu, 0x01B5FFF3u, 0x0019FFF4u, 0x0008002Du,
    0x01C60046u, 0x01EBFFDAu, 0x01AFFFD7u, 0x01A5FFB1u,
    0x01FDFFBBu, 0x01E1FFE8u, 0x01ADFFE7u, 0x00640021u,
    0x01E40040u, 0x001FFFF2u, 0x00980003u, 0x00780016u,
    0x01CBFFD4u, 0x0033FFFBu, 0x0052000Eu, 0x0188003Au,
    0x0078002Cu, 0x0034001Du, 0x01820004u, 0x000FFFC1u,
    0x018C0033u, 0x016C0011u, 0x0009FFDEu, 0x0009FFB5u,
    0x0056001Cu, 0x01B5FFBCu, 0x0014000Du, 0x0184000Bu,
    0x0087FFF3u, 0x0057FFD6u, 0x00160013u, 0x0011FFBCu,
    0x0175FFB3u, 0x009BFFFEu, 0x01ABFFBDu, 0x0153FFBBu,
    0x017E000Eu, 0x01F60013u, 0x019DFFE9u, 0x01FFFFE6u,
    0x00440035u, 0x0048003Fu, 0x01A00003u, 0x01E7FFEFu,
    0x00780027u, 0x0066002Eu, 0x0162002Au, 0x002C0038u,
    0x0164002Bu, 0x004E0000u, 0x01EBFFBFu, 0x006FFFD2u,
    0x00620040u, 0x005DFFFAu, 0x018FFFBEu, 0x0096001Fu,
    0x017DFFCCu, 0x01C80012u, 0x00060038u, 0x017C002Eu,
    0x01A5FFFFu, 0x00200042u, 0x01EDFFF6u, 0x0199FFD6u,
    0x0162001Cu, 0x01AFFFFEu, 0x0037FFBFu, 0x01EA000Eu,
    0x00120034u, 0x01C3FFCDu, 0x004DFFCBu, 0x01C7FFDFu,
    0x01D7FFF5u, 0x01C7FFEDu, 0x01EC0007u, 0x0066002Fu,
    0x01FFFFD5u, 0x0000002Eu, 0x00120030u, 0x01DFFFDFu,
    0x00160039u, 0x01920048u, 0x01D8002Du, 0x01C1FFD1u,
    0x01D4001Fu, 0x015BFFEBu, 0x018C0038u, 0x01C40037u,
    0x0067FFB7u, 0x0175FFF0u, 0x017BFFE3u, 0x0052002Au,
    0x01F5FFECu, 0x005BFFF7u, 0x015DFFF7u, 0x01A20014u,
    0x00260004u, 0x01B8004Cu, 0x01B3FFEAu, 0x01B2000Eu,
    0x01780044u, 0x0007FFD2u, 0x0000002Eu, 0x006BFFCBu,
    0x01900020u, 0x01C00027u, 0x01DDFFFCu, 0x01F9FFDBu,
    0x0174001Cu, 0x0193FFF8u, 0x01F8000Fu, 0x0065FFD6u,
    0x01F4001Au, 0x007A001Au, 0x004BFFD1u, 0x015DFFF8u,
    0x0068002Cu, 0x0195FFC9u, 0x01A0004Au, 0x0041FFD3u,
    0x0051FFDAu, 0x01ADFFCFu, 0x017BFFE8u, 0x0063FFE2u,
    0x01EDFFE3u, 0x00520041u, 0x0021FFE0u, 0x01C60008u,
    0x0196000Au, 0x002E0040u, 0x0013FFDEu, 0x0067FFFEu,
    0x019C0040u, 0x002E0010u, 0x00160045u, 0x0194001Du,
    0x0029FFBCu, 0x002A0023u, 0x00600036u, 0x001C003Fu,
    0x01E9FFD0u, 0x00680044u, 0x01FA0033u, 0x0023FFDCu,
    0x004BFFECu, 0x002BFFD2u, 0x01FA001Au, 0x0165FFE8u,
    0x001C0034u, 0x01760049u, 0x01A3FFF9u, 0x015E0003u,
    0x016BFFF8u, 0x01BFFFBAu, 0x01B6002Cu, 0x01CC002Fu,
    0x01D9FFC1u, 0x006C0051u, 0x0074000Fu, 0x006E0012u,
    0x01E60038u, 0x003A0023u, 0x008E0000u, 0x00020035u,
    0x017FFFFFu, 0x0195FFBEu, 0x000FFFE8u, 0x0194002Fu,
    0x01D7FFFEu, 0x01EC0037u, 0x00340038u, 0x00640014u,
    0x01C60037u, 0x015BFFECu, 0x01EA001Cu, 0x01D20015u,
    0x00560045u, 0x001C004Fu, 0x01EC002Eu, 0x007C0017u,
    0x0063FFC6u, 0x01EBFFCBu, 0x01760001u, 0x01E5FFE6u,
    0x003E000Eu, 0x01FA003Cu, 0x01A1FFBBu, 0x0014001Eu,
    0x017DFFDFu, 0x00100022u, 0x01D40014u, 0x01DDFFFAu,
    0x0057FFC8u, 0x0045FFF5u, 0x01CE0031u, 0x009DFFE5u,
    0x01B00019u, 0x016FFFEBu, 0x01BA0019u, 0x018C002Eu,
    0x017C0025u, 0x00540027u, 0x0013FFB1u, 0x0057FFD2u,
    0x0019FFBDu, 0x0077FFEAu, 0x019C0038u, 0x01880029u,
    0x01720034u, 0x0061FFD9u, 0x01A0003Eu, 0x0097FFCFu,
    0x01A3FFBAu, 0x0197FFD2u, 0x00640042u, 0x01B5FFECu,
    0x0087FFBCu, 0x01BA002Au, 0x019C0013u, 0x006DFFDCu,
    0x01E0000Au, 0x0171FFFBu, 0x00160005u, 0x006A004Cu,
    0x01E40006u, 0x006A0003u, 0x003BFFECu, 0x008DFFCFu,
    0x01F2001Du, 0x01C00053u, 0x01AA0059u, 0x019E0043u,
    0x008A0047u, 0x00700051u, 0x01F80036u, 0x01A80021u,
    0x01D1FFFBu, 0x01FC001Fu, 0x01AA0000u, 0x01CE0005u,
    0x0083FFB9u, 0x0011FFB3u, 0x0070001Du, 0x01860026u,
    0x00320039u, 0x00680004u, 0x00460033u, 0x01720015u,
    0x000FFFE0u, 0x001C0009u, 0x01AFFFBCu, 0x003C001Eu,
    0x00680041u, 0x018FFFE8u, 0x01A5FFC6u, 0x01FC0040u,
    0x00260037u, 0x0013FFEBu, 0x001A0029u, 0x005DFFECu,
    0x01E20017u, 0x0082000Bu, 0x00180031u, 0x0181FFF2u,
    0x00160003u, 0x01C1FFF5u, 0x018DFFD1u, 0x017C0033u,
    0x006BFFEEu, 0x01520059u, 0x01D00003u, 0x006FFFEBu,
    0x01EDFFD7u, 0x01C00048u, 0x001DFFFFu, 0x0197FFC3u,
    0x01DE000Cu, 0x01BFFFFBu, 0x006C0023u, 0x00380005u,
    0x0155FFADu, 0x01960022u, 0x0010002Au, 0x01DA0016u,
    0x00460011u, 0x018C0057u, 0x01FFFFC9u, 0x01DDFFF1u,
    0x004DFFF0u, 0x01640035u, 0x0073FFF0u, 0x005BFFC5u,
    0x01F80045u, 0x0047FFC3u, 0x01DFFFF6u, 0x01E2000Du,
    0x01BBFFF4u, 0x0181FFF7u, 0x00260053u, 0x01AFFFD0u,
    0x0171FFC5u, 0x01C1FFFEu, 0x0170000Eu, 0x01D1FFE8u,
    0x0027FFF1u, 0x0044003Eu, 0x0069FFCBu, 0x000A003Au,
    0x0011FFF8u, 0x01B7FFDAu, 0x01B60037u, 0x01840007u,
    0x01FA0021u, 0x01780048u, 0x01720050u, 0x01A20026u,
    0x0191FFC2u, 0x00160056u, 0x01C0002Eu, 0x002E0057u,
    0x01A00062u, 0x01C1FFEDu, 0x01E6002Eu, 0x01CE0056u,
    0x00840012u, 0x01D5FFC6u, 0x00160044u, 0x0181FFDCu,
    0x01A20020u, 0x00160044u, 0x017E0038u, 0x00460018u,
    0x0195FFFCu, 0x0069FFE5u, 0x01D3FFC8u, 0x01E3FFCBu,
    0x00180001u, 0x01F00033u, 0x01C40023u, 0x001DFFD0u,
    0x0035FFE8u, 0x01AA003Bu, 0x0001FFDEu, 0x0059FFD4u,
    0x017FFFB9u, 0x01B2003Eu, 0x0028001Au, 0x018FFFCFu,
    0x0189FFE3u, 0x01CDFFD6u, 0x00340027u, 0x01A7FFFFu,
    0x01BBFFF5u, 0x01C00025u, 0x016FFFECu, 0x004FFFF0u,
    0x019E0035u, 0x018DFFF6u, 0x008E0017u, 0x00340010u,
    0x01D5FFDFu, 0x01FC0001u, 0x00700042u, 0x019A0032u,
    0x0085FFBAu, 0x013FFFD6u, 0x0041FFFEu, 0x001BFFF6u,
    0x01B6002Cu, 0x005A0024u, 0x01B7FFFBu, 0x0000001Fu,
    0x0029FFF6u, 0x018DFFFDu, 0x01F1FFE4u, 0x01F0000Eu,
    0x00240001u, 0x0049FFF8u, 0x006C0036u, 0x0177FFC3u,
    0x01E6001Bu, 0x01E9FFE3u, 0x0030002Bu, 0x01DFFFB9u,
    0x01D60031u, 0x01C40041u, 0x01CC0004u, 0x0005FFBCu,
    0x01C1FFD1u, 0x01C20027u, 0x01FBFFC5u, 0x0057FFD1u,
    0x01C9FFD3u, 0x003A0027u, 0x01B7FFDEu, 0x0001FFB7u,
    0x016DFFBDu, 0x01CDFFC9u, 0x01FE002Du, 0x00440002u,
    0x0015FFCCu, 0x0021FFFCu, 0x01AA003Fu, 0x00880029u,
    0x017FFFD6u, 0x019E0009u, 0x009DFFE9u, 0x0032000Fu,
    0x01E7FFC5u, 0x015A0016u, 0x01B7FFB1u, 0x0022002Cu,
    0x00140022u, 0x00760018u, 0x0183FFD3u, 0x00020009u,
    0x00220038u, 0x006BFFD7u, 0x01B1FFD4u, 0x01B5FFEDu,
    0x01B9FFDFu, 0x01DDFFC6u, 0x0018004Bu, 0x0041FFB8u,
    0x004A001Eu, 0x0057FFBAu, 0x007DFFFAu, 0x00080018u,
    0x019E0013u, 0x01EA002Bu, 0x0050002Eu, 0x0178000Eu,
    0x01E3FFC4u, 0x017FFFECu, 0x01EA0011u, 0x016FFFEBu,
    0x01F2001Au, 0x0183FFE1u, 0x0197FFB7u, 0x019DFFE0u,
    0x0042002Bu, 0x01F40025u, 0x01FE0020u, 0x0174003Du,
    0x0071FFE3u, 0x0065FFCCu, 0x000A0035u, 0x00540028u,
    0x004A0013u, 0x0181FFC1u, 0x006C0001u, 0x001DFFFAu,
    0x002BFFEDu, 0x00100023u, 0x01AA0020u, 0x00740002u,
    0x0169FFD2u, 0x00660017u, 0x01CE001Bu, 0x017BFFF1u,
    0x016DFFF7u, 0x0047FFCEu, 0x0085FFC2u, 0x01D0001Fu,
    0x01D60010u, 0x00620044u, 0x00640018u, 0x01820047u,
    0x01900031u, 0x00280040u, 0x01C0004Cu, 0x017C002Fu,
    0x01420009u, 0x0082001Au, 0x0021FFEFu, 0x0183FFBBu,
    0x002DFFD9u, 0x0037FFEEu, 0x00660041u, 0x01EA0008u,
    0x01B0000Fu, 0x01EFFFDFu, 0x017BFFE8u, 0x0038001Eu,
    0x015E000Du, 0x003FFFD9u, 0x00880059u, 0x01AE000Du,
    0x019C0011u, 0x01ADFFEAu, 0x002BFFFBu, 0x0189FFDAu,
    0x01540046u, 0x01A00026u, 0x0071FFBDu, 0x004A005Au,
    0x01880023u, 0x018C0017u, 0x01F80027u, 0x0066003Du,
    0x01B00035u, 0x002DFFD6u, 0x0051FFD0u, 0x01FDFFD5u,
    0x002FFFFCu, 0x007C0018u, 0x00200076u, 0x01BBFFB0u,
    0x0196002Bu, 0x0071FFDEu, 0x007FFFF0u, 0x01A00044u,
    0x01860036u, 0x004DFFF6u, 0x0193FFCDu, 0x017A0008u,
    0x004A0011u, 0x005A002Du, 0x01EDFFE4u, 0x001C001Bu,
    0x001FFFA9u, 0x0062002Du, 0x0162000Fu, 0x018FFFE9u,
    0x005C004Au, 0x01CDFFCAu, 0x01C00033u, 0x0167FFF2u,
    0x01FA0060u, 0x0185FFF9u, 0x0194003Au, 0x0035FFF4u,
    0x00620002u, 0x01EBFFC2u, 0x0057FFE4u, 0x00860025u,
    0x0072001Du, 0x003FFFE7u, 0x0018003Au, 0x01B1FFCEu,
    0x0039FFE6u, 0x004BFFDCu, 0x01C20021u, 0x003A0015u,
    0x0152001Fu, 0x01C80037u, 0x004C003Fu, 0x01E80013u,
    0x01A80040u, 0x019C0001u, 0x00520001u, 0x01E40039u,
    0x01E9FFEDu, 0x01C8003Bu, 0x01A00058u, 0x01B3FFEBu,
    0x0070004Du, 0x0045FFD5u, 0x006A0010u, 0x003BFFF2u,
    0x01CFFFF9u, 0x00400016u, 0x014DFFE4u, 0x016BFFF3u,
    0x01AA0027u, 0x005C0027u, 0x00120011u, 0x01A3FFFCu,
    0x0054001Cu, 0x017A0006u, 0x001BFFE0u, 0x008DFFBCu,
    0x0071FFEBu, 0x002DFFA1u, 0x0050001Du, 0x019DFFFDu,
    0x000FFFE6u, 0x00460010u, 0x002E004Bu, 0x01E4000Cu,
    0x0187FFEFu, 0x001A0023u, 0x00BDFFC4u, 0x004FFFFCu,
    0x00B3FFC5u, 0x01AC0045u, 0x01C3FFC9u, 0x018E0028u,
    0x0014003Du, 0x01ADFFC2u, 0x00680000u, 0x002FFFF3u,
    0x00360001u, 0x01ABFFF0u, 0x00780018u, 0x00780034u,
    0x01CE0007u, 0x009C0028u, 0x00820000u, 0x01ABFFBBu,
    0x01FFFFEEu, 0x00120044u, 0x0065FFF5u, 0x01BC0027u,
    0x00560016u, 0x01AFFFFAu, 0x0023FFC6u, 0x01E60022u,
    0x0007FFF3u, 0x01AE000Cu, 0x00900003u, 0x01800005u,
    0x00320032u, 0x01B8001Fu, 0x005A0028u, 0x01D4000Au,
    0x01DE0058u, 0x002E0020u, 0x01BBFFD8u, 0x01C3FFC8u,
    0x016E0001u, 0x0055FFF1u, 0x0193FFBBu, 0x01C1FFD6u,
    0x0179FFC4u, 0x0193FFCAu, 0x0068002Fu, 0x00400000u,
    0x01A00032u, 0x01A60006u, 0x004C002Eu, 0x01F1FFBBu,
    0x01C7FFF2u, 0x0191FFBBu, 0x000A0022u, 0x01FE001Cu,
    0x01FC0014u, 0x01F20033u, 0x00380016u, 0x0047FFBDu,
    0x01EBFFF6u, 0x0002001Du, 0x01A8000Du, 0x01F7FFC4u,
    0x01DC0001u, 0x01C9FFCEu, 0x01760011u, 0x01B7FFC3u,
    0x019BFFD6u, 0x019FFFD9u, 0x01B9FFC3u, 0x0026002Cu,
    0x014C0009u, 0x01FBFFF3u, 0x018E001Du, 0x0063FFF3u,
    0x00660058u, 0x01B7FFEBu, 0x0074002Du, 0x0003FFC8u,
    0x017C0011u, 0x0163FFB0u, 0x002C0002u, 0x019E0031u,
    0x005FFFBBu, 0x0074001Au, 0x003BFFF7u, 0x01A9FFCFu,
    0x014FFFE2u, 0x01740043u, 0x0006001Bu, 0x0038004Au,
    0x003FFFF8u, 0x007C0048u, 0x0191FFF1u, 0x002BFFC6u,
    0x018BFFE6u, 0x011FFFD6u, 0x00080044u, 0x00780001u,
    0x0013FFB4u, 0x003E0052u, 0x01FA000Fu, 0x007C0009u,
    0x00060024u, 0x0023FFFDu, 0x000C0030u, 0x0058003Fu,
    0x01DC0025u, 0x0054004Fu, 0x01E20023u, 0x00120028u,
    0x0186001Fu, 0x01DFFFAFu, 0x01BA0035u, 0x00640018u,
    0x000C000Du, 0x005C0052u, 0x0044005Fu, 0x0012001Du,
    0x01FE0061u, 0x0029FFCAu, 0x0079FFE9u, 0x002DFFEAu,
    0x00860004u, 0x00320067u, 0x0033FFEDu, 0x002BFFC5u,
    0x0161FFECu, 0x0071FFE7u, 0x01E7FFE0u, 0x01E9FFDBu,
    0x01D5FFD2u, 0x0173FFEEu, 0x006E0029u, 0x0076002Eu,
    0x006E001Fu, 0x0199FFD8u, 0x01A5FFEDu, 0x01EFFFDCu,
    0x01B5FFF6u, 0x01A2005Eu, 0x00220017u, 0x019E0016u,
    0x01C20050u, 0x0071FFEAu, 0x01B20017u, 0x00A2002Fu,
    0x0055FFA1u, 0x0165FFC7u, 0x013BFFF8u, 0x019DFFE5u,
    0x01920003u, 0x01F40010u, 0x007BFFB3u, 0x0045FFEBu,
    0x01EDFFD7u, 0x00240014u, 0x00460034u, 0x01BDFFD1u,
    0x018FFFF0u, 0x0087FFD5u, 0x00160011u, 0x01D40026u,
    0x00060030u, 0x01CE0009u, 0x01E7FFD9u, 0x003A0006u,
    0x00020007u, 0x00280007u, 0x01AA0022u, 0x00080000u,
    0x01B2001Cu, 0x019DFFE0u, 0x019A0000u, 0x01920023u,
    0x01EE0035u, 0x01CE000Bu, 0x01EC0029u, 0x000E0013u,
    0x01ABFFF4u, 0x01C80024u, 0x01A1FFC3u, 0x00020036u,
    0x01E2003Cu, 0x01880038u, 0x0064000Bu, 0x0063FFBDu,
    0x005DFFF7u, 0x003C000Cu, 0x01FBFFDAu, 0x01B8002Du,
    0x0006002Bu, 0x0060002Eu, 0x0013FFE6u, 0x005DFFC9u,
    0x000A0001u, 0x01600017u, 0x017DFFB4u, 0x0051FFD6u,
    0x0063FFB3u, 0x01D2000Du, 0x018C0031u, 0x001BFFB1u,
    0x019FFFD7u, 0x015C0023u, 0x0049FFDDu, 0x006E0020u,
    0x004FFFE3u, 0x009DFFCEu, 0x00160003u, 0x01A7FF9Fu,
    0x001BFFEAu, 0x0033FFE3u, 0x01D9FFA7u, 0x0023FFC0u,
    0x005C0006u, 0x0083FFFDu, 0x0040001Cu, 0x01FA000Fu,
    0x004DFFBAu, 0x00700005u, 0x00340006u, 0x0083FFA9u,
    0x009C0011u, 0x003C004Eu, 0x007C000Bu, 0x00060018u,
    0x0001FFE1u, 0x0167FFC2u, 0x002A0035u, 0x0007FFA6u,
    0x016E0030u, 0x0029FFF3u, 0x0007FFCBu, 0x004FFFD4u,
    0x0053FFEBu, 0x0011FFCFu, 0x0000001Du, 0x0049FFFFu,
    0x01E5FFD2u, 0x01E7FFECu, 0x01E40004u, 0x01E5FFD6u,
    0x01900012u, 0x019C0003u, 0x00940012u, 0x00200021u,
    0x005BFFB6u, 0x0191FFF1u, 0x017FFFF9u, 0x0045FFE7u,
    0x004DFFE1u, 0x00820044u, 0x004BFFC2u, 0x01D9FFD1u,
    0x0044002Fu, 0x01E5FFCDu, 0x01ABFFCEu, 0x0068002Cu,
    0x017FFFC8u, 0x006DFFE2u, 0x001E0011u, 0x01F80009u,
    0x01960001u, 0x0029FFB1u, 0x000FFFF0u, 0x01540009u,
    0x002C0010u, 0x01A4003Au, 0x01B5FFDBu, 0x0067FFB3u,
    0x0034001Bu, 0x00100003u, 0x018A000Au, 0x00A40019u,
    0x01B4002Fu, 0x00660044u, 0x01F9FFE6u, 0x006A002Eu,
    0x01A7FFEEu, 0x0013FFF5u, 0x01C7FFE5u, 0x01C60045u,
    0x01A9FFFEu, 0x000E001Au, 0x01DFFFF2u, 0x0015FFD4u,
    0x004BFFD0u, 0x0011FFFCu, 0x01FC0001u, 0x00380001u,
    0x0183FFABu, 0x008A0024u, 0x01D7FFE7u, 0x01BFFFD8u,
    0x0179FFE7u, 0x01ADFFEBu, 0x01EDFFD9u, 0x01E60043u,
    0x00320041u, 0x00060017u, 0x00200025u, 0x01EDFFD1u,
    0x00140034u, 0x01E3FFDDu, 0x01C6002Du, 0x0075FFC6u,
    0x008A0025u, 0x005DFFCBu, 0x01CA004Bu, 0x0022000Fu,
    0x01CFFFD8u, 0x005FFFEFu, 0x01CE0039u, 0x00B3FFCDu,
    0x003E005Bu, 0x007C0068u, 0x007A0028u, 0x01BC0034u,
    0x01B1FFF5u, 0x01C1FFD9u, 0x0190002Du, 0x01C40009u,
    0x01FDFFA8u, 0x01EE002Du, 0x01D7FFECu, 0x005DFFDDu,
    0x01A60054u, 0x005C0031u, 0x000DFFFAu, 0x0091FFC2u,
    0x0037FFECu, 0x01980018u, 0x0025FFD0u, 0x00360022u,
    0x01D8000Au, 0x01CA0007u, 0x001DFFDEu, 0x00140003u,
    0x0077FFF1u, 0x015FFFD8u, 0x01F9FFC6u, 0x01AC000Eu,
    0x017DFFE9u, 0x01A3FFC8u, 0x018A0025u, 0x00B1FFE1u,
    0x001A0027u, 0x000A0026u, 0x004BFFFDu, 0x01A9FFCEu,
    0x01F20001u, 0x01F8000Au, 0x0139FFCBu, 0x01E3FFF1u,
    0x017FFFC2u, 0x01CA004Du, 0x0193FFC7u, 0x000C0013u,
    0x002C0039u, 0x01E00049u, 0x0070000Du, 0x001DFFBBu,
    0x0011FFE3u, 0x017E0009u, 0x01EA001Au, 0x01C4001Bu,
    0x01DBFFDAu, 0x01BE0022u, 0x01F00036u, 0x0073FFD5u,
    0x0077FFFCu, 0x01C4000Fu, 0x0041FFFDu, 0x01F80021u,
    0x018C003Au, 0x0189FFB8u, 0x016FFFF7u, 0x002A001Du,
    0x009A0001u, 0x000FFFEEu, 0x01F4002Cu, 0x004C0022u,
    0x01DA0043u, 0x01FE0007u, 0x01F00022u, 0x005A0001u,
    0x01FE0006u, 0x01E80037u, 0x00C8002Fu, 0x019A0003u,
    0x01A9FFDEu, 0x0065FFF1u, 0x01D20030u, 0x005DFFAFu,
    0x01E3FFC5u, 0x01B5FFC3u, 0x0162002Bu, 0x01EBFFE8u,
    0x0066003Au, 0x0017FFC7u, 0x0161FFC0u, 0x01A5FFB9u,
    0x007C003Du, 0x01B20038u, 0x0050002Au, 0x0048000Fu,
    0x01C6003Bu, 0x006FFFDDu, 0x006BFFC4u, 0x01D80004u,
    0x01AA0014u, 0x0011FFBBu, 0x00140035u, 0x01BDFFFFu,
    0x003BFFFBu, 0x01FFFFF6u, 0x0071FFE2u, 0x01DBFFFEu,
    0x009E0010u, 0x01AC001Fu, 0x0147FFDEu, 0x0159FFA8u,
    0x01DE002Bu, 0x01F9FFF9u, 0x01B60029u, 0x016A0016u,
    0x0011FFFDu, 0x0031FFEDu, 0x01DBFFB4u, 0x01C40002u,
    0x00360041u, 0x0041FFF0u, 0x017C0044u, 0x0043FFB7u,
    0x0057FFC3u, 0x0197FFF3u, 0x01D20040u, 0x01CFFFE5u,
    0x0183FFFFu, 0x0188003Au, 0x01EC003Au, 0x0065FFE1u,
    0x01E3FFD6u, 0x01CA0031u, 0x01F8003Du, 0x01A5FFD0u,
    0x00040011u, 0x01FDFFAEu, 0x005A0015u, 0x01B8001Fu,
    0x0009FFB5u, 0x002C0014u, 0x019BFFEAu, 0x001DFFD0u,
    0x019E000Au, 0x01BA002Au, 0x00240006u, 0x004BFFE2u,
    0x01BFFFD1u, 0x001E0002u, 0x01C1FFCFu, 0x00A8002Du,
    0x0035FFF6u, 0x00840009u, 0x0069FFFAu, 0x01F8002Au,
    0x01F7FFF1u, 0x0195FFE0u, 0x007A0028u, 0x004FFFF1u,
    0x00140016u, 0x01DDFFD7u, 0x007E0015u, 0x01B00021u,
    0x0063FFC7u, 0x003FFFC3u, 0x0097FFF1u, 0x01D8000Au,
    0x0058000Au, 0x01CC0027u, 0x01C7FFE5u, 0x01B20016u,
    0x01E20039u, 0x0053FFF9u, 0x01C60011u, 0x01C6002Cu,
    0x01560014u, 0x00220027u, 0x01A20028u, 0x00020005u,
    0x0011FFCDu, 0x01F60010u, 0x00B80008u, 0x0045FFEDu,
    0x0012004Au, 0x0013FFE3u, 0x01B6001Au, 0x01B6002Eu,
    0x001BFFF3u, 0x0014002Du, 0x01D7FFD2u, 0x01EC001Du,
    0x01B7FFD7u, 0x01D20049u, 0x01E40039u, 0x0075FFD3u,
    0x01ADFFEAu, 0x01C00048u, 0x01CBFFB8u, 0x01E00008u,
    0x003A001Au, 0x016DFFCBu, 0x01860032u, 0x0063FFBDu,
    0x01C7FFB5u, 0x01BBFFD9u, 0x01F4002Bu, 0x01EC0009u,
    0x01DFFFE9u, 0x01CC0029u, 0x01E40036u, 0x00CDFFD9u,
    0x01B00003u, 0x01FDFFDAu, 0x01D7FFFAu, 0x01AFFFD6u,
    0x00160055u, 0x0067FFBEu, 0x0169FFD6u, 0x0014002Au,
    0x008A0005u, 0x01D0002Fu, 0x0041FFD0u, 0x0023FFF1u,
    0x0197FFFEu, 0x00640003u, 0x00300046u, 0x00A00010u,
    0x0099FFB3u, 0x012A0030u, 0x01C60001u, 0x01F60020u,
    0x0010003Eu, 0x00460013u, 0x01E00016u, 0x01C8002Cu,
    0x0181FFCCu, 0x0183FFCFu, 0x00180040u, 0x00A3FFCCu,
    0x017BFFCEu, 0x0054002Du, 0x01EE0017u, 0x000C0049u,
    0x01AC001Bu, 0x014FFFCFu, 0x01C9FFEAu, 0x0015FFC6u,
    0x0060002Cu, 0x00200007u, 0x01E1FFC0u, 0x01F9FFF2u,
    0x005DFFEDu, 0x01720022u, 0x01C40018u, 0x01FBFFD8u,
    0x0178001Fu, 0x019C0042u, 0x01B6000Bu, 0x00B5FFF0u,
    0x01E2001Eu, 0x01FBFFE6u, 0x0184002Du, 0x018C000Fu,
    0x0185FFCDu, 0x01EBFFFBu, 0x00360012u, 0x018A0017u,
    0x01BA0042u, 0x0051FFCDu, 0x00360017u, 0x009BFFE5u,
    0x01A80043u, 0x0184001Fu, 0x0012001Bu, 0x01EC002Au,
    0x01E1FFE7u, 0x01C40001u, 0x005BFFD4u, 0x01F0002Fu,
    0x002BFFD1u, 0x00B1FFD2u, 0x000E0006u, 0x01E4003Eu,
    0x01DBFFD8u, 0x01FE0005u, 0x0035FFF0u, 0x003A0032u,
    0x01980046u, 0x00360014u, 0x0047FFE3u, 0x005E002Du,
    0x01B1FFC4u, 0x01A80047u, 0x004C000Eu, 0x003E0002u,
    0x013FFFBBu, 0x00A6003Au, 0x01A20025u, 0x00560047u,
    0x0033FFC0u, 0x00340023u, 0x01900020u, 0x0050000Bu,
    0x01F3FFE9u, 0x0191FFA9u, 0x003A0013u, 0x01AC002Du,
    0x000BFFD2u, 0x01EE0045u, 0x01B9FFFCu, 0x01BC0043u,
    0x01960011u, 0x0068000Eu, 0x01C5FFD8u, 0x01FC004Du,
    0x007DFFF3u, 0x0085FFF2u, 0x002E0014u, 0x01A2002Cu,
    0x002A0025u, 0x0058002Au, 0x003A002Du, 0x008FFFD1u,
    0x01A20045u, 0x01A9FFBAu, 0x01B7FFD5u, 0x01C40001u,
    0x00B7FFB6u, 0x00300006u, 0x00340018u, 0x0169FFCFu,
    0x007FFFEEu, 0x003DFFFFu, 0x0051FFF4u, 0x00340035u,
    0x01DA0011u, 0x01AFFFF6u, 0x004BFFD6u, 0x004E001Du,
    0x01A1FFD5u, 0x01C3FFCBu, 0x00100046u, 0x00A1FFD1u,
    0x01DC0009u, 0x00180019u, 0x01A3FFA0u, 0x007A000Au,
    0x01840046u, 0x0023FFE9u, 0x01CE0013u, 0x01B8002Eu,
    0x00780011u, 0x0015FFEBu, 0x00640051u, 0x00460017u,
    0x00040032u, 0x00280018u, 0x01FFFFF0u, 0x01DBFFEAu,
    0x01EFFFC3u, 0x0071FFF9u, 0x01F7FFD0u, 0x01FBFFE5u,
    0x0023FFF5u, 0x007BFFFDu, 0x01BDFFD3u, 0x00000028u,
    0x0171FFC6u, 0x00500023u, 0x005FFFD4u, 0x0033FFE3u,
    0x0069FFDDu, 0x0026000Fu, 0x00A60035u, 0x01BDFFF6u,
    0x005C002Bu, 0x002BFFBFu, 0x0185FFCDu, 0x0032000Fu,
    0x0001FFF0u, 0x00920008u, 0x01920017u, 0x01A40012u,
    0x00460026u, 0x003BFFC0u, 0x0189FFD4u, 0x0092004Eu,
    0x00300022u, 0x0001FFC2u, 0x0099FFF7u, 0x003A003Fu,
    0x00480057u, 0x01B9FFF1u, 0x01A5FFDFu, 0x01FBFFFDu,
    0x01B3FFBCu, 0x0028001Cu, 0x004FFFF9u, 0x0006001Du,
    0x01B1FFC3u, 0x01FFFFEEu, 0x01B8000Cu, 0x000C0001u,
    0x0031FFE8u, 0x01CFFFE0u, 0x01C4002Fu, 0x01BA0000u,
    0x0011FFBDu, 0x0073FFD6u, 0x0087FFB7u, 0x01CDFFF1u,
    0x01ADFFC5u, 0x0049FFD3u, 0x0001FFC2u, 0x01F00042u,
    0x017E0025u, 0x01C9FFECu, 0x01EE000Du, 0x0191FFB3u,
    0x0083FFBFu, 0x01780001u, 0x0013FFE1u, 0x0019FFFDu,
    0x01CDFFA2u, 0x0072000Fu, 0x0082001Fu, 0x006BFFE8u,
    0x0161FFDCu, 0x0027FFD0u, 0x006DFFB3u, 0x01D8000Du,
    0x002E003Du, 0x01E3FFD1u, 0x0183FFFAu, 0x003FFFE7u,
    0x0071FFF5u, 0x018E0009u, 0x001FFFE2u, 0x01EA0031u,
    0x01D7FFEDu, 0x006A0023u, 0x01960034u, 0x01ADFFDFu,
    0x0019FFD0u, 0x0057FFD4u, 0x0060002Cu, 0x007BFFFEu,
    0x01CA0008u, 0x0193FFCEu, 0x01D40051u, 0x00240022u,
    0x00040033u, 0x0171FFF1u, 0x0071FFDDu, 0x0033FFE1u,
    0x01CFFFD1u, 0x00080035u, 0x018C000Au, 0x01D8003Du,
    0x00140022u, 0x0044001Bu, 0x0065FFE1u, 0x00A3FFCEu,
    0x01FDFFD1u, 0x00720000u, 0x0067FFC8u, 0x0051FFDEu,
    0x0187FFC0u, 0x01FC0005u, 0x00680009u, 0x01A9FFE0u,
    0x01DDFFF3u, 0x01960014u, 0x01C00006u, 0x0017FFFBu,
    0x01CFFFE3u, 0x001C0021u, 0x01C60053u, 0x00300014u,
    0x0082003Cu, 0x007BFFE9u, 0x016E0051u, 0x001E0034u,
    0x0076005Du, 0x017C0016u, 0x01D1FFD3u, 0x019FFFFBu,
    0x0075FFE2u, 0x002E0011u, 0x016DFFFBu, 0x01EE0043u,
    0x01EBFFEFu, 0x01CFFFF3u, 0x005E0067u, 0x0019FFF9u,
    0x01C8002Du, 0x01F1FFEBu, 0x0075FFD2u, 0x01F9FFDAu,
    0x0045FFB0u, 0x00600040u, 0x0063FFD6u, 0x017E004Fu,
    0x0015FFD4u, 0x019E0006u, 0x003A0038u, 0x002BFFFBu,
    0x0042001Du, 0x0021FFF5u, 0x01C1FFE6u, 0x0197FFE6u,
    0x01E00005u, 0x01960011u, 0x01F1FFDDu, 0x01DA000Au,
    0x01C3FFE2u, 0x01FA0010u, 0x0198002Bu, 0x00300047u,
    0x00160009u, 0x0082004Au, 0x01CFFFB9u, 0x01F20016u,
    0x00740018u, 0x019FFFE8u, 0x01EE0022u, 0x01B8003Au,
    0x01ABFFDFu, 0x00480021u, 0x0075FFD2u, 0x0026002Bu,
    0x00440044u, 0x01D80000u, 0x01CBFFDFu, 0x0027FFDDu,
    0x00B3FFF4u, 0x0084003Au, 0x01C80018u, 0x0189FFD0u,
    0x017A000Eu, 0x0052002Au, 0x00AC001Fu, 0x0174000Du,
    0x016FFFF7u, 0x01F20015u, 0x01560044u, 0x00280022u,
    0x019E0026u, 0x0183FFAEu, 0x0043FFC3u, 0x01C5FFF2u,
    0x01DBFFEDu, 0x01BE0028u, 0x00020016u, 0x01A7FFD5u,
    0x01F60016u, 0x00520036u, 0x00CDFFA4u, 0x01EA0038u,
    0x016E002Cu, 0x01D7FFD3u, 0x004FFFD6u, 0x0045FFD1u,
    0x000DFFE5u, 0x01F7FFD3u, 0x01ADFFC8u, 0x0161FFCAu,
    0x0189FFF5u, 0x01BE0033u, 0x0003FFFEu, 0x00960052u,
    0x001BFFC8u, 0x000E0047u, 0x01DE0047u, 0x00400042u,
    0x01B4002Bu, 0x01B4000Cu, 0x01E7FFFDu, 0x0047FFD9u,
    0x01BC0038u, 0x004FFFE8u, 0x0069FFD5u, 0x01E1FFB7u,
    0x01760028u, 0x01EA0027u, 0x00180025u, 0x003A0026u,
    0x003DFFCFu, 0x01DC000Eu, 0x01F5FFECu, 0x0041FFC7u,
    0x01DBFFDFu, 0x00560023u, 0x01F60026u, 0x0062003Eu,
    0x00860011u, 0x0072000Cu, 0x01A7FFBFu, 0x0009FFEBu,
    0x007DFFD6u, 0x0051FFF1u, 0x01C5FFF5u, 0x01880043u,
    0x016DFFDBu, 0x00520015u, 0x007DFFC4u, 0x0185FFC2u,
    0x01BC001Bu, 0x01A40012u, 0x01BA0014u, 0x01E20019u,
    0x0185FFDEu, 0x01C5FFD4u, 0x01F3FFEFu, 0x000DFFC0u,
    0x00300012u, 0x0053FFF0u, 0x0061FFECu, 0x019BFFD7u,
    0x003FFFF2u, 0x00240032u, 0x01C00027u, 0x0027FFF3u,
    0x00100024u, 0x0191FFDFu, 0x0181FFE9u, 0x008BFFDBu,
    0x0003FFEFu, 0x01E4002Eu, 0x01BBFFE0u, 0x00660030u,
    0x01A0001Bu, 0x000FFFC6u, 0x00780028u, 0x01B7FFEDu,
    0x01800020u, 0x0077FFFDu, 0x00A20012u, 0x001A001Cu,
    0x01D1FFE3u, 0x01B20033u, 0x01CC000Bu, 0x01E4001Fu,
    0x006FFFE6u, 0x01B5FFF1u, 0x019A001Bu, 0x0072000Au,
    0x00600040u, 0x01EC0053u, 0x01D60015u, 0x00400048u,
    0x01D00013u, 0x01A5FFCAu, 0x01B7FFD3u, 0x0044000Cu,
    0x018DFFEFu, 0x017FFFE3u, 0x0163FFDAu, 0x00780000u,
    0x00100017u, 0x00240030u, 0x003BFFCBu, 0x01EBFFF9u,
    0x018E002Du, 0x018C0007u, 0x0175FFF1u, 0x015BFFFAu,
    0x01B1FFC0u, 0x000E001Au, 0x008A0039u, 0x01FC0003u,
    0x01B20045u, 0x01D3FFEEu, 0x0021FFF3u, 0x01D60008u,
    0x018C0008u, 0x01EBFFF8u, 0x01D00000u, 0x007FFFC7u,
    0x0033FFCBu, 0x016BFFD2u, 0x0038000Fu, 0x019C0020u,
    0x00520014u, 0x01A7FFE7u, 0x0045FFD4u, 0x01E3FFEDu,
    0x00580044u, 0x01EDFFF7u, 0x01BA000Cu, 0x002C0014u,
    0x009C002Cu, 0x01F60042u, 0x0015FFC5u, 0x0199FFF7u,
    0x00180047u, 0x01CFFFF1u, 0x01D60040u, 0x002DFFFAu,
    0x0094003Cu, 0x01A3FFB1u, 0x00120045u, 0x0043FFCEu,
    0x0188005Eu, 0x0042004Du, 0x01EA001Eu, 0x01C5FFBEu,
    0x002BFFCCu, 0x00200021u, 0x016FFFBDu, 0x01DC002Bu,
    0x01C9FFBFu, 0x01F40018u, 0x01BA001Cu, 0x01FE0039u,
    0x00840032u, 0x0031FFECu, 0x00A7FFC7u, 0x008E0027u,
    0x01FA0035u, 0x01D3FFBAu, 0x0075FFC4u, 0x0011FFE2u,
    0x0047FFE1u, 0x01FA003Au, 0x01F0000Au, 0x01CFFFF5u,
    0x002A0024u, 0x01EDFFCAu, 0x01C00042u, 0x000FFFEFu,
    0x006C0036u, 0x0051FFF4u, 0x0199FFD8u, 0x01F1FFE2u,
    0x01D9FFE1u, 0x0063FFE8u, 0x01D5FFBBu, 0x0017FFC7u,
    0x015FFFECu, 0x0178001Au, 0x01EFFFE2u, 0x01EBFFB1u,
    0x00300017u, 0x01F4002Fu, 0x002E0027u, 0x01E20026u,
    0x01FA001Au, 0x01FE002Fu, 0x0057FFF9u, 0x003DFFDAu,
    0x015DFFCEu, 0x008A0006u, 0x0187FFC4u, 0x00C80006u,
    0x0021FFC5u, 0x0013FFE0u, 0x0187FFDEu, 0x00560022u,
    0x0095FFD2u, 0x019BFFCDu, 0x0059FFE2u, 0x003C001Au,
    0x01600001u, 0x01720027u, 0x00360011u, 0x0093FFC2u,
    0x01E2002Bu, 0x01F80043u, 0x0046003Fu, 0x0087FFB5u,
    0x0197FFCFu, 0x00860035u, 0x01B9FFBEu, 0x01D40023u,
    0x019FFFBBu, 0x00180025u, 0x008A002Eu, 0x0040000Eu,
    0x017E002Du, 0x0012003Eu, 0x01C7FFF4u, 0x01A6003Fu,
    0x01EC000Bu, 0x01AC0009u, 0x007C0022u, 0x0035FFDDu,
    0x008DFFCBu, 0x0083FFE4u, 0x00700013u, 0x01F5FFE5u,
    0x01B1FFCDu, 0x000FFFD5u, 0x008C0008u, 0x005C0012u,
    0x0019FFF5u, 0x005A0038u, 0x0041FFF2u, 0x006BFFB6u,
    0x0019FFB8u, 0x0087FFE3u, 0x006FFFD6u, 0x0042002Bu,
    0x0173FFFCu, 0x0084001Cu, 0x000A003Cu, 0x01CC003Au,
    0x0035FFB5u, 0x008C001Fu, 0x0077FFCEu, 0x01F8000Fu,
    0x00840022u, 0x01E20044u, 0x0199FFCBu, 0x0179FFC6u,
    0x016C0043u, 0x005BFFF1u, 0x018BFFE1u, 0x01E40037u,
    0x00160023u, 0x01B1FFBCu, 0x0057FFE3u, 0x0091FFF8u,
    0x01B20022u, 0x0071FFBFu, 0x0035FFE5u, 0x01EFFFF8u,
    0x00060018u, 0x0031FFC1u, 0x01A3FFFDu, 0x01B3FFE0u,
    0x007C001Au, 0x001E000Eu, 0x0059FFFBu, 0x017BFFBBu,
    0x0175FFEDu, 0x00500035u, 0x002BFFE1u, 0x01EE000Au,
    0x005FFFBDu, 0x0045FFE1u, 0x01820036u, 0x01EBFFF6u,
    0x01A1FFCAu, 0x0053FFB4u, 0x018E0028u, 0x006FFFBBu,
    0x009DFFCAu, 0x01A5FFF6u, 0x01960023u, 0x01FC000Du,
    0x0005FFB0u, 0x002C002Du, 0x007DFFC7u, 0x0186001Cu,
    0x0035FFDAu, 0x002DFFEAu, 0x018FFFCEu, 0x0058000Fu,
    0x000E0057u, 0x0049FFCFu, 0x0027FFE9u, 0x000DFFBFu,
    0x01FA000Bu, 0x01AE000Bu, 0x01EA002Fu, 0x01940015u,
    0x0003FFAAu, 0x005DFFC8u, 0x0170001Au, 0x001DFFA6u,
    0x01F5FFA4u, 0x0065FFFAu, 0x0002002Du, 0x01B00007u,
    0x01C1FFFDu, 0x0079FFC3u, 0x0086002Bu, 0x01940018u,
    0x00600040u, 0x0008000Bu, 0x0057FFC7u, 0x009BFFFFu,
    0x000C000Eu, 0x006A0018u, 0x00220030u, 0x017DFFBEu,
    0x0005FFF5u, 0x0052002Du, 0x00960021u, 0x0035FFCBu,
    0x018DFFE4u, 0x0183FFE1u, 0x01D2001Cu, 0x01EC001Eu,
    0x01E7FFDEu, 0x0017FFDCu, 0x004A0025u, 0x0053FFE9u,
    0x01E7FFBEu, 0x00620008u, 0x01B60001u, 0x0070000Au,
    0x01ADFFE1u, 0x00800010u, 0x019FFFDCu, 0x0057FFEDu,
    0x0087FFB8u, 0x01C00028u, 0x0042001Au, 0x01E1FFF2u,
    0x00600051u, 0x01E1FFDEu, 0x018C0020u, 0x009C0003u,
    0x00400026u, 0x0043FFF7u, 0x00300012u, 0x0057FFBEu,
    0x0027FFC9u, 0x0001FFDEu, 0x0182003Bu, 0x01EA003Fu,
    0x0025FFD3u, 0x01D3FFD3u, 0x007FFFD7u, 0x0021FFC0u,
    0x00160048u, 0x01EA0023u, 0x01EDFFD3u, 0x0029FFAFu,
    0x005A0031u, 0x006A002Bu, 0x01AFFFE5u, 0x016E0011u,
    0x01BA0007u, 0x006DFFD2u, 0x005E002Au, 0x00300042u,
    0x001C0033u, 0x01AFFFD6u, 0x01C2000Eu, 0x007BFFDCu,
    0x01F7FFE9u, 0x01460008u, 0x01E80003u, 0x001FFFF0u,
    0x0071FFF8u, 0x004FFFB7u, 0x00720001u, 0x00240026u,
    0x01C5FFDAu, 0x01EA002Bu, 0x00080057u, 0x01F00029u,
    0x01CDFFFDu, 0x0033FFCAu, 0x0077FFDAu, 0x019C0027u,
    0x0057FFE9u, 0x01EC0023u, 0x00040020u, 0x01EBFFC5u,
    0x01A1FFD9u, 0x00500044u, 0x01ADFFE6u, 0x01CDFFC9u,
    0x01AA004Fu, 0x01F0002Fu, 0x019A0019u, 0x0063FFFBu,
    0x0099FFBDu, 0x019BFFD3u, 0x0016002Eu, 0x01BDFFC9u,
    0x0045FFF6u, 0x01EFFFE1u, 0x018E0025u, 0x01E7FFE6u,
    0x0199FFF6u, 0x00580018u, 0x01D00027u, 0x006BFFE0u,
    0x01E00044u, 0x01AC002Du, 0x008C0044u, 0x017FFFD5u,
    0x007BFFE2u, 0x01A3FFE3u, 0x01A20028u, 0x01A1FFDDu,
    0x01900023u, 0x0069FFF2u, 0x0053FFEBu, 0x0044003Bu,
    0x0180001Eu, 0x01F1FFBDu, 0x01E60034u, 0x0193FFEFu,
    0x01AFFFC4u, 0x003C0033u, 0x00480005u, 0x0051FFD1u,
    0x0079FFE9u, 0x0005FFF2u, 0x00900022u, 0x01D9FFC6u,
    0x0177FFD0u, 0x01F2001Du, 0x0003FFE1u, 0x0199FFE0u,
    0x001C001Cu, 0x00500037u, 0x00660014u, 0x01DE000Fu,
    0x01D5FFBBu, 0x0059FFCEu, 0x019BFFDCu, 0x01B80017u,
    0x01DBFFF8u, 0x01D5FFF0u, 0x01D1FFEEu, 0x01B20035u,
    0x01960046u, 0x01C9FFFEu, 0x0005FFEEu, 0x0198003Eu,
    0x01400010u, 0x0185FFEEu, 0x0013FFBBu, 0x00620047u,
    0x0025FFE7u, 0x01C40006u, 0x0033FFC6u, 0x0043FFF6u,
    0x018C0005u, 0x017E000Au, 0x001C0033u, 0x01B9FFFCu,
    0x01880009u, 0x01E7FFFAu, 0x01B7FFE2u, 0x00080005u,
    0x014FFFF3u, 0x00560032u, 0x01A3FFD3u, 0x01EDFFF9u,
    0x0055FFAFu, 0x0003FFD3u, 0x0189FFE4u, 0x01C00003u,
    0x01A60027u, 0x007DFFFDu, 0x016DFFD0u, 0x0076001Au,
    0x007BFFF2u, 0x0041FFA9u, 0x0070001Bu, 0x003FFFD2u,
    0x0162003Cu, 0x019DFFDBu, 0x00460004u, 0x003DFFE4u,
    0x0055FFDDu, 0x0018003Du, 0x008C0006u, 0x0179FFEAu,
    0x0081FFDAu, 0x00080019u, 0x006DFFEEu, 0x01780013u,
    0x0021FFFDu, 0x01B20010u, 0x00820013u, 0x0015FFEDu,
    0x01F1FFD9u, 0x008C003Fu, 0x00100028u, 0x0001FFAAu,
    0x01E0003Fu, 0x0033FFFFu, 0x01BDFFC2u, 0x01EC000Cu,
    0x0031FFB2u, 0x008BFF9Fu, 0x01BA0008u, 0x01BBFFC6u,
    0x01FDFFB2u, 0x01E3FFAAu, 0x018C0011u, 0x01F1FFD5u,
    0x005BFFF7u, 0x01E9FFBBu, 0x006DFFEEu, 0x000FFFDDu,
    0x00180031u, 0x01B9FFAAu, 0x0038002Eu, 0x01DA0004u,
    0x0039FFF5u, 0x0059FFE2u, 0x005C0042u, 0x009C003Du,
    0x009FFFE5u, 0x003FFFCEu, 0x01F1FFE2u, 0x00400039u,
    0x007BFFD1u, 0x00A60031u, 0x01DDFFB9u, 0x01E00007u,
    0x0037FFC9u, 0x004BFFBCu, 0x0081FFD6u, 0x01A9FFDEu,
    0x01D4003Bu, 0x0087FFF0u, 0x01BBFFEAu, 0x01B4000Au,
    0x00320002u, 0x017BFFCEu, 0x01A7FFDAu, 0x00A60031u,
    0x0049FFB4u, 0x00260001u, 0x00A1FFEBu, 0x006BFFCFu,
    0x0093FFD5u, 0x01F00031u, 0x000C003Eu, 0x00A00013u,
    0x00580017u, 0x01A9FFC1u, 0x0011FFE5u, 0x0047FFFEu,
    0x00880048u, 0x015BFFE0u, 0x005DFFE5u, 0x01CFFFB5u,
    0x007A0033u, 0x00820054u, 0x002A0012u, 0x002C0028u,
    0x0064002Au, 0x01FBFFD6u, 0x007E0002u, 0x009A000Au,
    0x00000038u, 0x01A4003Bu, 0x003DFFCCu, 0x0077FFC3u,
    0x01C9FFF4u, 0x0160004Eu, 0x0043FFC4u, 0x01FDFFE3u,
    0x01BBFFBEu, 0x01960003u, 0x006BFFC8u, 0x0059FFD8u,
    0x0084003Au, 0x01A1FFF3u, 0x01940057u, 0x0085FFECu,
    0x01FC002Bu, 0x01C1FFDEu, 0x0037FFF7u, 0x0042002Du,
    0x01F1FFD3u, 0x005BFFE7u, 0x01AE003Cu, 0x01960020u,
    0x01EDFFCDu, 0x0065FFDDu, 0x002BFFE0u, 0x01800027u,
    0x00800021u, 0x01A20003u, 0x01A3FFC8u, 0x000A0007u,
    0x006DFFD6u, 0x01520044u, 0x01DA000Bu, 0x0011FFF8u,
    0x01D80000u, 0x0033FFDEu, 0x0079FFCBu, 0x01EE001Eu,
    0x00480014u, 0x01D3FFBDu, 0x003DFFDAu, 0x01DA0036u,
    0x00400012u, 0x00480025u, 0x004FFFDEu, 0x001DFFE3u,
    0x0008002Cu, 0x003BFFFFu, 0x0018000Du, 0x00000008u,
    0x003E0037u, 0x019E004Eu, 0x00660035u, 0x0176003Eu,
    0x0137FFC9u, 0x0027FFD8u, 0x00260022u, 0x004FFFD9u,
    0x01DE0003u, 0x0029FFC9u, 0x01A20024u, 0x0198003Bu,
    0x019FFFE3u, 0x019A0028u, 0x001FFFE7u, 0x016C0027u,
    0x0043FFB9u, 0x01FFFFFBu, 0x01D5FFCEu, 0x0165FFDBu,
    0x01580039u, 0x01E0001Cu, 0x01A2003Eu, 0x004BFFEAu,
    0x005FFFF7u, 0x0029FFF7u, 0x01A5FFD5u, 0x000BFFDAu,
    0x0084001Du, 0x002E0012u, 0x01880009u, 0x004DFFF6u,
    0x00620006u, 0x0061FFFCu, 0x00860025u, 0x01FDFFBAu,
    0x0032000Du, 0x01DFFFEDu, 0x01FFFFBAu, 0x00120025u,
    0x01AC0022u, 0x01B3FFCDu, 0x01A1FFAFu, 0x00680028u,
    0x01800015u, 0x018DFFDDu, 0x01DE0004u, 0x01F7FFEAu,
    0x0177FFCCu, 0x0067FFCFu, 0x00400024u, 0x01B00045u,
    0x014E0034u, 0x0185FFABu, 0x0063FFCAu, 0x01C7FFDCu,
    0x003C003Fu, 0x01680027u, 0x016E003Au, 0x004DFFDBu,
    0x0059FFD2u, 0x018DFFF3u, 0x01A1FFC2u, 0x0045FFCCu,
    0x005E0034u, 0x0005FFAAu, 0x01960034u, 0x00360002u,
    0x016BFFBAu, 0x0023FFE3u, 0x01E60016u, 0x0073FFE6u,
    0x0039FFBAu, 0x0049FFB0u, 0x01F9FFD5u, 0x0178002Au,
    0x00A7FFC8u, 0x00160025u, 0x01E4002Bu, 0x01720018u,
    0x0199FFACu, 0x008BFFBEu, 0x01F00025u, 0x01FFFFCFu,
    0x00580007u, 0x01F1FFB6u, 0x002FFFEAu, 0x00A5FFDDu,
    0x0034002Fu, 0x01CFFFB0u, 0x0099FFE2u, 0x0092000Du,
    0x01D7FFC7u, 0x01D60035u, 0x01F7FFDBu, 0x006FFFECu,
    0x005E0014u, 0x019C0047u, 0x01D5FFDCu, 0x002A0049u,
    0x01B3FFE9u, 0x01760010u, 0x01DA001Bu, 0x00B6004Bu,
    0x01C1FFBDu, 0x006A000Cu, 0x003BFFFEu, 0x00A00032u,
    0x0099FFD7u, 0x01FBFFF5u, 0x01A9FFC2u, 0x00260024u,
    0x0165FFC8u, 0x008BFFC2u, 0x01CDFFBFu, 0x006E001Bu,
    0x0094001Du, 0x0190001Fu, 0x01A8000Fu, 0x01BA0045u,
    0x0039FFC6u, 0x008DFFD7u, 0x01B00031u, 0x01D2003Eu,
    0x003DFFC7u, 0x00AC0009u, 0x01A40017u, 0x0067FFFBu,
    0x0052003Fu, 0x01C2004Eu, 0x00000041u, 0x0011FFEDu,
    0x01BFFFD5u, 0x0038005Au, 0x003DFFC9u, 0x01E7FFD9u,
    0x0069FFD6u, 0x01740011u, 0x0181FFE8u, 0x018C0004u,
    0x009A0009u, 0x01D00002u, 0x01960018u, 0x01AE0008u,
    0x0185FFC2u, 0x003A000Cu, 0x002E002Cu, 0x0027FFDFu,
    0x0014001Du, 0x00840022u, 0x01C7FFE7u, 0x0185FFE3u,
    0x001E0027u, 0x01E7FFDEu, 0x00060031u, 0x00080012u,
    0x018DFFB3u, 0x00700015u, 0x0028001Du, 0x00320023u,
    0x007A0006u, 0x0183FFFEu, 0x0018001Au, 0x0006000Au,
    0x01CFFFE3u, 0x01EA000Cu, 0x00160020u, 0x01EE0037u,
    0x0171FFE5u, 0x0090001Du, 0x004C0052u, 0x01A4000Cu,
    0x0041FFF2u, 0x01D00043u, 0x0055FFEEu, 0x001DFFB6u,
    0x0192001Eu, 0x0001FFD4u, 0x0081FFE3u, 0x01A3FFE8u,
    0x01940020u, 0x01F1FFF6u, 0x002A0027u, 0x0173FFD6u,
    0x01AFFFCCu, 0x0071FFCBu, 0x005FFFFDu, 0x000DFFDAu,
    0x01E3FFF6u, 0x0158003Cu, 0x01D1FFF0u, 0x007C0036u,
    0x01B20028u, 0x01A7FFEDu, 0x0086000Fu, 0x000BFFF4u,
    0x0169FFD6u, 0x01EA0049u, 0x0033FFE9u, 0x018A0015u,
    0x017C0041u, 0x01C3FFD2u, 0x00740026u, 0x01ADFFF1u,
    0x0079FFDBu, 0x0186003Eu, 0x01BA001Cu, 0x00340019u,
    0x018DFFE4u, 0x01A9FFE5u, 0x01EBFFE1u, 0x0071FFD9u,
    0x0164001Du, 0x002DFFD9u, 0x005BFFFBu, 0x00620000u,
    0x01C60001u, 0x0018004Cu, 0x01980053u, 0x0085FFF2u,
    0x01AE002Au, 0x00300039u, 0x015FFFD6u, 0x01D1FFF3u,
    0x01E5FFEAu, 0x01E20008u, 0x003FFFDEu, 0x0027FFCBu,
    0x0007FFDBu, 0x01EC000Au, 0x0055FFE3u, 0x0065FFFFu,
    0x001E0025u, 0x01C00037u, 0x001A0022u, 0x0025FFD8u,
    0x01FE0009u, 0x019DFFFEu, 0x0186003Au, 0x019C0019u,
    0x0005FFEAu, 0x004E001Bu, 0x01C4003Du, 0x005DFFF0u,
    0x015BFFDBu, 0x019DFFDEu, 0x0069FFF2u, 0x01EE001Cu,
    0x01B3FFC8u, 0x0003FFD4u, 0x01AC0048u, 0x006BFFBCu,
    0x01F2004Au, 0x005E0042u, 0x01A8002Eu, 0x00060042u,
    0x00520013u, 0x01C7FFDCu, 0x01EC0024u, 0x01C00001u,
    0x007A001Cu, 0x01F1FFC5u, 0x0197FFD9u, 0x01C0001Eu,
    0x000DFFC1u, 0x003BFFD6u, 0x00020012u, 0x001FFFDCu,
    0x001C0048u, 0x00720019u, 0x01BE0013u, 0x01FFFFF1u,
    0x0075FFE4u, 0x015C0048u, 0x0044000Bu, 0x0183FFCCu,
    0x00260024u, 0x01A6002Au, 0x0199FFD2u, 0x019E000Cu,
    0x00020031u, 0x0197FFF3u, 0x01CFFFD1u, 0x0069FFC8u,
    0x0056000Du, 0x0067FFE9u, 0x006A002Fu, 0x01D40006u,
    0x0032002Fu, 0x00720034u, 0x00020037u, 0x01D80007u,
    0x00560052u, 0x0027FFFDu, 0x019FFFCEu, 0x006BFFCDu,
    0x004E0041u, 0x0165FFCEu, 0x01D20041u, 0x00480023u,
    0x00880030u, 0x01900047u, 0x006E0037u, 0x0063FFB7u,
    0x01FE0029u, 0x018E001Fu, 0x01DC0041u, 0x0023FFEAu,
    0x0163FFEAu, 0x0187FFF6u, 0x000FFFE5u, 0x0022003Au,
    0x0152001Fu, 0x00620011u, 0x0051FFD9u, 0x002E0008u,
    0x002C002Fu, 0x005C0044u, 0x0062004Au, 0x015BFFCBu,
    0x000BFFDFu, 0x01960048u, 0x0017FFDFu, 0x003A0037u,
    0x0067FFF6u, 0x0175FFCFu, 0x006E0005u, 0x0050004Bu,
    0x01D1FFC7u, 0x019FFFEAu, 0x0029FFF8u, 0x01F4001Fu,
    0x01FA0030u, 0x00400010u, 0x01A7FFC2u, 0x0013FFE5u,
    0x0066000Fu, 0x014FFFF5u, 0x01A7FFE1u, 0x005C002Du,
    0x016BFFECu, 0x01A00052u, 0x004FFFDAu, 0x015C005Au,
    0x00540030u, 0x0013FFD4u, 0x01E7FFC6u, 0x01C00016u,
    0x0011FFEDu, 0x004FFFE6u, 0x00240006u, 0x0074002Fu,
    0x016FFFE6u, 0x01FFFFD3u, 0x002C0023u, 0x0033FFDFu,
    0x0060000Eu, 0x01960059u, 0x01EA0016u, 0x01860021u,
    0x01CA0043u, 0x01F20005u, 0x005DFFB3u, 0x0199FFB3u,
    0x0011FFC4u, 0x0178001Cu, 0x01DA0016u, 0x0015FFECu,
    0x00600004u, 0x0043FFC9u, 0x00460024u, 0x01CFFFE7u,
    0x01F2000Fu, 0x0029FFE4u, 0x01CE0049u, 0x002A001Cu,
    0x01B00008u, 0x00120043u, 0x019BFFB7u, 0x01CFFFD2u,
    0x01AA0051u, 0x006C0037u, 0x00400051u, 0x0033FFD3u,
    0x002C002Du, 0x01460027u, 0x003A0024u, 0x01CBFFEBu,
    0x01F5FFBFu, 0x01B0001Au, 0x01B0003Au, 0x01B20045u,
    0x00420006u, 0x01A00004u, 0x01B5FFBEu, 0x01C00014u,
    0x002A003Eu, 0x01A1FFEDu, 0x01B80023u, 0x01D80009u,
    0x01C80021u, 0x01F20027u, 0x01900036u, 0x01D20041u,
    0x01A80019u, 0x01A3FFE3u, 0x0030004Du, 0x01FA0035u,
    0x0187FFBBu, 0x0134002Du, 0x014DFFD9u, 0x0189FFF1u,
    0x01C7FFC3u, 0x01BC0004u, 0x01FE0021u, 0x01480003u,
    0x000E0031u, 0x0017FFDAu, 0x0056000Eu, 0x00060028u,
    0x01540028u, 0x017BFFD5u, 0x01D9FFF7u, 0x0014001Bu,
    0x0052003Au, 0x01CBFFF6u, 0x01E7FFBCu, 0x0028001Du,
    0x0086004Bu, 0x01E1FFCBu, 0x00340044u, 0x0031FFD5u,
    0x003FFFF4u, 0x01D80036u, 0x0168005Du, 0x0063FFD5u,
    0x006E001Au, 0x0027FFCEu, 0x00640004u, 0x0013FFEDu,
    0x0039FFDFu, 0x0080000Eu, 0x01BA005Bu, 0x019E004Eu,
    0x01A00014u, 0x0071FFC0u, 0x01580057u, 0x01A4005Cu,
