005BFFF3
00720008
00440047
00380001
0188002F
0013FFE5
01860012
0081FFF4
0055FFE2
01DA001F
00200019
0192002E
0033FFF5
0069FFCC
008E004F
0187FFE7
017A002B
00260045
01E60028
001A001D
01940023
016C004D
01EA003A
005FFFDE
009FFFF6
00160011
000E001C
01BC0001
01A1FFF8
0068000C
01CFFFE8
01EDFFC8
01A3FFC1
017FFFEF
0199FFE6
01900028
0063FFE7
0040001B
01C1FFE0
0077FFD4
006DFFBE
00560033
003A0033
00920012
01C6001A
01E0000A
01F60010
01A9FFD3
0091FFC5
00ADFFE5
01F2002A
0195FFD8
00440015
00800042
01B0001F
0039FFFC
018C0021
00260037
00A1FFB7
00C00026
002A001D
01E5FFE9
01C5FFF2
0195FFC8
0029FFE5
00600035
01A40034
0097FFD5
01D5FFE9
003C0037
01CBFFBB
018BFFBB
0053FFCD
0017FFF4
0010000F
007DFFF4
0161FFD0
01F1FFE7
0095FFDC
019A003A
00580016
006A0027
006FFFEB
01C40044
0072003B
01EE002C
01BE0019
01DC001F
01C20000
005FFFC6
00700007
0077FFE3
01980026
01F4002E
01EFFFF5
00A6001B
0005FFDC
006BFFF6
01ADFFBB
01A9FFC2
01A5FFDE
01D3FFED
0059FFF9
01E3FFC1
004DFFE2
01E0002A
0192003F
00A6001E
002DFFD2
019FFFD5
01F1FFC6
0028001B
0001FFEC
0039FFB4
01D40002
00400016
000FFFD2
0030001E
0014001C
009FFFAB
01F00039
0017FFE2
0006002A
0079FFDD
018FFFCA
002BFFF8
00400023
01B1FFD5
002E003F
0071FFF2
0051FFF1
0036004C
0017FFF0
0009FFB2
0071FFE1
0197FFC0
0185FFF4
00640019
005E0021
003E0002
0075FFE1
019FFFDA
01D9FFB7
00700054
0055FFF5
0011FFE2
01DDFFC7
01F4005A
00560005
00840008
01DE0013
0019FFEA
01A9FFEE
0091FFE6
01A40004
0038004B
01B20003
0009FFD8
019DFFEF
0003FFFC
0198003B
0062001A
01FFFFE6
01AC0019
0099FFFE
00440035
018C000D
00860026
00200020
01D0003E
0053FFD3
000A0006
01A0002D
004E0029
01C5FFEE
006DFFD5
01DFFFC4
01B80009
000DFFDE
01B9FFF7
0017FFF4
0062003C
01B2000B
00340033
0189FFD8
01CBFFF9
0025FFC0
00AFFFF4
01E3FFD4
01A4001C
0025FFD3
0000003D
01CDFFD6
00060005
016FFFE9
005E0006
01DDFFBB
01E60022
0054000A
00240001
0053FFC1
0096004F
006A003A
006DFFCE
01E9FFBB
0184000B
01B5FFD2
004C0003
01DA0001
019FFFB8
0036003A
007FFFD7
0091FFD0
01F5FFC0
0085FFF9
019E0039
0003FFBF
0001FFD7
0033FFFD
000E0024
0079FFEF
0028000E
01B5FFD7
003BFFD5
0071FFC2
01F3FFCD
01B3FFDA
019BFFB8
0052000A
01FDFFC5
004BFFB7
0179FFF3
01B7FFB8
00100010
007FFFE1
016A001F
006A0001
01D60023
018FFFCD
0009FFB2
00140011
00120014
01AC0009
01AC0013
0040001A
0030000F
01D7FFD2
001FFFDC
00200043
01EFFFE6
01FFFFBA
0007FFFD
0180002A
01D60025
0006000F
0015FFF2
0092000F
0080003D
01C1FFD4
01F40017
00680049
00A7FFC6
002A001B
00A60030
00240021
01CBFFD5
004E0028
0054002F
01E5FFDB
01740034
006E0007
0035FFCD
016FFFB4
01A3FFF3
005BFFEA
0180002E
00900032
0030000D
01B6003B
0052002D
002A0041
01AE0026
01B5FFFC
00700009
01A1FFF2
01FBFFDA
0061FFC0
0193FFCD
01DFFFCC
0021FFDA
00A80043
01EFFFDD
01A1FFE2
0038003B
0198001C
0194001D
01DDFFF2
002BFFC4
01BA0028
01EFFFB0
0192000A
0015FFD0
001FFFDB
0182002A
0085FFF2
0177FFF8
009DFFFD
017FFFC0
01C1FFD9
00680008
004FFFFF
01D0001A
0049FFCC
01C5FFF3
01CBFFEE
003DFFF4
01FC0018
01FE0014
01D80046
00400001
0085FFF2
01EFFFCE
0177FFF4
002FFFFB
0165FFE7
000C0032
01C9FFDE
007A0023
018DFFF8
005BFFEE
0181FFEF
01ADFFF3
00500033
0000004A
004BFFE9
000DFFFE
009BFFC6
01C1FFD5
0001FFE2
0027FFCC
01B2005B
019FFFE3
01B7FFCA
0047FFCA
0065FFF2
0021FFC8
001BFFC5
01EC0015
00A1FFF3
019BFFD8
005DFFFE
007C0001
00A3FFD0
0099FFFF
00060001
008FFFDF
01940020
01D20022
008DFFED
01A3FFE6
01D5FFF6
01C20004
0033FFF0
0000001A
00520041
01BDFFCE
01F1FFED
01F1FFFD
01EE0019
0033FFE2
01A1FFD0
005C003C
00060037
01F4002B
00020020
0090000B
01EBFFE0
01AA000F
0019FFC5
0169FFFB
00460031
0079FFEF
019A0027
00080054
0040004A
01A4003C
01C20032
01B9FFD6
01F0002F
01CA0037
01F7FFFE
01FDFFEC
01D9FFCA
004FFFF8
00800000
01FC001F
0077FFF9
017BFFB5
0079FFFB
015FFFAE
01C60014
01E2003B
01C1FFFA
00860012
0069FFDB
0017FFDB
01D1FFF5
00960025
016BFFC1
005A0038
006A0037
016C0022
0021FFB5
006A0033
0009FFD9
01D6001F
00600015
01FBFFCB
004DFFF1
018FFFD7
01800024
01FBFFB1
00880021
01FDFFD6
0019FFDD
005FFFF3
01F6000E
006A001F
00220014
01A60027
01A9FFE7
01EA0035
0166002F
0021FFC2
003BFFEC
009BFFCB
001DFFF1
000BFFCD
0185FFF0
018DFFB1
01DC0009
0045FFBB
002E0037
01E00011
00560036
01BA0015
01B7FFB6
017A0005
0013FFAC
01DBFFE9
01AC000B
005FFFE2
0048001C
01E40014
0074003D
0025FFEE
0003FFB9
0185FFA4
0052000B
01EC000E
004E0007
001C0038
01D7FFC8
01CA0009
001DFFCE
01D40037
0055FFE8
002E0038
0069FFDC
000FFFD1
008DFFF6
003DFFDE
005DFFD5
001E0029
01EC000F
0009FFBB
017DFFDF
0028001F
019C0023
017DFFEE
01EA0033
018E0026
01B00003
000DFFD9
01A80019
01ADFFEC
01F6003B
01F80022
01FBFFC0
019A0037
01D1FFE0
0033FFC7
007C0021
00A8003C
01FBFFFD
0075FFE3
01DFFFFB
0027FFF9
0065FFDF
003BFFE0
0063FFDE
0087FFFF
0021FFCF
01B8004B
000C002A
0059FFE8
01FFFFA1
015FFFEF
019FFFD7
01ABFFE5
01C20015
01AE0035
01F0002D
00560022
00420021
01B8000F
019A0005
00680014
004A0004
0005FFDA
01F00044
01CFFFE7
006DFFF5
006A0017
01EFFFFC
01EE0054
01D00024
0190000B
00A5FFDD
017E0006
0171FFCB
0169FFD8
00540060
01CFFFF7
0058000A
01AFFFEA
01B00047
000C0034
017BFFCB
0033FFE2
005DFFDB
016C0011
01EFFFDC
01E9FFCC
01CE0012
004A0014
01D7FFF6
003E0018
01DA0041
007C0049
006A0012
00620049
0049FFBC
0029FFEE
000BFFD8
0069FFF5
0024002A
0001FFF9
00280031
01FC0010
0013FFD6
00860026
01A3FFDD
0041FFE7
0053FFCC
0049FFA9
000DFFF3
01FFFFBE
016BFFBA
01820046
002A0015
004FFFB9
0191FFAE
018FFFFA
01780023
016E0034
01E80001
01CDFFD7
004E0029
0023FFF5
0001FFE9
0011FFE6
01EFFFD7
01820028
004DFFDA
01DDFFFB
01F3FFC6
0001FFE8
01EFFFB5
0071FFF6
001BFFEB
00140014
01DC0007
0079FFF0
01E9FFDE
007E0001
01BA0024
000DFFEE
00500003
0063FFED
015FFFCE
0020001C
0195FFC1
0019FFB6
00140001
016E0008
0197FFDE
018FFFCF
01C00023
01EBFFFD
01B1FFEF
0089FFDA
01B20040
01CFFFB9
018E001F
017C0032
000DFFE4
01F3FFBC
0019FFED
00620007
017DFFAF
0039FFD2
002E0012
01A3FFBF
01D3FFC5
017BFFE9
01D6001A
00520034
003C0054
0077FFEA
0003FFDA
0083FFDE
0021FFEB
01C9FFF0
01AFFFD2
0080001E
01FFFFF5
00740045
01C3FFE3
01B80023
0198000A
00400038
0017FFEA
01960003
0087FFC8
01EBFFCE
01EBFFFA
016FFFED
00200024
000E002A
00480031
019C001F
005DFFFC
000A0039
0190000A
0005FFBD
0011FFD7
01A8004A
00380000
017FFFEB
01BE003C
01DA000C
01C4002B
01A40021
01DBFFE6
013FFFD0
00320036
01D1FFCE
01280049
000FFFB4
0007FFEF
0020001F
01A5FFF3
01D4000A
0190001C
002BFFBA
004A0012
01CA0025
01B2000E
0062004C
01D1FFB4
01EE0005
003BFFE4
01A0004D
003DFFD7
01A1FFE1
00520040
01E8001A
01D9FFBF
01CE0039
00380037
019A002C
007E0015
01D6000F
00440005
00580045
0081FFE5
01760040
01B5FF9D
00320041
01840027
014A005A
00440024
01C00010
01FDFFD2
01AFFFF7
0071FFD3
0002000C
01FBFFD9
01720016
001BFFFD
01E8003D
01740031
01ADFFD1
01BBFFB6
01720017
00960007
017FFFEF
018BFFE8
006DFFDF
0185FFF4
0054000D
006DFFDC
01F1FFDB
01C20067
01C60017
00020031
0167FFE4
0073FFDC
006BFFD1
0193FFCF
01C80053
0185FFEB
01CE004C
01D9FFF6
00220022
01B60023
01B3FFFC
0036001E
0189FFD4
01AC000F
00080001
0165FFE7
006BFFCB
019BFFE0
01EDFFEA
006E0004
01D80012
018E0020
018A0041
00760049
0184002C
01840007
01BFFFC6
01C7FFBB
0188001F
01520029
001DFFE7
01760022
0030001E
0019FFD9
018FFFE8
01B0003A
004A0039
01A5FFE3
0011FFCD
01500000
017FFFBF
0072001B
01EDFFBB
0061FFF4
01B5FFEC
0173FFBE
0034001B
0013FFEB
0048001F
004C0023
0035FFEE
01DA0042
0056002C
0049FFA6
004C000E
0083FFD6
0194003E
0035FFD0
002C0034
0041FFEA
0035FFAE
017BFFED
0086001E
0002001B
01DFFFBF
008BFFDB
00080015
01E40011
018FFFE0
00600014
01F00005
000FFFBA
01C0004D
0042002E
0084003F
0008003D
018E000C
0067FFCC
015E0037
017E0003
0068003F
01C7FFF1
01BC0010
01F40008
007C0033
0025FFE1
0071FFFF
008A0001
0053FFFA
0028000C
01940008
01FBFFE8
0004000C
001BFFD4
00340018
0017FFD2
018BFFDD
018FFFF3
01EA0038
018C003B
018E0048
01B20038
017FFFE9
0013FFC2
001E001E
003E0033
01DE0031
0044002E
01F3FFB0
0180004A
01FE0015
006BFFD1
016A003D
0039FFE3
0051FFB9
005BFFD4
01A5FFF0
0027FFC3
01BA0000
0022001E
0055FFE1
01B00019
00560026
0077FFC7
01A0001D
019E004E
01C1FFF2
01DC0041
00000020
0144001A
0043FFFB
0044002F
008C0031
0015FFD0
01D9FFE9
016A000D
01CE0016
01CC0000
01FE0056
01F7FFE5
01FC001C
01D40016
001A0036
0021FFDE
0093FFC8
0041FFDE
0157FFC6
01B7FFD2
0075FFF8
01AC0009
000A000E
00ADFFCD
001A0008
0070002A
00000043
005C001A
0033FFD7
00C6000E
001BFFF7
01EFFFE7
01D40031
000DFFF1
01840036
01BBFFFF
01D5FFD0
01F40023
01840013
00A3FFBF
0047FFD8
01CA0035
01E8000B
01F8000C
016DFFFA
0003FFCB
01D8000D
019FFFD6
016FFFD8
01FBFFF0
000A0000
003E0028
01BC0021
00700043
01CA004D
01C1FFC1
01CA000A
0033FFDB
01AC0059
00380042
0081FFCC
0182001B
0194000B
00260037
018FFFDD
0199FFD6
01EE0030
005E000B
005DFFDC
01F5FFB2
00520048
006DFFEB
0195FFDB
00200016
01B40005
0077FFE3
01E0000D
01EC0022
01F80011
0040002B
01A3FFF3
0024003C
01A5FFEE
0069FFBE
0153FFBC
005A0015
01A80058
01AFFFF5
01AA000E
01AFFFFB
0032004B
004FFFEE
0043FFE0
004DFFE9
01D20030
01F60013
01E2004E
01ABFFC4
0165FFD2
01FFFFC5
0049FFE9
002FFFDA
016BFFE7
005E003F
01D3FFEF
01A80034
0081FFC3
01920014
019A0015
0199FFF2
000FFFC0
00420030
0039FFDA
00080029
01CFFFC3
0014003F
0167FFC3
01FC0001
0057FFD0
0006000E
01E2001B
01DBFFD6
019FFFDA
018DFFC2
0015FFEE
001A002F
0076001D
01CFFFF6
0061FFB6
000DFFF8
016C0012
008E001A
016BFFF8
01640007
01E0003A
01F40010
01D2001E
01F7FFCA
00320015
004BFFBF
00360024
00200048
00480042
017DFFC9
0057FFC6
01DC001C
0016003B
00220050
01800039
00520009
01AFFFDD
01EA0019
019E001A
007E0038
003C003D
0046003F
01F3FFC4
01F1FFE6
00620047
01DA0034
01AFFFD0
01940017
0032003D
0198003D
01960034
0039FFCD
01CC0036
01B1FFD7
0173FFE4
005BFFC3
0171FFFC
00580005
0187FFC9
001C0028
0005FFE1
0034003A
0050001A
01FDFFD6
00320011
01B20013
014C0023
01B7FFB9
019E0039
000C0020
019E0032
01E40025
0037FFEA
01B40013
00540015
00080058
01B6000B
019BFFFA
0007FFE5
017DFFD3
0156003B
002BFFD8
01C00022
01D1FFD9
01FBFFB8
01E40067
005DFFE3
01A0001A
0008005A
007BFFDB
01A1FFE4
0017FFD9
00AE0026
00080030
0193FFC1
006BFFD6
01CA001E
004FFFE1
000FFFE6
0038001F
002DFFDD
01F7FFCC
017A000C
01ABFFB8
0036000C
0035FFC9
01FDFFC8
01AC0026
002C0039
0045FFF8
01D4003A
01B1FFB5
0031FFBF
019C0032
001E0036
0169FFB8
006A0033
00CC0046
001BFFEA
007E0032
015DFFF1
005C0040
005BFFF0
0091FFF9
003C0029
0028002C
0080004A
00640026
01A5FFCA
014DFFFB
0045FFFC
0035FFC8
01FBFFF8
01A1FFDA
01A9FFFF
017DFFDD
001DFFBF
01940022
0015FFED
006FFFF2
002DFFF7
019BFFD3
0025FFFF
01BA0018
0055FFD2
01FE0034
01F7FFE3
019A003C
00400002
0039FFF4
0194003C
00240036
018E0047
0193FFC8
008E0028
01EDFFB9
01B1FFE9
0061FFE5
000E000A
016C000B
014DFFD6
01C00013
016DFFFF
01A6001F
01660047
008BFFE1
00640005
0199FFF4
017DFFC8
00660037
01D7FFD0
01C3FFF8
017A0027
0035FFEB
007E002A
0033FFD9
0158000C
00720043
01A5FFC7
0016000C
0011FFC5
0093FFCB
01E60004
017C001D
0085FFDA
009BFFE4
016FFFAC
0019FFCC
003E0046
000FFFD7
0005FFEF
0035FFB2
01900047
01E9FFCA
004A0025
00060032
01B80041
001BFFC1
0174000F
0039FFE4
015FFFF6
01980042
0053FFCE
0071FFC8
0061FFCA
01DC0049
01C1FFB1
0071FFB9
0187FFCF
01AFFFE7
016C0032
002FFFD7
00560018
006A0027
01920019
00780000
0044004F
00260015
0065FFE8
006BFFFE
0009FFDD
00260012
01E7FFE2
0033FFF4
017E0024
0177FFC1
006BFFBE
006FFFCF
004DFFCA
0011FFFA
00080012
0045FFF5
002DFFCA
01F20012
0023FFBA
001E0031
0002001B
01DDFFF7
00560026
01760010
006A0021
0193FFD5
0035FFDA
01900039
0184000A
016FFFF0
0075FFCF
01EDFFFA
00880031
01740005
01FFFFE8
0079FFD1
0013FFCE
008FFFC9
01FA0031
0045FFCB
01CFFFC6
018A0044
01A80014
01D8001F
01BA0019
015A0062
005BFFD8
01DBFFCE
0015FFC9
01CDFFFD
01F40006
01D4003D
01AA0043
00A1FFFD
0055FFDC
00880017
0195FFDE
00680033
0017FFF2
0099FFBC
01980014
01700043
0007FFD7
01CDFFBB
0034001A
006BFFD6
0089FFBC
002E0011
01BC001F
01EDFFC0
01FBFFFE
01F80040
0098000B
004DFFCA
004DFFAC
01AA0022
01C6003A
0192002A
00320011
0023FFFD
0175FFE6
0071FFD4
00700034
0096002F
01EDFFDD
0069FFF8
017DFFF9
0075FFC5
003FFF9D
006FFFF6
01840014
0013FFF9
0053FFE5
00820038
0059FFBB
0188001F
01E0002A
019BFFD3
01EFFFD6
0007FFE8
0085FFDC
004DFFB9
0035FFFD
001DFFEB
0074000F
01E5FFB5
0020003A
01F3FFBF
00580011
01ABFFF4
01DA000C
018C001B
00580030
01D40012
0020002C
01C00025
01900026
01B80037
01520015
01B9FFCB
0063FFE6
006A0027
0035FFF8
018E0052
01860019
017C003B
017E0007
0048004A
0006003C
0197FFD1
01880002
01EDFFD9
01CFFFE4
01DC002B
01A9FFD3
0169FFE2
00120046
000C0049
0170003D
0161FFF7
01CE0029
006C0006
0047FFB5
0182003E
005A0031
001A002D
01EDFFC6
01A7FFE8
0087FFD1
000FFFDE
0043FFF5
000FFFEB
01F3FFDF
017A0032
01EBFFB3
0071FFC9
01D0001E
01DA000C
01560003
004DFFFE
01D6001A
01FFFFF3
01CFFFFE
018C0013
01D20023
017C0044
01F8000B
0170001D
00560017
0079FFF7
016E0019
01760036
0004003F
00100038
01880036
00240011
0170002E
0059FFD6
001E003A
00440022
006A0027
01A9FFBE
0001FFEA
0021FFEA
0021FFF3
00660032
0183FFEF
01D2003E
01A4002C
015DFFFC
0168004B
0070003C
01B3FFC4
00080038
0164001B
01C7FFCF
01EC003F
018E000C
001DFFC8
01CA0000
0021FFC1
01A00011
003A0005
01B9FFC6
01FC004C
0009FFC2
0061FFEE
001E0046
01D7FFEC
00560015
01BDFFCD
00400006
01C5FFF1
0152000F
017DFFD9
0169FFEF
01860029
0195FFF4
01E8004C
017DFFD1
0022000C
003E0017
00060004
01D1FFFC
01F00019
0035FFCB
000DFFD6
01F5FFDC
01AA0026
005BFFCE
019BFFCE
0057FFD6
01D5FFC9
01F60025
01EA0040
003E0042
01A4000C
0196004C
01AFFFC8
00AA0044
01E1FFDB
0049FFDD
01FE001D
01C80026
000FFFEA
0044001E
01F3FFE9
0199FFD8
00500014
0193FFD3
0057FFF7
01D6000F
00A00039
01DFFFEA
00780009
01DE0005
01E20022
00980017
01B0001C
0027FFD2
0001FFC2
01DBFFE0
003FFFE2
00660016
003FFFF8
0063FFD1
00700025
01B3FFFD
000A002D
006DFFF6
00600036
009FFFF3
00660011
0173FFF4
0022000A
00800027
01780014
016E002F
017DFFB7
007A002B
001A001A
0013FFB7
0041FFC5
002BFFFC
01E40014
01C1FFF8
01EDFFB7
001DFFBF
01EE002E
0157FFE0
0051FFE9
002BFFF9
0059FFED
0067FFC8
01CDFFCD
01C9FFCE
005E0017
0049FFEE
0001FFE8
01BFFFF8
0059FFC5
0181FFBD
007A0002
01D1FFEE
0033FFD5
004DFFF2
0061FF99
004DFFDE
01520030
0065FFC1
01F5FFC9
01B5FFCC
00320024
007E004A
01F00023
0011FFC3
001E0007
01D5FFEC
00580016
01A20043
00880010
0178000A
01A40037
015E0032
006BFFC0
01E2000B
003E0017
0057FFE8
00180041
01F20041
01EFFFE0
01740001
00480005
01ADFFF6
006A0041
016E002F
0071FFF5
00760020
0071FFD0
000E000C
01900015
01F3FFBD
004C002B
01EE0027
01BFFFDC
01DDFFF8
01840040
0038002F
001DFFD8
005FFFB1
0063FFBC
01F0004B
01D2003A
0063FFC5
0053FFDB
00140027
00100009
016DFFB9
01D00028
0171FFF7
01E3FFAF
00720021
00680021
0058002F
0179FFD9
01DC0019
004C0044
00500018
01B9FFB8
0051FFD8
00700009
01A5FFCD
00680043
01C9FFC2
01D1FFC0
005DFFEF
01AFFFE0
0029FFFB
018E001D
001FFFCB
01E40042
0157FFB9
006DFFC6
01F80011
005C003C
01840047
0013FFE7
003A0028
01C5FFD5
01C5FFFB
00220010
000C0010
01A2002F
006C0022
015BFFFE
0023FFF0
0067FFDF
01A1FFC8
01B8002C
007E0003
01E8001C
005C001F
00040014
0185FFE4
0069FFDC
001E0058
000DFFD9
01E6001F
014FFFD9
0183FFE5
01720006
001BFFF6
003FFFF6
003E001E
004DFFEA
01A5FFDB
0188003E
01C60000
0067FFCF
017C0032
0033FFF4
0006000D
01DDFFF7
00760018
01A1FFCA
0198002E
00280028
002A0018
00800010
0075FFCE
008E0035
01B40028
01DC005B
01B5FFFE
0170001C
01B80003
005E001A
0179FFD6
00900011
00A2000A
01A7FFF1
00520042
0191FFBE
01DDFFC5
001A001B
0022005D
0194003A
01EDFFBE
01A7FFF0
00500040
01B6000F
01D8004B
01EBFFEB
0171FFC5
0158001B
0021FFEC
0057FFCB
019BFFFD
0163FFF5
002E001D
0091FFC6
00480046
01FC0023
0059FFFA
006C0048
01CA0007
0191FFA5
0021FFC3
016BFFF6
0045FFD0
01FBFFE4
0042001E
01820016
01A1FFCB
01C9FFD5
01D9FFCA
006C0025
0179FFE4
001E001B
0052004B
007E002A
00440042
0197FFFD
01A20002
01C3FFD9
01EBFFF8
017C0015
01D3FFFD
01A8002F
017DFFFB
0041FFF0
01AE003A
0061FFCB
01A20023
00780033
01A4002D
0197FFEF
01B5FFEC
0051FFC2
0069FFE5
0154002B
000C0014
00600029
0025FFBB
01AE0029
00480030
0041FFC0
00080021
01FE0038
0057FFCB
002C002F
01E80003
00720008
01760026
008BFFB7
0005FFB4
0005FFC5
01FA0024
00640036
0082001D
0018000D
0059FFCE
01E6001B
01E1FFEE
01F3FFC4
01CBFFB5
0034003A
01E00022
0194002C
004BFFFF
01E3FFA4
01D40037
01620019
01CE0019
0025FFEA
01C40030
0005FFC4
01880015
0025FFD2
01900024
018E0022
01FA000D
0063FFD8
0065FFB1
01A80033
0053FFFA
018DFFFB
01E4001F
01E3FFD0
0088004A
019BFFD4
000A002C
01CC0005
01940033
0190002F
016BFFD4
01C7FFC8
003FFFE4
01B9FFD6
01B0001E
01CBFFF4
01FE0013
000FFFF5
0052002E
0009FFE1
01E00019
0009FFCD
008BFFF3
01C0003A
00120023
01C40015
0082002C
00680009
018E0015
01CA003B
01E80029
01D8000C
01A9FFE7
0176000C
0082001D
01760042
018FFFC7
01C60038
015DFFD1
006A0013
0083FFB1
01760015
0007FFD1
01CFFFD6
00540019
01AA0026
0023FFBA
0002001B
01820006
015FFFE6
0093FFF0
01C40029
005C0056
0027FFE7
002A0005
01CDFFE6
0197FFF3
01C3FFCF
01D40029
01AE0041
0156001D
0005FFC0
01FDFFC0
01EBFFFD
000C0042
015BFFFB
019C0006
01E40045
01B3FFD2
00180025
0075FFC9
003C0037
006DFFBD
0089FFE8
018DFFE0
0074003C
01A00006
00380019
01E20008
01DE004F
00720007
019C002D
0037FFEC
01BBFFC1
0033FFF6
0193FFF9
003A0045
01F80030
009A001B
00580033
00120008
01BFFFE7
0058002F
007BFFD4
0053FFFF
01F60006
0017FFC7
0005FFCB
01EFFFFC
00720027
001DFFC4
0023FFFF
01B1FFF4
0017FFDE
0001FFC9
005E001C
00820027
019BFFC6
006FFFD9
01E8003F
0017FFE7
002DFFCF
018A0024
0017FFF7
005FFFC0
019E002F
01A20027
00300017
01CDFFEC
014C0023
0123FFCE
01DFFFF4
01940026
004C0012
01F60022
01FA0015
00600043
0081FFD0
01BFFFCF
0023FFDA
004E002B
01FC0023
01E9FFC0
01B7FFEA
0032003B
0011FFCD
01FA0055
01DDFFBD
01E20032
0055FFC7
006DFFE3
0194002E
01DBFFB9
01E20028
01B60034
0193FFAE
008E0021
0162001F
0171FFC4
0069FFC4
00640031
01AFFFD3
01F3FFDC
01CA0015
017A0013
01BC0009
0011FFED
01A9FFEE
007E0017
018DFFFB
00240019
018C002D
00360007
007E000B
01CBFFAD
0033FFC4
01C9FFFD
0047FFD7
01A20028
01D20022
006DFFFD
01B4001E
01A0002A
005C003A
0037FFCB
0027FFDF
01E9FFD5
0183FFFA
0174000D
018E001C
0017FFB3
00920037
018DFFB6
01F1FFB0
01C20017
01B9FFEA
01A0000E
003A0031
0097FFC8
0178002B
0015FFFC
007FFFE8
00180012
005E0046
000C003C
01E3FFC9
007DFFE8
00420024
01C1FFDC
0059FFC9
01C9FFD2
007E003E
01D40027
003FFFE6
006BFFCE
01B3FFFA
0176001B
00A7FFF6
01C7FFF9
00840003
01EE003C
01CE0014
00A40036
01D5FFCF
01940000
01A5FFCE
0061FFD6
01E9FFB7
01F3FFF6
01F5FFE1
00840028
005E0034
01CE000B
00160000
01D20039
0177FFCC
014FFFBF
01FFFFED
003BFFEB
01FC0046
01F60027
00020010
0065FFE1
009FFFD4
006DFFF1
000E0021
003BFFD6
01FFFFB3
01F7FFCB
01940055
01FE0004
01B80025
00080013
01D1FFFC
01F7FFF9
00A2002E
006DFFF5
01B7FFB7
01BFFFFB
00740021
01C3FFCE
018FFFFC
0185FFE6
004FFFB9
01F7FFE6
01680019
018C0012
01C3FFD8
01C5FFEA
005DFFDE
01A80018
00860042
019E002B
01BBFFC5
009FFFC5
01A20013
01E7FFEC
0189FFDC
0057FFDB
00140027
01EC0024
01D00029
01C5FFDD
0069FFEC
007A0004
00340021
0199FFEB
00360020
01EA001A
01A1FFFE
0015FFCC
001BFFD5
007FFFDB
018A0002
003FFFE0
0190000C
003A0036
003A0012
01F8002F
0033FFFC
0089FFAE
01BA0010
0099FFE6
01EE0022
01FA0000
002E0022
01BDFFEE
01AFFFB9
0003FFF2
0095FFCF
01C3FFD6
01CE0012
01720042
01E20030
01FBFFCF
01E7FFDB
01D40023
01D20037
001E0025
0047FFF3
01E9FFF7
00740032
01D5FFEE
0011FFFC
004A0035
006BFFE5
009E0016
0035FFDB
01A3FFE4
0087FFEC
005A0036
006C0011
003FFFF5
0081FFC6
01D1FFBC
01EFFFEE
01F6004C
0083FFBC
007A002A
01E4000B
01EA000B
019BFFF8
002DFFB7
01B3FFD5
0062001B
000BFFD3
01B3FFE9
01C5FFFF
008DFFFB
005C0056
0083FFBD
01DA003C
019A000C
0019FFB3
00A1FFFB
00A7FFFD
0197FFC6
008FFFEE
0013FFD8
0013FFC4
01E00039
0059FFC5
01CBFFFC
0189FFD4
00380000
00A5FFD9
01FFFFF2
01F6000D
0050003E
004BFFBA
00920041
01EDFFB4
01E80022
005BFFDA
000A000C
004C0014
0045FFD5
0054001E
01B5FFD4
01DBFFBA
01F60038
000DFFCA
01FA001C
0031FFFC
01B5FFF2
019C001A
01AE0008
01C00023
019E002A
01700047
017DFFB0
005E0039
00180025
01A5FFC6
0161FFB5
00020006
01740048
019E0046
0024002F
006C0023
016BFFC4
01E9FFD3
006BFFBB
0042001E
01AFFFB8
00420026
018E0003
01C1FFBD
00320007
01EDFFCA
01CDFFD8
01B80007
001E0029
01880024
01A20035
0018003B
0028000C
0065FFF1
01F80022
001E0011
001DFFEB
0071FFC5
01C3FFE4
0029FFCA
006DFFE5
0195FFE8
01E5FFF1
00360036
01AA000F
01E5FFD7
01A1FFF5
0053FFB7
0073FFB0
01B80021
002BFFCD
0071FFDF
01F00013
0021FFEF
0087FFCE
01E1FFE0
001BFFCF
0007FFDE
01DC000C
01BFFFDC
0040002E
0003FFE1
0082003D
0181FFD8
01F8000E
00520014
002BFFCD
01DE0038
018A0036
0041FFCA
005E0016
01660015
008E000A
01E7FFD4
01AA0005
01DE0007
01C40016
0004002D
0028002E
01F20008
0001FF9E
00220033
00100001
004FFFF9
006E0004
019A0012
01FE0006
00540020
01AA0040
01AC0016
00620000
01E00016
01C9FFE6
01A3FFE3
01DFFFE7
0170003B
0025FFF4
00080020
01FBFFF2
007DFFDF
0088004D
01AA005D
00660043
01D9FFE1
003DFFF3
0009FFB1
01D3FFD0
002A001E
01B00020
017C0010
01900025
01800046
01F3FFC1
01F1FFDA
0047FFB5
0055FFF2
01D9FFDA
01CC0008
01960020
0185FFF4
0041FFF2
01A20024
0069FFEA
01A0002A
01E8001C
017C0042
01FDFFC5
006A0016
0061FFF2
019A0004
009C0009
0053FFFE
01A9FFE1
0007FFC0
0019FFBB
0197FFD9
0067FFE0
0075FFD3
0018003B
019BFFB9
016A0043
00960043
01F1FFFC
007FFFF0
01BBFFDD
001FFFF7
00140055
01C80021
0065FFE2
01E0000E
0197FFB6
01EFFFDB
0049FFDF
0009FFC2
01CA001B
01DBFFC3
0187FFC6
01C5FFF5
01A60019
007FFFBD
0089FFF9
00320040
01C9FFBD
00500004
0025FFFC
002C001A
01F2002C
0167FFE3
01BFFFFD
00760033
01CA0033
0051FFC6
01D7FFAE
01C7FFCA
01F9FFE7
0039FFBC
01880034
009A0001
008DFFB0
0183FFC2
01EA000E
01DFFFD3
0097FFED
01E7FFD4
002BFFB5
01700015
009FFFD0
018BFFFA
01960044
007FFFDB
018BFFB9
003DFFF4
0001FFDF
0193FFBF
01AFFFFE
001FFFBE
00A1FFC4
0046002B
01D3FFD3
0181FFAE
00520001
017E0016
006E000D
004A000D
018BFFCC
0095FFD9
0007FFEB
0049FFE9
01F3FFBF
01A8001F
00700027
002DFFBF
01700034
006DFFBD
0033FFFE
003C0027
00180028
0069FFEB
00A3FFCC
01E5FFFD
0084002A
01F20034
01920048
0033FFF7
004E0028
002DFFEE
004A0047
01D6001E
007A0015
01EC0019
019A0006
0031FFF9
0081FFC6
018C0020
01B9FFD8
01EFFFFB
0097FFEB
00340021
001E0042
0169FFD2
01B8000B
017DFFCF
01F1FFD7
01B7FFE6
00560037
0188004E
0099FFFC
005DFFD1
0084003B
00500021
00A3FFD6
01F2002C
01D5FFFC
0061FFD2
00360022
017C0028
000A004F
01D60029
000FFFF8
00360043
003C0037
006A004F
01D6002C
01E00000
01ABFFEF
006A000A
0187FFDD
00280006
003BFFC4
018FFFC1
00640004
0064002E
0055FFFB
0062002C
01860038
0164000E
00A3FFE2
00440029
01AA005B
003BFFE9
01D1FFDD
000C0027
01DA001E
0024002A
0071FFF7
01F5FFB5
01F40029
01C9FFFB
0169FFC5
0047FFD2
019BFFF2
017DFFF3
00360055
0035FFDE
0065FFF7
0041FFCB
01D5FFCB
00360041
01D9FFE1
0175FFC9
01F40033
01F9FFB4
018FFFE4
01D20008
0013FFDA
008DFFF7
0069FFC1
019BFFE1
01C5FFDA
0196005C
0015FFB5
00380057
01E4003D
001E0043
0054000D
00580034
00380042
005E0015
006C0027
001BFFF1
01F40041
005FFFBD
01700007
01A4001C
01BC0039
01E8000B
006BFFDC
004DFFC9
016C0018
002A0046
01CDFFD6
01C1FFD4
00000048
01DE0016
01C3FFFE
018FFFDC
00300030
0161FFDA
0183FFDF
01A5FFF8
0067FFFF
016DFFE8
00120031
01E40002
008A002C
00260060
0045FFE4
01CBFFD9
01BBFFE2
01B3FFC0
0056000A
0055FFF0
00860024
004A000E
01E60015
007A0026
0199FFD0
01D80034
017FFFCE
01860007
00380012
01E40004
00280027
004E0005
018C0039
006FFFAD
0033FFFE
0073FFC9
0165FFFD
0047FFC4
01CDFFBD
01EE0003
01F7FFEF
00760043
00240004
01FC0047
0087FFCE
0011FFFD
01B2001A
00560023
01EBFFE5
00820010
01CFFFCC
015DFFF8
0000001D
0035FFFA
0061FFBF
0041FFCD
00920024
01AA0039
0009FFC3
0032002F
01B7FFD1
009A0023
01EBFFC9
01A80002
01ADFFCD
004C0009
0035FFF9
01C9FFE3
0186004C
006DFFE7
01EA0010
01EFFFFA
0187FFF4
01D6003A
0019FFBE
0051FFCF
00760036
0184004A
01A80029
0025FFC2
01C5FFE5
016E002C
0035FFDF
0046003C
007DFFF5
01B0000B
0054002B
0053FFCD
00760056
00660051
01EBFFF1
01B5FFE6
01D1FFEF
0037FFF2
01AFFFDA
01EE002E
0004002C
01E40027
01BC0018
01C20058
01E60036
0027FFDF
006A000D
004DFFFB
0199FFD6
01D5FFED
005DFFE0
01C9FFC6
01BA004E
01BA0042
000E0009
01CBFFEB
0161FFDF
006FFFF1
0007FFE6
01B00005
01BE000B
006C0019
002BFFE7
01ADFFF1
019C0039
01BE0039
0087FFFC
01E6002F
002FFFFA
000DFFE5
007E0028
0065FFCB
0170000D
0151FFAE
0053FFFB
004A003A
01E9FFCF
000FFFE2
004E003D
003A0043
0082004D
001DFFD9
000DFFD9
01D7FFCE
016FFFAF
0068002A
0018002F
01ADFFC3
019DFFE0
00340027
01F2002C
01F9FFE3
0097FFCA
01EBFFCC
01FE000F
01C3FFDA
01EA004C
0027FFF0
0003FFBA
01D5FFC9
01DBFFD5
00400013
003DFFEE
01EDFFEC
01B1FFD1
0053FFA3
001C0003
001C0015
001BFFC4
0179FFF6
009FFFCD
01D2004A
000FFFEA
0004004C
0009FFF5
007DFFE0
0029FFFB
01960048
0023FFF7
0037FFED
0095FFF9
0199FFDC
0050003D
0021FFEE
01BFFFF6
0003FFD5
000BFFFC
019BFFE6
001C002F
01A60029
0011FFE3
00600044
00160052
001A0012
006FFFD0
006BFFD8
01900028
0013FFED
006DFFCA
00380000
01EDFFEB
01E1FFD1
005FFFB1
01B5FFEE
01A40043
0027FFBB
0012003A
01C00033
01C60048
006E0049
01BE0043
002FFFE1
018C0016
01EE000D
000E001F
01AC0046
004DFFAF
0043FFCC
003DFFAB
01DBFFD4
015E0011
019A003A
00780038
01AC0032
0089FFBD
00240046
0003FFDE
01E7FFF8
00620009
017E0020
01C60009
01840003
01F2001D
01F0001C
0067FFEE
01E5FFC5
001FFFDC
0171FFC1
01840039
018DFFB2
001DFFEA
002DFFB2
01F1FFD4
000FFFAE
01D3FFE5
01A3FFEC
0055FFFF
01B6000E
0151FFCB
007C003C
015E0017
0197FFDF
0053FFC6
0053FFD7
0055FFC6
00320024
003BFFE4
0027FFDF
01C1FFD9
01B8002B
01BFFFD9
00080000
01EDFFC8
001C0019
004A002B
0183FFDC
00440007
003A003A
01E2001B
01D3FFD9
0077FFD0
01960023
0070003F
0057FFCE
000C000B
0028001E
01E20028
016FFFD3
001C000C
003E0023
0003FFD7
000FFFF0
0173FFD4
01ADFFFD
00360053
00740007
019C003F
01A9FFE3
00540033
00600038
009C0020
01E80029
0003FFB2
01AFFFE3
0183FFCD
01D8000E
0007FFC2
01E60031
0077FFB1
007DFFE9
01EDFFD3
01DFFFF1
0037FFB7
0053FFDD
0081FFF6
01C1FFCA
00080030
0185FFF6
000C0016
01EDFFE6
017DFFCC
01B2002D
01EA0013
001BFFF4
01F20004
0074000A
01B1FFFF
018BFFE7
0023FFC3
00840008
018BFFEC
01E40010
01A20016
0077FFF4
019E003F
01DE0021
003FFFB7
019DFFE6
008C000F
0080000F
01F80035
003E001C
00540043
01CDFFE5
007DFFCF
008BFFFE
01B9FFDE
01740002
0082004A
003A004B
01A5FFD2
01C9FFDE
01F6003F
005DFFE4
0181FFDE
00200046
01CA0006
01C9FFFF
019E0031
0187FFBB
0083FFCF
0063FFEE
01D2003F
00540057
002A0013
01A80025
01FC002C
0030000F
00520038
01DE003E
005A0000
01A00024
019A000B
0002004C
0197FFF1
0065FFF7
00720011
0005FFC3
0016001D
01C00034
01900042
00680030
004E0048
0021FFAE
0021FFFB
006C0002
008FFFDF
0020003F
006A000B
017FFFCA
003DFFBA
01A7FFCB
00260017
01F0003B
01A8002D
00780007
003C0047
0199FFFE
01F7FFCE
0004000B
01EA0006
019A0033
00180010
00460039
01F9FFCB
0178003F
016E0018
01D3FFF1
01BA0031
01A7FFE8
0057FFBC
0001FFD7
01C5FFC4
0025FFE5
0084000D
01BC0021
00820006
018BFFEB
003DFFC0
0001FFE1
0019FFF2
01C9FFFD
0027FFBB
0037FFF7
00620015
018C002D
00840021
01FE002D
00320025
019C0010
0195FFE9
01D5FFDF
00640027
0041FFDC
0185FFD7
01EFFFCF
01A80017
0175FFBA
01560002
01A9FFC4
00560022
0039FFE7
01C1FFB9
0051FFD1
0173FFC7
015A0025
01E00007
0009FFD9
00A40002
01D7FFFE
01C60005
006C001E
01DFFFCF
01FFFFFA
01C1FFF6
008E0006
0075FFED
019C000F
001C0017
00320005
01DC002F
0001FFF0
01D0001C
0027FFE6
00420004
005BFFD3
01B3FFF7
00480048
01820016
00B80026
01FE003A
01B40008
01BE002B
0017FFF0
01B8000E
017C004D
01E1FFC7
0185FFFA
0025FFCA
01A20019
0007FFBF
000C001A
001FFFF3
00A2003E
008E0005
01E3FFBA
000A000F
0049FFAC
01AC0041
007A0022
0021FFD5
01F7FFE8
01AC0019
01E5FFF0
00040030
01FA0050
01B20029
0083FFCF
00240024
0035FFE6
0027FFFE
00680038
0011FFF3
0095FFE7
01AE0027
01A5FFE6
00320035
00320007
01E00005
01D8001C
01BC001A
017FFFE9
0007FFC3
01F40012
01EFFFD2
01D00014
01D5FFDE
01FA004C
01E20044
01E80038
01C3FFAB
0189FFCA
016A000F
0021FFC8
01F40015
003A0015
01B9FF94
017FFFF1
014E0027
019FFFD7
002E0034
004BFFD6
01DA0001
00380007
0067FFF1
004FFFF1
0008002D
01FDFFB9
01C3FFCC
001DFFC6
00400042
004BFFC1
0025FFBE
00020008
01AA001D
0036000B
01DFFFFA
01D20047
014A0010
01A8003E
00520011
01F8002E
000FFFD8
00260003
01EE0031
002A0045
01D5FFB3
0048002C
01FC0055
001FFFBE
01D80030
01F5FFF3
006FFFCD
002BFFC3
003E0012
01F8000F
01EDFFF7
0063FFD2
01C7FFFA
00300018
0002001F
003BFFD9
0037FFD2
01D9FFE5
01AA002A
0015FFD2
0013FFD2
0033FFE6
01ABFFCF
017E0003
0093FFBF
01800005
000DFFF3
0005FFD1
01F60038
0006002B
00200032
0032000F
00700031
0189FFEA
01DC002D
01FC0039
018E0036
01F7FFF9
005DFFD2
002FFFEC
01D7FFC5
006A0028
01A40015
006A002F
01CC0033
0001FFD4
01EC0013
001BFFFD
01EDFFF2
0199FFCA
00000028
0095FFEA
002A001E
005FFFC9
00A5FFFA
0057FFE7
01C60015
0037FFAB
018DFFFA
00420001
01AA0061
0021FFF6
0043FFF6
0083FFC6
006A003A
019DFFE9
002FFFCD
01D20001
0074002B
01900007
0189FFE6
01AA0000
002C000C
01FDFFB4
0019FFCA
003FFFE3
01760018
01C6001E
0025FFD9
00080005
0045FFE3
0157FFE2
008FFFD0
0033FFB6
01FC002E
01F00018
01C3FFAB
0031FFC0
019A000D
01A40007
01940024
015BFFD8
0187FFCF
0069FFB2
0009FFE3
00940044
0087FFE4
018FFFF3
01980014
0033FFD1
019C000F
01A3FFCC
01C7FFFE
00560018
006C003C
00BA0041
01D6002D
01F8000A
008FFFBD
00260009
00360057
0008004C
01FC0037
001C0012
01B5FFEB
002C0047
018E0000
003C0011
01C6004A
00000055
01CE0009
00A9FFCD
01F1FFEA
0175FFBB
01B40023
01D9FFA9
01AE0011
0019FFDB
01A60014
00600031
0181FFAE
018BFFF8
00500012
00780019
01E20015
00440030
0079FFCF
0065FFD4
01DC0013
0016001C
000BFFEB
01AA0005
01FDFFFB
001C003D
01A1FFFC
0170001D
01920005
01E7FFF9
0037FFB7
017DFFCB
001E0017
0094000E
008DFFD6
01F3FFFD
01D40014
003E0016
01D80001
01940006
018FFFE2
015DFFD3
0164002D
000C0023
003DFFCE
01DDFFDB
0053FFEC
01B6000B
0055FFE3
009BFFE6
018C0041
005A003C
01F1FFD6
01D9FF9E
002FFFBF
01D3FFA4
00620001
01C5FFD2
01A60025
000A000D
01B40022
015A0003
01FA000E
00540024
01FC001A
00200013
00740018
0021FFC4
006C000D
01ADFFC4
01F9FFBF
01AC000D
018A005A
01420025
0189FFE5
016FFFFE
0195FFBD
01B60027
01D0003B
019E0013
001DFFD3
005DFFD3
01860012
0029FFCB
0061FFB2
0042002C
01C00039
0001FFE6
01C60046
0077FFEA
0095FFCC
0196001F
01BA0042
0031FFC1
003A0000
0034002B
005E0008
01D40006
00A80042
0046001A
01AFFFCD
01B3FFD2
00360052
0087FFCE
001BFFF0
007E0042
018FFFD1
01BFFFC9
018C0027
0095FFDF
0068002E
0048002A
01CBFFB5
01A40030
0045FFD1
00000018
01A7FFBF
018DFFD0
01B7FFDD
01B20024
0005FFC7
0184000A
00820007
01780010
00660007
01E7FFD1
0039FFF6
00580054
002C0015
01C8002A
0087FFE5
01CBFFCF
0195FFAD
01B7FFE9
01580001
01800005
01B60023
0003FFEC
0018003D
002BFFB8
000A0020
01C6003C
0189FFB5
01CFFFEC
01BDFFC0
01A9FFC4
00B1FFB8
01A2001E
01B80012
01CBFFC1
01E3FFD2
007A0042
01A7FFE3
0053FFDE
01EE0000
01860036
0039FFC1
0045FFB5
0041FFD4
01DE0006
01DFFFC4
01F4000C
002FFFEB
016FFFB8
01FFFFC1
005E000C
01CFFFC0
017E003F
01D1FFD0
01A0002B
0047FFE4
0053FFD0
009A001C
0052002F
0193FFB3
01D6001A
01F9FFF8
009E004C
00080031
00420031
00B00000
01A1FFCD
01AA003D
01F8000B
00060018
005C0000
0049FFFA
000E001A
004A0031
01DFFFE9
01B20029
006DFFC7
01FC0025
00280010
00080036
01F9FFE4
008E002C
01B80015
0171FFCF
0011FFF9
005C0040
01D20013
0027FFBE
00560014
01ADFFAA
002FFFF3
0048002E
00960013
004E0046
0085FFF4
0036002F
00300022
001DFFAF
01E5FFFB
0069FFFF
0019FFE9
01F60011
0185FFC4
0183FFF4
01F3FFEF
01E20013
009BFFEC
0085FFE9
01E80000
002A002C
001E005C
006DFFE3
008C0029
01B7FFEC
019FFFF4
003DFFF4
01CBFFC1
0065FFC4
003FFFD6
00700021
002C0010
000BFF97
0197FFE5
01B7FFB5
0063FFDC
0013FFF1
00440056
00A0003D
003C0011
01DBFFE9
00300027
00020023
0069FFB5
01E2003D
01A9FFD5
0021FFE9
01D2000F
01F3FFC3
01D5FFE6
019E0028
01A9FFA5
019BFFC1
009C0002
017E0010
0063FFFE
01E5FFC2
003A0000
01400036
01720015
019DFFED
01C80021
0090001B
000E004D
0046004A
000DFFFB
0165FFD2
0034001D
01AFFFCB
00420043
0039FFF3
0076000F
01DE002A
01C00046
001FFFF9
004A0014
0047FFB6
0164000D
001C003A
00540039
002DFFB0
019A0040
0013FFD9
01AC003B
01B00022
0021FFD9
0192002D
01F00037
00A20011
019E003B
0034003A
01B0001D
01A80034
0069FFB0
01C4003C
0017FFBC
01C20013
01CA005D
016DFFD2
00660019
01B80010
01D1FFDE
00260016
0020003E
008FFFCC
01D20059
019E000A
01E7FFBE
00200028
01B4000F
01D5FFC9
0039FFDE
016DFFE6
005FFFFD
01AA000D
01E5FFDC
001A000F
0097FFED
0029FFEC
01A60014
01980002
005A001F
018DFFB7
008FFFF9
001A003C
0059FFE6
01BBFFEB
01BE0016
01D7FFFC
00840040
01CDFFED
01EE000D
01B6004A
00B80018
00620042
0085FFAB
016FFFED
01C00021
00520028
01D1FFF1
01D3FFC1
01860011
001C0012
01B7FFE1
01E9FFE0
001C0001
00380001
01960021
015C003C
004DFFDB
005A0029
00ABFFD6
0171FFDB
0024000C
0089FFCF
0009FFC2
00220002
008DFFDE
01C5FFE3
01C7FFC0
01AA002C
01F7FFDB
004A0045
018A0017
01FC003A
0019FFCA
01EBFFCD
00400030
00A60014
01EDFFCD
0097FFE4
000FFFE1
009A0023
00A80025
01760033
01EDFFF2
01EDFFE1
005C0023
017FFFDC
01B7FFF8
01FE001D
00560053
01DBFFE1
01C7FFE6
01B5FFDA
0041FFE6
005A0033
0019FFEB
0065FFF5
01C4000C
01EC000D
003FFFEF
0087FFB0
01D9FFDD
00580024
001DFFA2
0037FFD1
01C5FFD4
01FDFFF6
01C3FFE6
0078001F
00280005
01BFFFE3
01F5FFDA
0085FFFA
0027FFDA
01B9FFBC
007A001D
003DFFAF
01AA002F
01A60016
0067FFF2
00880007
0089FFE2
01D5FFED
01B40014
01D8001A
01B1FFE7
004FFF95
01B9FFCE
0075FFD0
01F00027
01BDFFB7
005C0003
01D7FFD3
01E3FFC6
000A002A
019C000B
0080002F
0073FFE0
0025FFEB
01EBFFA4
01A5FFC7
0199FFF5
0010001F
0001FFC8
019C0030
01B60027
0094002F
01C40026
0012001C
0056003E
0041FFB1
01E7FFB4
01A80062
0027FFE2
0013FFF5
01BA002F
00BFFFC3
0041FFF3
0002002C
0165FFD5
0039FFFD
01800041
003C001F
0074001C
01EC0007
0083FFD8
0069FFC5
002DFFD3
01900027
006C000A
003C0006
01640010
000FFFBB
0025FFC9
01F0000B
01B60029
01DBFFFD
00500005
01B9FFF6
006DFFC5
01640017
01F7FFF0
005E001E
001BFFCB
001BFFE5
01C9FFE5
00A40052
0079FFAC
0070001C
01CA002F
005DFFFC
003E001C
015FFFDB
000C000C
0058001A
01CBFFC4
01F5FFE1
018FFFFB
0003FFE6
01EBFFF9
000C0024
00420027
0035FFE7
01CA0009
01CA003F
00960019
0017FFFE
0079FFD9
01A40036
00800037
0078000E
0189FFDA
00060025
002E0021
01D9FFEA
000DFFC4
01CBFFEA
0186000E
0046003D
001FFFDE
01D1FFCB
009C0031
002FFFF2
0027FFF0
0023FFF8
0061FFF6
0079FFFF
01D5FFEB
008BFFED
0171FFD6
003E0036
01840001
01D7FFCB
000A002F
016BFFDE
002BFFDC
014C0018
01D9FFE2
01B3FFB9
01AFFFE7
003DFFCC
0019FFD3
003E001B
018C0056
0064000C
0053FFC8
005DFFE9
00BE002E
0177FFFF
01BA001B
01500045
01C2005A
0032005D
01EFFFF9
000BFFBD
003A0011
0195FFB5
0025FFB7
001A002F
00820002
01E00005
0085FFCB
005A0053
0055FFC8
00B3FFFB
00080032
0189FFFF
01F40005
01E6002E
00640015
005FFFB1
0048003E
00A3FFDD
01A2002C
006A0008
0023FFF9
01D20028
01BBFFFF
01460029
00480011
00960007
01E20008
01D5FFC5
002FFFD8
017C0039
01DA003F
0019FFEB
00400038
0079FFC8
01EC003D
0013FFD9
009C0001
01ADFFF2
00000029
00040040
01B5FFEE
0093FFFA
00760029
00640020
004FFFCD
002C004C
01EE002B
00A0001A
0189FFCF
01A1FFFD
0185FFFF
01BDFFE8
00A7FFE1
000DFFE7
01F5FFE5
006C002C
003E0016
01D9FFD2
01B5FFFC
015BFFF9
0054003C
00840055
01D60037
01EA0000
01FA0042
0152003C
00600027
01B80014
0055FFE7
0188001D
0137FFCD
00560018
01F20023
00780024
01E00000
01C9FFFC
005BFFB5
01A8000B
0064000D
01C1FFAE
01E3FFE1
0187FFD6
0010002A
01920043
0001FFD9
0043FFBB
014BFFFA
00380028
01AFFFEE
00B3FFEF
0071FFF6
0187FFCB
004BFFCC
01CE0028
00140016
01DDFFD5
0023FFD1
01B7FFC8
00520036
003FFFD8
0015FFFD
0193FFC6
01E20017
003FFFD3
01D6000D
01C1FFE2
000FFFEC
01A40008
0003FFE1
01C80026
01BC000F
00CC002A
0043FFE7
00120009
00540024
0159FFEB
0035FFEB
007FFFE3
000E000D
01A20013
01FC0013
0033FFED
0057FFDD
006A0053
0197FFEF
003DFFD0
01C7FFBA
0011FFAC
01DE0035
005FFFED
01A7FFF6
0075FFE2
002FFFDA
005BFFE6
0181FFF4
019BFFE3
00040015
00360057
01F00032
017C0037
0008002B
01E8001B
01E3FFB3
01CC000E
0055FFD5
01D7FFE4
01900027
01EFFFF6
004E000E
01B80014
0192000E
005C0015
001E0000
00840010
01A3FFC9
00240053
01F7FFFC
01B6000E
01D1FFED
01C8000B
019DFFF3
017DFFF7
00500040
01D20017
0048002A
00400002
01FA0036
01BFFFD9
00740024
018DFFF3
004A0042
01CC0045
01CE0023
01CC0001
00B00003
001FFFCD
008BFFF3
01FE0053
01D6004F
019DFFDD
0049FFF5
002DFFF4
00820011
019A005A
00C60004
0021FFDD
0192003F
0187FFF4
006C000C
00380034
01AFFFD9
0096001B
01AFFFFB
0075FFB5
01D3FFCA
000A0043
01CFFFCB
00060036
01EBFFFA
0185FFCF
002DFFDC
01F60030
006DFFD4
019FFFFB
0051FFD9
01F7FFDA
004C0050
005FFFC5
01A3FFD6
01B80015
01EC001F
00080006
01AA0030
00B9FFF0
0061FFED
01C1FFE0
004FFFF1
00280008
0017FFDA
01AA0046
016A0023
01AA0064
004DFFFD
01F80017
01E20018
006A0013
0017FFC8
0006002C
0079FFF9
019E0044
01E6003E
0042002A
0014000D
01E7FFE2
01BFFFE2
002A0046
0197FFD3
0032000F
0069FFD1
007DFFFA
00220047
0039FFC6
0157FFCA
01780006
0007FFB8
004E0034
0168005A
00120034
0063FFEC
01FBFFCD
017BFFCF
01D8004E
0185FFCF
01A2003F
0187FFBE
01E7FFF7
002C001A
01CA0018
006FFFD4
00580010
005DFFDB
00380023
0029FFED
00720004
0009FFE8
0183FFE1
001BFFD3
00000008
0087FFDD
001DFFD1
0186002C
0029FFE3
00460027
0177FFDA
01D4004A
01700006
00C0003E
01E1FFA5
01C20030
0055FFF2
01F0003E
01C8001F
000E001C
0182000B
004E0023
00660011
01E60017
01B3FFBE
0038002E
01D5FFE3
0181FFED
004FFFDB
01FA0035
0059FFE9
0018002B
01FA000C
01DDFFDC
01FDFFCB
018E0007
0070001E
0177FFF5
01BC0014
0067FFDD
01EFFFEA
000C002B
01FC0011
01F8000E
01D7FFD2
01B7FFD0
0077FFD5
01A8003F
004BFFD7
01CA0021
00160006
01B00055
00460034
018A0020
00060031
0031FFFD
0067FFFA
01C1FFCC
01FC0020
0173FFFC
0029FFDF
00220002
01FDFFC4
0041FFFC
01D40028
00420017
002A0033
005BFFEF
01EFFFC9
01940036
002A0036
0091FFE8
01BDFFDF
0168005F
01BE0031
006FFFEF
0185FFFC
004DFFF1
004A0032
0003FFD2
01DC0003
01AC000D
01B5FFE2
00120013
006E0016
0040001A
00600015
001DFFF5
00340048
0082001C
01E2001B
01D5FFDF
01C1FFCB
0195FFDC
000C0038
01D80029
01AE000F
01DFFFF9
01BDFFE1
01880002
01FA000E
01BE005E
01D5FFFA
003E004F
006A0037
01B0004F
00040006
0019FFC4
003A0019
01B5FFF9
00B60009
01E9FFCF
00B20025
001A0006
002E000A
0090002A
0064005E
00280048
00540045
007A0024
01E00036
00520052
0077FFF5
0014001E
00460026
01BE0024
01B4002B
0185FFB7
001BFFEA
01C1FFD9
00A5FFC9
01A60010
01B00005
01DDFFC7
01F1FFDC
0007FFF4
002A0036
003FFFFB
00660020
0088003E
019FFFD0
00440009
004E002C
018A004A
001DFFEB
0096001A
0061FFDA
006FFFD6
0024003D
005FFFFF
00800025
0197FFD1
005C001C
0025FFEF
005FFFD1
017A0028
01C5FFC4
0002003D
01E3FFCC
0165FFE6
016A002F
00320030
01DC003C
019FFFD9
01AFFFFA
01E8000F
01B3FFDF
01D7FFD6
00A3FFB2
01D5FFD7
00340014
0037FFEB
0061FFCA
0027FFCD
0051FFFA
01E7FFD1
001FFFD8
005E0032
0012003B
01E00030
0188002A
016C0052
01B80016
016E000B
005A000B
0072002C
0177FFE1
01C8001F
0036001C
01F20002
002BFFD3
01F1FFC8
019DFFC5
00220048
005DFFDB
000BFFF2
015FFFFA
01BE002E
01A60006
01A20043
005BFFBF
0005FFF3
00320005
01EBFFE1
01E60037
01A00016
01FE0022
01F20020
0065FFBE
01660049
003E0027
01F3FFE6
0153FFC8
019BFFE9
00220037
01E5FFDB
0149FFBD
0025FFB9
01C80025
0016002D
001C0033
01A40024
0190003D
0000001A
01B4002B
018DFFE9
01C7FFF5
002C0029
00140027
01E5FFBB
01EA004B
01BA000D
01D00001
0074001D
0031FFEA
0002004C
006A002B
0070001F
01F2001E
0079FFD6
0050001A
00720012
01C5FFF8
0081FFFB
00A3FFC7
01F3FFFB
01940000
01DC0005
019DFFDF
01F5FFCC
01F60011
00560008
005DFFEA
006E005D
0014003E
0029FFEE
006DFFCD
00660035
01BDFFF0
01AE0043
0016000A
01A5FFE9
01D9FFFB
01BBFFD5
00420001
01E20004
0031FFD4
01860018
019DFFD0
01380035
003BFFE5
01BBFFD5
0033FFFC
004DFFE4
00460007
003C0056
01CC000A
00320041
01E9FFDC
01B5FFDC
01760054
00400009
009DFFEF
01EE0036
01E60057
0009FFF1
015C0034
019FFFCE
00560041
00380010
01D6002C
0026003D
01EA0000
01740028
004BFFD3
00480020
00560024
0017FFF2
01B4004A
01FE002C
01B20005
004FFFE5
01EA000D
019E0006
01D1FFDC
01CA003D
01D80011
001C005B
00120006
005DFFFE
01B0000A
0033FFD6
0177FFE8
000BFFE4
000FFFF7
004E0029
01BC0002
005E0016
01F7FFF4
0091FFD7
00880032
01A60034
0061FFF0
01B80031
00520018
01D80036
007A0037
018A0039
00180027
000FFFD9
007FFFD3
0060004C
0019FFDB
019E0028
01AFFFD5
0028001C
006DFFF6
004C004A
00920014
01EA0035
002BFFBD
00200004
0096002B
01AC003D
00860048
0057FFCF
0177FFF2
0015FFDD
017DFFEA
00BA003E
0187FFD6
00A00049
01F9FFCF
01FBFFF6
01C9FFF7
019A0037
01CDFFE2
006BFFBE
00560041
016C0045
01A3FFD4
004DFFDB
0029FFC9
01C1FFF3
01D40012
01D3FFE5
00460025
0030001A
005A000A
002DFFCE
00ABFFC5
0187FFCA
01FC001B
0081FFF1
0054004E
01940000
002DFFCB
008A0023
004C0034
006FFFCB
0038000F
002FFFDA
01F3FFE3
006FFF96
01EE0014
01A7FFFD
00000006
01F60014
013BFFB7
0064001E
0087FFEA
00720006
01EC002A
0188002F
01FE0034
01720004
0185FFB9
009BFFBC
0029FFB2
0187FFBD
01FBFFC5
0155FFCD
001DFFD5
005C0006
0159FFA9
015DFFD0
01B5FFC0
005E0002
01E4002E
00400012
01CC0003
01B5FFED
004E0024
0006003A
01780012
0034003B
01D1FFD7
01F80030
00360014
0066000D
01F00026
003A0027
019E000D
0035FFA1
00780032
008DFFDF
017DFFF2
01AA0055
01AC002B
01BA0020
0177FFA9
0043FFC1
0084000D
01FFFFF0
0019FFD5
0016003E
0177FF9D
0197FFEE
019C0005
01A20029
01D40021
00480002
0037FFF2
003C003F
01AE003E
00020016
01E40027
00B60027
00060038
0035FFF6
01EC002A
0031FFE2
009E0015
0009FFF6
0081FFEC
01BE0015
00360008
0059FFFB
01C8000D
014A0038
005FFFF5
00460041
01A9FFDC
00680017
01F1FFD5
01B5FFC9
0023FFC1
00660014
016A001E
01FC0035
000E0017
0049FFE4
001A000D
007C0031
0043FFDE
00480040
01ADFFD2
01CDFFDB
0058002C
0044000F
004BFFE8
0032000B
01D0001E
01CBFFCE
0067FFDB
01E9FFFD
0035FFFD
01AFFFD2
00020005
002C003D
01FA0040
002C003D
0181FFCE
0164003A
01DE0018
01C7FFD2
01A3FFCC
004C004E
0049FFE7
016FFFCE
008BFFE8
0199FFEF
0191FFDC
0035FFBD
0013FFDC
01D00030
002C003F
00220011
0061FFF7
0026000E
01B40038
0084002F
00260028
0023FFC6
01F7FFD2
00140025
016BFFEE
00280000
000C000B
0197FFDF
01A5FFF3
01A00011
01820050
0197FFBF
0071FFCC
0176000C
01DFFFC1
01C9FFEE
00360014
006C0021
01D60012
01D2004F
01FE000A
0088002F
017DFFF0
00A2002E
01D3FFCC
0065FF9C
003DFFE8
0091FFEC
00220034
0185FFCF
0087FFD0
00520004
0003FFC3
000DFFAF
016FFFEE
0087FFCD
003DFFF5
019C0039
01F40041
01F4001E
0041FFB7
0074000F
01A9FFC5
0001FFFD
00400031
01B1FFE7
0055FFF7
0069FFEF
01ABFFC8
00400035
0185FFEB
00620046
01680007
0189FFEC
01DE0038
01E3FFBA
0037FFFD
001FFFE1
01DA0029
01B3FFED
002C001F
0003FFC5
01B80011
01DBFFCF
00660021
000BFFFE
001FFFBC
00200019
01CFFF91
01AE0027
0049FFC5
01C40016
01D40002
01EFFF9F
00100004
00080013
0043FFB4
00420013
01F80017
0071FFBE
000E0045
01ABFFD1
01D20021
01CFFFED
0189FFB2
01CFFFF7
000DFFC8
01CC0009
0176003E
002C001C
01880027
005A002A
00140027
018BFFE1
0017FFB3
002BFFB7
0065FFB5
01960025
0069FFFB
007A0025
0078002C
017DFFE3
00620020
01B60014
01B3FFC2
01C7FFCD
008DFFCD
01FC0016
01B3FFE3
01EA0038
0029FFE7
015A0000
01940007
01B5FFE2
01E4000F
018BFFBB
01F0001F
0039FFBE
001E0002
0051FFDB
01A9FFE6
01F9FFEE
019A004D
003E0037
01A3FFB6
0183FFF2
001C0048
0015FFDD
00260010
00740016
01EE0017
007BFFCC
0085FFB5
005DFFB7
01F80033
01C9FFD0
006A0011
01DA0030
0188001C
01B5FFF3
0019FFF4
0008002D
01C60046
01EBFFDA
01AFFFD7
01A5FFB1
01FDFFBB
01E1FFE8
01ADFFE7
00640021
01E40040
001FFFF2
00980003
00780016
01CBFFD4
0033FFFB
0052000E
0188003A
0078002C
0034001D
01820004
000FFFC1
018C0033
016C0011
0009FFDE
0009FFB5
0056001C
01B5FFBC
0014000D
0184000B
0087FFF3
0057FFD6
00160013
0011FFBC
0175FFB3
009BFFFE
01ABFFBD
0153FFBB
017E000E
01F60013
019DFFE9
01FFFFE6
00440035
0048003F
01A00003
01E7FFEF
00780027
0066002E
0162002A
002C0038
0164002B
004E0000
01EBFFBF
006FFFD2
00620040
005DFFFA
018FFFBE
0096001F
017DFFCC
01C80012
00060038
017C002E
01A5FFFF
00200042
01EDFFF6
0199FFD6
0162001C
01AFFFFE
0037FFBF
01EA000E
00120034
01C3FFCD
004DFFCB
01C7FFDF
01D7FFF5
01C7FFED
01EC0007
0066002F
01FFFFD5
0000002E
00120030
01DFFFDF
00160039
01920048
01D8002D
01C1FFD1
01D4001F
015BFFEB
018C0038
01C40037
0067FFB7
0175FFF0
017BFFE3
0052002A
01F5FFEC
005BFFF7
015DFFF7
01A20014
00260004
01B8004C
01B3FFEA
01B2000E
01780044
0007FFD2
0000002E
006BFFCB
01900020
01C00027
01DDFFFC
01F9FFDB
0174001C
0193FFF8
01F8000F
0065FFD6
01F4001A
007A001A
004BFFD1
015DFFF8
0068002C
0195FFC9
01A0004A
0041FFD3
0051FFDA
01ADFFCF
017BFFE8
0063FFE2
01EDFFE3
00520041
0021FFE0
01C60008
0196000A
002E0040
0013FFDE
0067FFFE
019C0040
002E0010
00160045
0194001D
0029FFBC
002A0023
00600036
001C003F
01E9FFD0
00680044
01FA0033
0023FFDC
004BFFEC
002BFFD2
01FA001A
0165FFE8
001C0034
01760049
01A3FFF9
015E0003
016BFFF8
01BFFFBA
01B6002C
01CC002F
01D9FFC1
006C0051
0074000F
006E0012
01E60038
003A0023
008E0000
00020035
017FFFFF
0195FFBE
000FFFE8
0194002F
01D7FFFE
01EC0037
00340038
00640014
01C60037
015BFFEC
01EA001C
01D20015
00560045
001C004F
01EC002E
007C0017
0063FFC6
01EBFFCB
01760001
01E5FFE6
003E000E
01FA003C
01A1FFBB
0014001E
017DFFDF
00100022
01D40014
01DDFFFA
0057FFC8
0045FFF5
01CE0031
009DFFE5
01B00019
016FFFEB
01BA0019
018C002E
017C0025
00540027
0013FFB1
0057FFD2
0019FFBD
0077FFEA
019C0038
01880029
01720034
0061FFD9
01A0003E
0097FFCF
01A3FFBA
0197FFD2
00640042
01B5FFEC
0087FFBC
01BA002A
019C0013
006DFFDC
01E0000A
0171FFFB
00160005
006A004C
01E40006
006A0003
003BFFEC
008DFFCF
01F2001D
01C00053
01AA0059
019E0043
008A0047
00700051
01F80036
01A80021
01D1FFFB
01FC001F
01AA0000
01CE0005
0083FFB9
0011FFB3
0070001D
01860026
00320039
00680004
00460033
01720015
000FFFE0
001C0009
01AFFFBC
003C001E
00680041
018FFFE8
01A5FFC6
01FC0040
00260037
0013FFEB
001A0029
005DFFEC
01E20017
0082000B
00180031
0181FFF2
00160003
01C1FFF5
018DFFD1
017C0033
006BFFEE
01520059
01D00003
006FFFEB
01EDFFD7
01C00048
001DFFFF
0197FFC3
01DE000C
01BFFFFB
006C0023
00380005
0155FFAD
01960022
0010002A
01DA0016
00460011
018C0057
01FFFFC9
01DDFFF1
004DFFF0
01640035
0073FFF0
005BFFC5
01F80045
0047FFC3
01DFFFF6
01E2000D
01BBFFF4
0181FFF7
00260053
01AFFFD0
0171FFC5
01C1FFFE
0170000E
01D1FFE8
0027FFF1
0044003E
0069FFCB
000A003A
0011FFF8
01B7FFDA
01B60037
01840007
01FA0021
01780048
01720050
01A20026
0191FFC2
00160056
01C0002E
002E0057
01A00062
01C1FFED
01E6002E
01CE0056
00840012
01D5FFC6
00160044
0181FFDC
01A20020
00160044
017E0038
00460018
0195FFFC
0069FFE5
01D3FFC8
01E3FFCB
00180001
01F00033
01C40023
001DFFD0
0035FFE8
01AA003B
0001FFDE
0059FFD4
017FFFB9
01B2003E
0028001A
018FFFCF
0189FFE3
01CDFFD6
00340027
01A7FFFF
01BBFFF5
01C00025
016FFFEC
004FFFF0
019E0035
018DFFF6
008E0017
00340010
01D5FFDF
01FC0001
00700042
019A0032
0085FFBA
013FFFD6
0041FFFE
001BFFF6
01B6002C
005A0024
01B7FFFB
0000001F
0029FFF6
018DFFFD
01F1FFE4
01F0000E
00240001
0049FFF8
006C0036
0177FFC3
01E6001B
01E9FFE3
0030002B
01DFFFB9
01D60031
01C40041
01CC0004
0005FFBC
01C1FFD1
01C20027
01FBFFC5
0057FFD1
01C9FFD3
003A0027
01B7FFDE
0001FFB7
016DFFBD
01CDFFC9
01FE002D
00440002
0015FFCC
0021FFFC
01AA003F
00880029
017FFFD6
019E0009
009DFFE9
0032000F
01E7FFC5
015A0016
01B7FFB1
0022002C
00140022
00760018
0183FFD3
00020009
00220038
006BFFD7
01B1FFD4
01B5FFED
01B9FFDF
01DDFFC6
0018004B
0041FFB8
004A001E
0057FFBA
007DFFFA
00080018
019E0013
01EA002B
0050002E
0178000E
01E3FFC4
017FFFEC
01EA0011
016FFFEB
01F2001A
0183FFE1
0197FFB7
019DFFE0
0042002B
01F40025
01FE0020
0174003D
0071FFE3
0065FFCC
000A0035
00540028
004A0013
0181FFC1
006C0001
001DFFFA
002BFFED
00100023
01AA0020
00740002
0169FFD2
00660017
01CE001B
017BFFF1
016DFFF7
0047FFCE
0085FFC2
01D0001F
01D60010
00620044
00640018
01820047
01900031
00280040
01C0004C
017C002F
01420009
0082001A
0021FFEF
0183FFBB
002DFFD9
0037FFEE
00660041
01EA0008
01B0000F
01EFFFDF
017BFFE8
0038001E
015E000D
003FFFD9
00880059
01AE000D
019C0011
01ADFFEA
002BFFFB
0189FFDA
01540046
01A00026
0071FFBD
004A005A
01880023
018C0017
01F80027
0066003D
01B00035
002DFFD6
0051FFD0
01FDFFD5
002FFFFC
007C0018
00200076
01BBFFB0
0196002B
0071FFDE
007FFFF0
01A00044
01860036
004DFFF6
0193FFCD
017A0008
004A0011
005A002D
01EDFFE4
001C001B
001FFFA9
0062002D
0162000F
018FFFE9
005C004A
01CDFFCA
01C00033
0167FFF2
01FA0060
0185FFF9
0194003A
0035FFF4
00620002
01EBFFC2
0057FFE4
00860025
0072001D
003FFFE7
0018003A
01B1FFCE
0039FFE6
004BFFDC
01C20021
003A0015
0152001F
01C80037
004C003F
01E80013
01A80040
019C0001
00520001
01E40039
01E9FFED
01C8003B
01A00058
01B3FFEB
0070004D
0045FFD5
006A0010
003BFFF2
01CFFFF9
00400016
014DFFE4
016BFFF3
01AA0027
005C0027
00120011
01A3FFFC
0054001C
017A0006
001BFFE0
008DFFBC
0071FFEB
002DFFA1
0050001D
019DFFFD
000FFFE6
00460010
002E004B
01E4000C
0187FFEF
001A0023
00BDFFC4
004FFFFC
00B3FFC5
01AC0045
01C3FFC9
018E0028
0014003D
01ADFFC2
00680000
002FFFF3
00360001
01ABFFF0
00780018
00780034
01CE0007
009C0028
00820000
01ABFFBB
01FFFFEE
00120044
0065FFF5
01BC0027
00560016
01AFFFFA
0023FFC6
01E60022
0007FFF3
01AE000C
00900003
01800005
00320032
01B8001F
005A0028
01D4000A
01DE0058
002E0020
01BBFFD8
01C3FFC8
016E0001
0055FFF1
0193FFBB
01C1FFD6
0179FFC4
0193FFCA
0068002F
00400000
01A00032
01A60006
004C002E
01F1FFBB
01C7FFF2
0191FFBB
000A0022
01FE001C
01FC0014
01F20033
00380016
0047FFBD
01EBFFF6
0002001D
01A8000D
01F7FFC4
01DC0001
01C9FFCE
01760011
01B7FFC3
019BFFD6
019FFFD9
01B9FFC3
0026002C
014C0009
01FBFFF3
018E001D
0063FFF3
00660058
01B7FFEB
0074002D
0003FFC8
017C0011
0163FFB0
002C0002
019E0031
005FFFBB
0074001A
003BFFF7
01A9FFCF
014FFFE2
01740043
0006001B
0038004A
003FFFF8
007C0048
0191FFF1
002BFFC6
018BFFE6
011FFFD6
00080044
00780001
0013FFB4
003E0052
01FA000F
007C0009
00060024
0023FFFD
000C0030
0058003F
01DC0025
0054004F
01E20023
00120028
0186001F
01DFFFAF
01BA0035
00640018
000C000D
005C0052
0044005F
0012001D
01FE0061
0029FFCA
0079FFE9
002DFFEA
00860004
00320067
0033FFED
002BFFC5
0161FFEC
0071FFE7
01E7FFE0
01E9FFDB
01D5FFD2
0173FFEE
006E0029
0076002E
006E001F
0199FFD8
01A5FFED
01EFFFDC
01B5FFF6
01A2005E
00220017
019E0016
01C20050
0071FFEA
01B20017
00A2002F
0055FFA1
0165FFC7
013BFFF8
019DFFE5
01920003
01F40010
007BFFB3
0045FFEB
01EDFFD7
00240014
00460034
01BDFFD1
018FFFF0
0087FFD5
00160011
01D40026
00060030
01CE0009
01E7FFD9
003A0006
00020007
00280007
01AA0022
00080000
01B2001C
019DFFE0
019A0000
01920023
01EE0035
01CE000B
01EC0029
000E0013
01ABFFF4
01C80024
01A1FFC3
00020036
01E2003C
01880038
0064000B
0063FFBD
005DFFF7
003C000C
01FBFFDA
01B8002D
0006002B
0060002E
0013FFE6
005DFFC9
000A0001
01600017
017DFFB4
0051FFD6
0063FFB3
01D2000D
018C0031
001BFFB1
019FFFD7
015C0023
0049FFDD
006E0020
004FFFE3
009DFFCE
00160003
01A7FF9F
001BFFEA
0033FFE3
01D9FFA7
0023FFC0
005C0006
0083FFFD
0040001C
01FA000F
004DFFBA
00700005
00340006
0083FFA9
009C0011
003C004E
007C000B
00060018
0001FFE1
0167FFC2
002A0035
0007FFA6
016E0030
0029FFF3
0007FFCB
004FFFD4
0053FFEB
0011FFCF
0000001D
0049FFFF
01E5FFD2
01E7FFEC
01E40004
01E5FFD6
01900012
019C0003
00940012
00200021
005BFFB6
0191FFF1
017FFFF9
0045FFE7
004DFFE1
00820044
004BFFC2
01D9FFD1
0044002F
01E5FFCD
01ABFFCE
0068002C
017FFFC8
006DFFE2
001E0011
01F80009
01960001
0029FFB1
000FFFF0
01540009
002C0010
01A4003A
01B5FFDB
0067FFB3
0034001B
00100003
018A000A
00A40019
01B4002F
00660044
01F9FFE6
006A002E
01A7FFEE
0013FFF5
01C7FFE5
01C60045
01A9FFFE
000E001A
01DFFFF2
0015FFD4
004BFFD0
0011FFFC
01FC0001
00380001
0183FFAB
008A0024
01D7FFE7
01BFFFD8
0179FFE7
01ADFFEB
01EDFFD9
01E60043
00320041
00060017
00200025
01EDFFD1
00140034
01E3FFDD
01C6002D
0075FFC6
008A0025
005DFFCB
01CA004B
0022000F
01CFFFD8
005FFFEF
01CE0039
00B3FFCD
003E005B
007C0068
007A0028
01BC0034
01B1FFF5
01C1FFD9
0190002D
01C40009
01FDFFA8
01EE002D
01D7FFEC
005DFFDD
01A60054
005C0031
000DFFFA
0091FFC2
0037FFEC
01980018
0025FFD0
00360022
01D8000A
01CA0007
001DFFDE
00140003
0077FFF1
015FFFD8
01F9FFC6
01AC000E
017DFFE9
01A3FFC8
018A0025
00B1FFE1
001A0027
000A0026
004BFFFD
01A9FFCE
01F20001
01F8000A
0139FFCB
01E3FFF1
017FFFC2
01CA004D
0193FFC7
000C0013
002C0039
01E00049
0070000D
001DFFBB
0011FFE3
017E0009
01EA001A
01C4001B
01DBFFDA
01BE0022
01F00036
0073FFD5
0077FFFC
01C4000F
0041FFFD
01F80021
018C003A
0189FFB8
016FFFF7
002A001D
009A0001
000FFFEE
01F4002C
004C0022
01DA0043
01FE0007
01F00022
005A0001
01FE0006
01E80037
00C8002F
019A0003
01A9FFDE
0065FFF1
01D20030
005DFFAF
01E3FFC5
01B5FFC3
0162002B
01EBFFE8
0066003A
0017FFC7
0161FFC0
01A5FFB9
007C003D
01B20038
0050002A
0048000F
01C6003B
006FFFDD
006BFFC4
01D80004
01AA0014
0011FFBB
00140035
01BDFFFF
003BFFFB
01FFFFF6
0071FFE2
01DBFFFE
009E0010
01AC001F
0147FFDE
0159FFA8
01DE002B
01F9FFF9
01B60029
016A0016
0011FFFD
0031FFED
01DBFFB4
01C40002
00360041
0041FFF0
017C0044
0043FFB7
0057FFC3
0197FFF3
01D20040
01CFFFE5
0183FFFF
0188003A
01EC003A
0065FFE1
01E3FFD6
01CA0031
01F8003D
01A5FFD0
00040011
01FDFFAE
005A0015
01B8001F
0009FFB5
002C0014
019BFFEA
001DFFD0
019E000A
01BA002A
00240006
004BFFE2
01BFFFD1
001E0002
01C1FFCF
00A8002D
0035FFF6
00840009
0069FFFA
01F8002A
01F7FFF1
0195FFE0
007A0028
004FFFF1
00140016
01DDFFD7
007E0015
01B00021
0063FFC7
003FFFC3
0097FFF1
01D8000A
0058000A
01CC0027
01C7FFE5
01B20016
01E20039
0053FFF9
01C60011
01C6002C
01560014
00220027
01A20028
00020005
0011FFCD
01F60010
00B80008
0045FFED
0012004A
0013FFE3
01B6001A
01B6002E
001BFFF3
0014002D
01D7FFD2
01EC001D
01B7FFD7
01D20049
01E40039
0075FFD3
01ADFFEA
01C00048
01CBFFB8
01E00008
003A001A
016DFFCB
01860032
0063FFBD
01C7FFB5
01BBFFD9
01F4002B
01EC0009
01DFFFE9
01CC0029
01E40036
00CDFFD9
01B00003
01FDFFDA
01D7FFFA
01AFFFD6
00160055
0067FFBE
0169FFD6
0014002A
008A0005
01D0002F
0041FFD0
0023FFF1
0197FFFE
00640003
00300046
00A00010
0099FFB3
012A0030
01C60001
01F60020
0010003E
00460013
01E00016
01C8002C
0181FFCC
0183FFCF
00180040
00A3FFCC
017BFFCE
0054002D
01EE0017
000C0049
01AC001B
014FFFCF
01C9FFEA
0015FFC6
0060002C
00200007
01E1FFC0
01F9FFF2
005DFFED
01720022
01C40018
01FBFFD8
0178001F
019C0042
01B6000B
00B5FFF0
01E2001E
01FBFFE6
0184002D
018C000F
0185FFCD
01EBFFFB
00360012
018A0017
01BA0042
0051FFCD
00360017
009BFFE5
01A80043
0184001F
0012001B
01EC002A
01E1FFE7
01C40001
005BFFD4
01F0002F
002BFFD1
00B1FFD2
000E0006
01E4003E
01DBFFD8
01FE0005
0035FFF0
003A0032
01980046
00360014
0047FFE3
005E002D
01B1FFC4
01A80047
004C000E
003E0002
013FFFBB
00A6003A
01A20025
00560047
0033FFC0
00340023
01900020
0050000B
01F3FFE9
0191FFA9
003A0013
01AC002D
000BFFD2
01EE0045
01B9FFFC
01BC0043
01960011
0068000E
01C5FFD8
01FC004D
007DFFF3
0085FFF2
002E0014
01A2002C
002A0025
0058002A
003A002D
008FFFD1
01A20045
01A9FFBA
01B7FFD5
01C40001
00B7FFB6
00300006
00340018
0169FFCF
007FFFEE
003DFFFF
0051FFF4
00340035
01DA0011
01AFFFF6
004BFFD6
004E001D
01A1FFD5
01C3FFCB
00100046
00A1FFD1
01DC0009
00180019
01A3FFA0
007A000A
01840046
0023FFE9
01CE0013
01B8002E
00780011
0015FFEB
00640051
00460017
00040032
00280018
01FFFFF0
01DBFFEA
01EFFFC3
0071FFF9
01F7FFD0
01FBFFE5
0023FFF5
007BFFFD
01BDFFD3
00000028
0171FFC6
00500023
005FFFD4
0033FFE3
0069FFDD
0026000F
00A60035
01BDFFF6
005C002B
002BFFBF
0185FFCD
0032000F
0001FFF0
00920008
01920017
01A40012
00460026
003BFFC0
0189FFD4
0092004E
00300022
0001FFC2
0099FFF7
003A003F
00480057
01B9FFF1
01A5FFDF
01FBFFFD
01B3FFBC
0028001C
004FFFF9
0006001D
01B1FFC3
01FFFFEE
01B8000C
000C0001
0031FFE8
01CFFFE0
01C4002F
01BA0000
0011FFBD
0073FFD6
0087FFB7
01CDFFF1
01ADFFC5
0049FFD3
0001FFC2
01F00042
017E0025
01C9FFEC
01EE000D
0191FFB3
0083FFBF
01780001
0013FFE1
0019FFFD
01CDFFA2
0072000F
0082001F
006BFFE8
0161FFDC
0027FFD0
006DFFB3
01D8000D
002E003D
01E3FFD1
0183FFFA
003FFFE7
0071FFF5
018E0009
001FFFE2
01EA0031
01D7FFED
006A0023
01960034
01ADFFDF
0019FFD0
0057FFD4
0060002C
007BFFFE
01CA0008
0193FFCE
01D40051
00240022
00040033
0171FFF1
0071FFDD
0033FFE1
01CFFFD1
00080035
018C000A
01D8003D
00140022
0044001B
0065FFE1
00A3FFCE
01FDFFD1
00720000
0067FFC8
0051FFDE
0187FFC0
01FC0005
00680009
01A9FFE0
01DDFFF3
01960014
01C00006
0017FFFB
01CFFFE3
001C0021
01C60053
00300014
0082003C
007BFFE9
016E0051
001E0034
0076005D
017C0016
01D1FFD3
019FFFFB
0075FFE2
002E0011
016DFFFB
01EE0043
01EBFFEF
01CFFFF3
005E0067
0019FFF9
01C8002D
01F1FFEB
0075FFD2
01F9FFDA
0045FFB0
00600040
0063FFD6
017E004F
0015FFD4
019E0006
003A0038
002BFFFB
0042001D
0021FFF5
01C1FFE6
0197FFE6
01E00005
01960011
01F1FFDD
01DA000A
01C3FFE2
01FA0010
0198002B
00300047
00160009
0082004A
01CFFFB9
01F20016
00740018
019FFFE8
01EE0022
01B8003A
01ABFFDF
00480021
0075FFD2
0026002B
00440044
01D80000
01CBFFDF
0027FFDD
00B3FFF4
0084003A
01C80018
0189FFD0
017A000E
0052002A
00AC001F
0174000D
016FFFF7
01F20015
01560044
00280022
019E0026
0183FFAE
0043FFC3
01C5FFF2
01DBFFED
01BE0028
00020016
01A7FFD5
01F60016
00520036
00CDFFA4
01EA0038
016E002C
01D7FFD3
004FFFD6
0045FFD1
000DFFE5
01F7FFD3
01ADFFC8
0161FFCA
0189FFF5
01BE0033
0003FFFE
00960052
001BFFC8
000E0047
01DE0047
00400042
01B4002B
01B4000C
01E7FFFD
0047FFD9
01BC0038
004FFFE8
0069FFD5
01E1FFB7
01760028
01EA0027
00180025
003A0026
003DFFCF
01DC000E
01F5FFEC
0041FFC7
01DBFFDF
00560023
01F60026
0062003E
00860011
0072000C
01A7FFBF
0009FFEB
007DFFD6
0051FFF1
01C5FFF5
01880043
016DFFDB
00520015
007DFFC4
0185FFC2
01BC001B
01A40012
01BA0014
01E20019
0185FFDE
01C5FFD4
01F3FFEF
000DFFC0
00300012
0053FFF0
0061FFEC
019BFFD7
003FFFF2
00240032
01C00027
0027FFF3
00100024
0191FFDF
0181FFE9
008BFFDB
0003FFEF
01E4002E
01BBFFE0
00660030
01A0001B
000FFFC6
00780028
01B7FFED
01800020
0077FFFD
00A20012
001A001C
01D1FFE3
01B20033
01CC000B
01E4001F
006FFFE6
01B5FFF1
019A001B
0072000A
00600040
01EC0053
01D60015
00400048
01D00013
01A5FFCA
01B7FFD3
0044000C
018DFFEF
017FFFE3
0163FFDA
00780000
00100017
00240030
003BFFCB
01EBFFF9
018E002D
018C0007
0175FFF1
015BFFFA
01B1FFC0
000E001A
008A0039
01FC0003
01B20045
01D3FFEE
0021FFF3
01D60008
018C0008
01EBFFF8
01D00000
007FFFC7
0033FFCB
016BFFD2
0038000F
019C0020
00520014
01A7FFE7
0045FFD4
01E3FFED
00580044
01EDFFF7
01BA000C
002C0014
009C002C
01F60042
0015FFC5
0199FFF7
00180047
01CFFFF1
01D60040
002DFFFA
0094003C
01A3FFB1
00120045
0043FFCE
0188005E
0042004D
01EA001E
01C5FFBE
002BFFCC
00200021
016FFFBD
01DC002B
01C9FFBF
01F40018
01BA001C
01FE0039
00840032
0031FFEC
00A7FFC7
008E0027
01FA0035
01D3FFBA
0075FFC4
0011FFE2
0047FFE1
01FA003A
01F0000A
01CFFFF5
002A0024
01EDFFCA
01C00042
000FFFEF
006C0036
0051FFF4
0199FFD8
01F1FFE2
01D9FFE1
0063FFE8
01D5FFBB
0017FFC7
015FFFEC
0178001A
01EFFFE2
01EBFFB1
00300017
01F4002F
002E0027
01E20026
01FA001A
01FE002F
0057FFF9
003DFFDA
015DFFCE
008A0006
0187FFC4
00C80006
0021FFC5
0013FFE0
0187FFDE
00560022
0095FFD2
019BFFCD
0059FFE2
003C001A
01600001
01720027
00360011
0093FFC2
01E2002B
01F80043
0046003F
0087FFB5
0197FFCF
00860035
01B9FFBE
01D40023
019FFFBB
00180025
008A002E
0040000E
017E002D
0012003E
01C7FFF4
01A6003F
01EC000B
01AC0009
007C0022
0035FFDD
008DFFCB
0083FFE4
00700013
01F5FFE5
01B1FFCD
000FFFD5
008C0008
005C0012
0019FFF5
005A0038
0041FFF2
006BFFB6
0019FFB8
0087FFE3
006FFFD6
0042002B
0173FFFC
0084001C
000A003C
01CC003A
0035FFB5
008C001F
0077FFCE
01F8000F
00840022
01E20044
0199FFCB
0179FFC6
016C0043
005BFFF1
018BFFE1
01E40037
00160023
01B1FFBC
0057FFE3
0091FFF8
01B20022
0071FFBF
0035FFE5
01EFFFF8
00060018
0031FFC1
01A3FFFD
01B3FFE0
007C001A
001E000E
0059FFFB
017BFFBB
0175FFED
00500035
002BFFE1
01EE000A
005FFFBD
0045FFE1
01820036
01EBFFF6
01A1FFCA
0053FFB4
018E0028
006FFFBB
009DFFCA
01A5FFF6
01960023
01FC000D
0005FFB0
002C002D
007DFFC7
0186001C
0035FFDA
002DFFEA
018FFFCE
0058000F
000E0057
0049FFCF
0027FFE9
000DFFBF
01FA000B
01AE000B
01EA002F
01940015
0003FFAA
005DFFC8
0170001A
001DFFA6
01F5FFA4
0065FFFA
0002002D
01B00007
01C1FFFD
0079FFC3
0086002B
01940018
00600040
0008000B
0057FFC7
009BFFFF
000C000E
006A0018
00220030
017DFFBE
0005FFF5
0052002D
00960021
0035FFCB
018DFFE4
0183FFE1
01D2001C
01EC001E
01E7FFDE
0017FFDC
004A0025
0053FFE9
01E7FFBE
00620008
01B60001
0070000A
01ADFFE1
00800010
019FFFDC
0057FFED
0087FFB8
01C00028
0042001A
01E1FFF2
00600051
01E1FFDE
018C0020
009C0003
00400026
0043FFF7
00300012
0057FFBE
0027FFC9
0001FFDE
0182003B
01EA003F
0025FFD3
01D3FFD3
007FFFD7
0021FFC0
00160048
01EA0023
01EDFFD3
0029FFAF
005A0031
006A002B
01AFFFE5
016E0011
01BA0007
006DFFD2
005E002A
00300042
001C0033
01AFFFD6
01C2000E
007BFFDC
01F7FFE9
01460008
01E80003
001FFFF0
0071FFF8
004FFFB7
00720001
00240026
01C5FFDA
01EA002B
00080057
01F00029
01CDFFFD
0033FFCA
0077FFDA
019C0027
0057FFE9
01EC0023
00040020
01EBFFC5
01A1FFD9
00500044
01ADFFE6
01CDFFC9
01AA004F
01F0002F
019A0019
0063FFFB
0099FFBD
019BFFD3
0016002E
01BDFFC9
0045FFF6
01EFFFE1
018E0025
01E7FFE6
0199FFF6
00580018
01D00027
006BFFE0
01E00044
01AC002D
008C0044
017FFFD5
007BFFE2
01A3FFE3
01A20028
01A1FFDD
01900023
0069FFF2
0053FFEB
0044003B
0180001E
01F1FFBD
01E60034
0193FFEF
01AFFFC4
003C0033
00480005
0051FFD1
0079FFE9
0005FFF2
00900022
01D9FFC6
0177FFD0
01F2001D
0003FFE1
0199FFE0
001C001C
00500037
00660014
01DE000F
01D5FFBB
0059FFCE
019BFFDC
01B80017
01DBFFF8
01D5FFF0
01D1FFEE
01B20035
01960046
01C9FFFE
0005FFEE
0198003E
01400010
0185FFEE
0013FFBB
00620047
0025FFE7
01C40006
0033FFC6
0043FFF6
018C0005
017E000A
001C0033
01B9FFFC
01880009
01E7FFFA
01B7FFE2
00080005
014FFFF3
00560032
01A3FFD3
01EDFFF9
0055FFAF
0003FFD3
0189FFE4
01C00003
01A60027
007DFFFD
016DFFD0
0076001A
007BFFF2
0041FFA9
0070001B
003FFFD2
0162003C
019DFFDB
00460004
003DFFE4
0055FFDD
0018003D
008C0006
0179FFEA
0081FFDA
00080019
006DFFEE
01780013
0021FFFD
01B20010
00820013
0015FFED
01F1FFD9
008C003F
00100028
0001FFAA
01E0003F
0033FFFF
01BDFFC2
01EC000C
0031FFB2
008BFF9F
01BA0008
01BBFFC6
01FDFFB2
01E3FFAA
018C0011
01F1FFD5
005BFFF7
01E9FFBB
006DFFEE
000FFFDD
00180031
01B9FFAA
0038002E
01DA0004
0039FFF5
0059FFE2
005C0042
009C003D
009FFFE5
003FFFCE
01F1FFE2
00400039
007BFFD1
00A60031
01DDFFB9
01E00007
0037FFC9
004BFFBC
0081FFD6
01A9FFDE
01D4003B
0087FFF0
01BBFFEA
01B4000A
00320002
017BFFCE
01A7FFDA
00A60031
0049FFB4
00260001
00A1FFEB
006BFFCF
0093FFD5
01F00031
000C003E
00A00013
00580017
01A9FFC1
0011FFE5
0047FFFE
00880048
015BFFE0
005DFFE5
01CFFFB5
007A0033
00820054
002A0012
002C0028
0064002A
01FBFFD6
007E0002
009A000A
00000038
01A4003B
003DFFCC
0077FFC3
01C9FFF4
0160004E
0043FFC4
01FDFFE3
01BBFFBE
01960003
006BFFC8
0059FFD8
0084003A
01A1FFF3
01940057
0085FFEC
01FC002B
01C1FFDE
0037FFF7
0042002D
01F1FFD3
005BFFE7
01AE003C
01960020
01EDFFCD
0065FFDD
002BFFE0
01800027
00800021
01A20003
01A3FFC8
000A0007
006DFFD6
01520044
01DA000B
0011FFF8
01D80000
0033FFDE
0079FFCB
01EE001E
00480014
01D3FFBD
003DFFDA
01DA0036
00400012
00480025
004FFFDE
001DFFE3
0008002C
003BFFFF
0018000D
00000008
003E0037
019E004E
00660035
0176003E
0137FFC9
0027FFD8
00260022
004FFFD9
01DE0003
0029FFC9
01A20024
0198003B
019FFFE3
019A0028
001FFFE7
016C0027
0043FFB9
01FFFFFB
01D5FFCE
0165FFDB
01580039
01E0001C
01A2003E
004BFFEA
005FFFF7
0029FFF7
01A5FFD5
000BFFDA
0084001D
002E0012
01880009
004DFFF6
00620006
0061FFFC
00860025
01FDFFBA
0032000D
01DFFFED
01FFFFBA
00120025
01AC0022
01B3FFCD
01A1FFAF
00680028
01800015
018DFFDD
01DE0004
01F7FFEA
0177FFCC
0067FFCF
00400024
01B00045
014E0034
0185FFAB
0063FFCA
01C7FFDC
003C003F
01680027
016E003A
004DFFDB
0059FFD2
018DFFF3
01A1FFC2
0045FFCC
005E0034
0005FFAA
01960034
00360002
016BFFBA
0023FFE3
01E60016
0073FFE6
0039FFBA
0049FFB0
01F9FFD5
0178002A
00A7FFC8
00160025
01E4002B
01720018
0199FFAC
008BFFBE
01F00025
01FFFFCF
00580007
01F1FFB6
002FFFEA
00A5FFDD
0034002F
01CFFFB0
0099FFE2
0092000D
01D7FFC7
01D60035
01F7FFDB
006FFFEC
005E0014
019C0047
01D5FFDC
002A0049
01B3FFE9
01760010
01DA001B
00B6004B
01C1FFBD
006A000C
003BFFFE
00A00032
0099FFD7
01FBFFF5
01A9FFC2
00260024
0165FFC8
008BFFC2
01CDFFBF
006E001B
0094001D
0190001F
01A8000F
01BA0045
0039FFC6
008DFFD7
01B00031
01D2003E
003DFFC7
00AC0009
01A40017
0067FFFB
0052003F
01C2004E
00000041
0011FFED
01BFFFD5
0038005A
003DFFC9
01E7FFD9
0069FFD6
01740011
0181FFE8
018C0004
009A0009
01D00002
01960018
01AE0008
0185FFC2
003A000C
002E002C
0027FFDF
0014001D
00840022
01C7FFE7
0185FFE3
001E0027
01E7FFDE
00060031
00080012
018DFFB3
00700015
0028001D
00320023
007A0006
0183FFFE
0018001A
0006000A
01CFFFE3
01EA000C
00160020
01EE0037
0171FFE5
0090001D
004C0052
01A4000C
0041FFF2
01D00043
0055FFEE
001DFFB6
0192001E
0001FFD4
0081FFE3
01A3FFE8
01940020
01F1FFF6
002A0027
0173FFD6
01AFFFCC
0071FFCB
005FFFFD
000DFFDA
01E3FFF6
0158003C
01D1FFF0
007C0036
01B20028
01A7FFED
0086000F
000BFFF4
0169FFD6
01EA0049
0033FFE9
018A0015
017C0041
01C3FFD2
00740026
01ADFFF1
0079FFDB
0186003E
01BA001C
00340019
018DFFE4
01A9FFE5
01EBFFE1
0071FFD9
0164001D
002DFFD9
005BFFFB
00620000
01C60001
0018004C
01980053
0085FFF2
01AE002A
00300039
015FFFD6
01D1FFF3
01E5FFEA
01E20008
003FFFDE
0027FFCB
0007FFDB
01EC000A
0055FFE3
0065FFFF
001E0025
01C00037
001A0022
0025FFD8
01FE0009
019DFFFE
0186003A
019C0019
0005FFEA
004E001B
01C4003D
005DFFF0
015BFFDB
019DFFDE
0069FFF2
01EE001C
01B3FFC8
0003FFD4
01AC0048
006BFFBC
01F2004A
005E0042
01A8002E
00060042
00520013
01C7FFDC
01EC0024
01C00001
007A001C
01F1FFC5
0197FFD9
01C0001E
000DFFC1
003BFFD6
00020012
001FFFDC
001C0048
00720019
01BE0013
01FFFFF1
0075FFE4
015C0048
0044000B
0183FFCC
00260024
01A6002A
0199FFD2
019E000C
00020031
0197FFF3
01CFFFD1
0069FFC8
0056000D
0067FFE9
006A002F
01D40006
0032002F
00720034
00020037
01D80007
00560052
0027FFFD
019FFFCE
006BFFCD
004E0041
0165FFCE
01D20041
00480023
00880030
01900047
006E0037
0063FFB7
01FE0029
018E001F
01DC0041
0023FFEA
0163FFEA
0187FFF6
000FFFE5
0022003A
0152001F
00620011
0051FFD9
002E0008
002C002F
005C0044
0062004A
015BFFCB
000BFFDF
01960048
0017FFDF
003A0037
0067FFF6
0175FFCF
006E0005
0050004B
01D1FFC7
019FFFEA
0029FFF8
01F4001F
01FA0030
00400010
01A7FFC2
0013FFE5
0066000F
014FFFF5
01A7FFE1
005C002D
016BFFEC
01A00052
004FFFDA
015C005A
00540030
0013FFD4
01E7FFC6
01C00016
0011FFED
004FFFE6
00240006
0074002F
016FFFE6
01FFFFD3
002C0023
0033FFDF
0060000E
01960059
01EA0016
01860021
01CA0043
01F20005
005DFFB3
0199FFB3
0011FFC4
0178001C
01DA0016
0015FFEC
00600004
0043FFC9
00460024
01CFFFE7
01F2000F
0029FFE4
01CE0049
002A001C
01B00008
00120043
019BFFB7
01CFFFD2
01AA0051
006C0037
00400051
0033FFD3
002C002D
01460027
003A0024
01CBFFEB
01F5FFBF
01B0001A
01B0003A
01B20045
00420006
01A00004
01B5FFBE
01C00014
002A003E
01A1FFED
01B80023
01D80009
01C80021
01F20027
01900036
01D20041
01A80019
01A3FFE3
0030004D
01FA0035
0187FFBB
0134002D
014DFFD9
0189FFF1
01C7FFC3
01BC0004
01FE0021
01480003
000E0031
0017FFDA
0056000E
00060028
01540028
017BFFD5
01D9FFF7
0014001B
0052003A
01CBFFF6
01E7FFBC
0028001D
0086004B
01E1FFCB
00340044
0031FFD5
003FFFF4
01D80036
0168005D
0063FFD5
006E001A
0027FFCE
00640004
0013FFED
0039FFDF
0080000E
01BA005B
019E004E
01A00014
0071FFC0
01580057
01A4005C
017FFFF0
00120036
002C0016
00880046
01BE0000
01E20041
01AC002F
00660029
008A001A
0193FFEC
0087FFF8
01A9FFC1
0047FFDD
01AFFFF9
01CFFFFF
009BFFD0
0059FFDF
01D1FFD5
00660004
01B2003F
0042003B
01760004
01B7FFEE
01BFFFE1
01B3FFBD
01DFFFF0
0038003A
008E0051
00020019
01FFFFC7
0073FFCA
0179FFEB
0027FFED
01E80022
01E5FFD1
00220001
01BFFFDA
00100012
00400034
01D0003D
00BFFFE8
01D9FFC1
01F7FFCC
017A0010
0012003D
01AFFFF3
019A0018
018BFFEE
01FE004C
000FFFE5
01EDFFDD
007FFFED
0019FFF3
01BC0033
00160019
004A0025
01F1FFCA
01ABFFF9
0039FFDF
0015FFBC
005E0011
01A20001
01E3FFDF
0041FFC3
01C1FFED
0166004D
001FFFED
0081FFD7
005C0028
01540032
00080006
00080022
017C0016
0051FFD1
01AC0030
01BFFFEA
0024001C
01860020
01CC0005
01F5FFD5
01820058
01F6001D
0185FFF7
004FFFF7
0033FFC3
01C20013
00080021
01D5FFD4
01D1FFC7
00400004
0043FFCA
005C001D
01E60041
01FBFFFE
0007FFFD
00360022
005A0011
001A0030
01A3FFEB
0021FFBF
01DFFFF3
01F6005D
01A20019
01580026
0053FFC2
019E0014
0022001B
019BFFFC
0173FFE2
0066001E
0004002A
0065FFE6
01FA003E
01B7FFFE
00440024
003FFFF8
0011FFA3
016A0003
002DFFFA
01BDFFD3
0059FFFC
01C1FFC8
00120048
0169FFF1
0079FFF4
00320009
003FFFDB
01E7FFE0
01D9FFD7
01980042
0057FFFB
00560037
0077FFE0
0067FFD1
0189FFFB
002DFFBC
01A00035
007C0026
01B40042
01CDFFA4
0193FFFE
004BFFE8
01920000
002FFFE3
015FFFC1
00000046
00000007
01B40030
001BFFFF
007BFFFD
01F60010
003A0042
01FDFFF0
0197FFC5
00A00004
002E0027
01DE002D
0009FFE3
0077FFD6
01A7FFFC
01D1FFCE
01D1FFFA
01E5FFCB
01A8001F
01800032
005C001D
01A40047
006C002D
017DFFDE
00660033
01940021
00100043
01940004
01FA001F
015FFFC6
018BFFFB
001FFFF7
01B4004B
01F5FFEC
0048000E
0045FFC9
01E00014
01B3FFD1
000C000A
01D80000
01980046
01E40002
0082003C
01800031
01A40007
0168000B
01620015
01A80022
00060052
0189FFC2
00520006
0094004E
0087FFCF
01C3FFDC
0079FFC9
01A1FFB8
004FFFB9
006C0016
01C7FFF6
002E002F
000BFFF4
01E1FFE4
019A0010
002FFFC8
01EC0028
01D7FFF6
006FFFC3
000A0024
0055FFD1
01E8001D
00180031
0055FFBE
01F9FFF9
01DA001C
01C80039
008E0026
01EC0020
01EFFFE2
01F1FFCC
000DFFCF
01FE0042
00780004
00920020
0031FFEF
01F20044
01CBFFD0
01920014
00B9FFED
01DFFFB8
0053FFE5
017E001B
01D5FFF7
0031FFEE
0036003E
01C5FFD9
002A0037
01EC004B
00460024
0013FFA4
004A0030
01D7FFF0
0020001F
01780001
0009FFCE
01BBFFEE
01ADFFE9
01D80016
006FFFE4
0037FFC4
01B7FFCD
01E1FFBA
0189FFC9
0080001F
01B00045
004FFFFF
01F5FFFF
014E0025
0049FFEB
0035FFD7
0069FFD6
001C0029
007FFFC8
002FFFC9
01FFFFC2
0001FFFC
0017FFEF
01EDFFD6
0161FFEB
000A0042
004FFFE4
00BFFFD3
01ADFFBA
00540008
01D8003E
0038003B
01D5FFCC
0045FFED
01ABFFDE
01C8000F
01AC004B
01FA0027
017BFFC1
005A0021
00700044
014E0043
01EDFFE9
01BBFFDD
01C7FFB8
003E0009
0042002B
001C0046
019BFFE4
0028000B
01DA0032
018FFFED
00000010
017C0036
0003FFF7
009C000D
01D5FFFF
01C5FFCF
01C60003
01A5FFE2
0027FFCE
01FA0020
01F1FFC9
003A0036
01CFFFFB
0009FFC5
0003FFCC
0044002D
001FFFFF
01E2002F
0043FFE4
007DFFFA
01A4001D
01BFFFB4
01B9FFF6
0021FFC5
008BFF9B
0075FFFC
00700004
00520015
0011FFAD
000C0035
0052001B
0161FFC1
01C1FFE2
01A9FFBC
01FC0014
01BE002E
00440010
01EFFFFE
0067FFD4
01AE0039
01CE001D
01860008
01B7FFD0
01E1FFC8
0089FFD1
00280004
01F3FFC0
005A001C
00480012
0067FFD1
00300030
017FFFB4
0017FFCF
01D20007
0071FFEE
01A40001
0048004E
005FFFC7
01F9FFDE
00220016
01F9FFF6
015DFFEF
005C0035
0174003C
003A0026
0021FFDB
01ABFFB8
01DFFFE2
00400007
00120050
01D8000E
001E0038
01ADFFCC
0170004C
00640033
00780047
0189FFAD
002E0002
001BFFDC
0065FFCC
01C8000B
0010000D
00B60006
0042002C
01BC0017
01DBFFE5
0080001B
01FBFFB3
006FFFD8
0065FFD1
01BFFFCD
00ABFFD5
0194001C
018C0040
01ADFFF6
003DFFD8
01E5FFC2
018FFFC7
00300037
01E20015
007E002F
01C40022
01AA0024
0073FFE1
01A3FFC8
01B1FFE9
01D1FFF9
01A20011
01CFFFAB
019FFFC2
01EE0037
01D3FFEC
0066001D
01A40021
0091FFFC
01C40015
01D00033
01780020
003C0016
01F7FFEE
0178002F
0005FFD0
00760038
0185FFE6
009E002D
01CE0019
0049FFCF
000BFFEB
01BC000E
01BE0028
00080004
01EC0009
01F9FFCC
01FDFFED
007DFFEF
001FFFBC
01FDFFF6
0027FFBA
0063FFDD
0051FFF3
01BA0036
00900026
01880002
00420012
01A8003A
0081FFFA
01BA001E
001DFFCD
019A0020
018E003F
01AFFFF1
0081FFE7
01D5FFEC
01FBFFE8
017E0023
00000020
009DFFB8
0038000D
00140011
00400020
01A4003C
0001FFDC
00640042
00660026
01940026
01E00025
002E000D
0069FFAE
01860005
0084001D
0191FFC2
0057FFCB
01E20002
000DFFD2
019BFFDC
018BFFCC
0009FFD2
0067FFEF
019E0006
0001FFB9
0041FFEB
01F3FFD2
01BBFFE4
002DFFBC
016BFFE2
0005FFF6
001BFFB7
01F3FFD4
01EE002D
01DA0020
0025FFDB
00320032
001A000D
01DFFFE2
0025FFAD
0060002F
0049FFD4
0173FFAA
00580031
007FFFE6
01CDFFEE
003DFFF2
01820001
01C1FFFD
01CFFFC7
01FC0045
01B7FFFE
0079FFFC
0099FFF2
01EBFFB1
01C1FF96
00560014
01C00037
015FFFCE
01CFFFCC
00540012
0171FF9E
01E7FFDA
002E0022
0071FFB5
01C60010
01A00051
018C003F
015DFFC5
01AC000D
0047FFE5
0039FF9E
002A0010
00B9FFD3
0035FFFD
0036000B
0043FFBB
01A7FFF6
01B20011
0060000F
01E7FFD6
0191FFDF
0036004B
01F8001C
0176004C
005BFFF1
0176001A
0077FFF5
0073FFB0
01EC0040
01AFFFC0
01CDFFF3
01AFFFD1
01D3FFD9
019A000A
003FFFEC
01A3FFE7
0177FFE6
01CFFFE0
01C6002C
0065FFE9
01700029
001BFFE8
0085FFD8
01B8002C
01E40034
00780017
01C1FFE4
01D8001D
01D80001
01AFFFFF
00920009
01BDFFF2
0043FFC9
01B9FFEE
000FFFEE
0043FFCC
009BFFE9
016BFFF7
0174002A
0001FFD8
00820001
0009FFE4
0076000E
006E001C
0196003A
01E00030
0018000D
006E003B
006E003A
0093FFC0
01B7FFFA
016A0016
004BFFDD
0083FFE4
01BFFFCA
00560028
01D00032
004DFFCB
0043FFDC
00600013
0047FFCB
01D3FFDE
0013FFFE
0099FFF1
01CBFFAC
01BC0002
003A0048
01BBFFFF
0191FFD2
017DFFC1
018E0027
019E0024
01D5FFCC
018C004F
002E003E
006FFFC8
0009FFF2
01DA001A
005A0033
01FE0032
0178001D
0037FFB6
015C0058
01B00016
0041FFD3
0180004D
0163FFDD
01C20013
013E0058
003C0047
01ADFFE1
0049FFF6
013DFFD1
01360036
006BFFF1
01FDFFDA
0005FFD5
005BFFC4
01900029
01EDFFDA
0015FFD9
0008003E
00400007
00520039
009E0047
00220000
0188002C
01FE0020
019E002E
00260038
0031FFF3
01E9FFCF
015DFFEB
001BFFF4
01DE002F
00180038
01DA0015
0043FFD0
01C7FFE0
0069FFD0
01EE005A
002FFFC8
01FA000B
01FA0009
008C0015
008DFFD6
0091FFE4
01EFFFC5
01C20009
01E9FFE8
01D0000B
006E0030
018C0039
0181FFD5
016FFFB2
019FFFF8
0067FFFB
007DFFE0
0039FFE5
018DFFB6
0174001A
005E0053
0052000F
01E7FFD0
00240005
0046003D
019DFFF2
0037FFA9
01A9FFFD
01AFFFF3
0074001F
01A60020
01A80003
017E002E
0003FFFD
01EC003D
0091FFDA
01C60005
01DE000C
01E5FFAE
0061FFDD
00440013
01F5FFE3
01C5FFE4
01B80028
007BFFC5
0057FFB2
0060001E
01BFFFB9
0157FFDF
0046000F
0025FFC8
003C003D
01DFFFC0
002C0005
0039FFAE
004A0013
0067FFE8
0055FFD1
018BFFDA
001A002E
016E0023
0059FFA3
000DFFF4
00A1FFED
0041FFC3
00560030
000FFFD4
01D20008
0023FFDA
01E7FFC2
01DE000F
0007FFD2
0041FFE7
01D40038
0031FFF7
01BFFFD5
0055FFE5
018BFFD6
01EE0000
0083FFEC
00320029
01BBFFC0
00380028
01F40037
01DC0016
0033FFC1
0191FFB1
00500031
004E0042
01DE000F
00580034
0016001E
016BFFE2
01CBFFD4
0077FFC0
0177FFCE
001C0039
0046003F
01B1FFD4
00400056
01ADFFDB
005BFFB4
01AC001F
01960016
01BBFFF7
003BFFF8
01B9FFD8
01AE0026
007C0057
004C0014
007C001E
0177FFD1
0035FFFB
002BFFE8
01D9FFC3
01AC0049
006A0002
003BFFD0
0021FFED
01FFFFC3
006E002C
00760043
018E0010
01F60009
005A0019
002BFFC2
01D7FFDD
01AE0030
00580046
0091FFE8
01F7FFC7
019C0053
0060001D
01DFFFCF
01A7FFBF
004C0025
0191FFD3
0151FFD5
0189FFE1
0069FFC3
0173FFE7
00660051
0017FFE5
01B8003A
003FFFE3
01EA0022
0005FFF4
002BFFFA
00020028
002FFFF3
019A002E
01760022
01B8000C
002E0051
0021FFCB
0070000C
01E4004E
0173FFCC
0013FFF2
00A80046
01B2001A
019DFFF6
01F40011
01BC0029
0172001A
01C5FFD2
01C9FFAD
00000036
00900021
01F1FFF4
00120018
0006003B
0049FFCA
002A0007
01C7FFD7
00040015
0012001C
00680045
01E80033
0075FFED
000BFFEE
005FFFF3
00800030
01FC0007
007FFFD3
00540044
0006002F
01B9FFC0
01E00028
0028001B
01DDFFF9
0099FFDB
01CA000C
016A001B
0159FFCA
018C0034
0049FFF1
01FBFFF7
0037FFB9
016BFFD5
0071FFF2
00AFFFF6
0197FFFE
01A00019
01B80014
0068005A
000FFFFD
0027FFD8
00BC0038
01E0002D
0030000C
01A7FFEF
01B80045
01BBFFEE
00280009
0007FFD1
01F20014
0022004B
0051FFB0
018E0023
018BFFD5
002FFFE2
016BFFFE
0011FFBE
00760019
008C0026
016FFFF7
01C20008
004FFFAF
000FFFE4
003DFFCE
00AA0047
01EFFFD3
005A0030
01B1FFBE
001A002A
0193FFB7
01CFFFE2
0017FFF4
018FFFCB
0001FFEA
00340014
0016000E
003DFFC3
0065FFF0
00380032
0010000A
00080034
00340014
0087FFE5
0028000E
0065FFB4
001E0039
007BFFD6
0001FFCC
01FDFF9D
01DFFFF9
01B8000C
01D00029
0034000F
01E7FFF8
00400027
007E0009
000BFFF9
0071FFF1
01B1FFE5
01EE001D
01A20020
0181FFF2
001E0002
018E001D
018DFFD1
01880030
0024002A
00680035
005DFFE3
01FE001A
01780028
01F3FFE4
01F3FFC5
01C1FFC1
006C0034
0177FFD2
001E0036
01F40011
0185FFEA
01D6000E
01E5FFCA
004A001D
01EA000E
006FFFC9
005C000B
00580052
0085FFD3
0183FFE7
016DFFD9
01DFFFC4
00420001
01DFFFBC
01D7FFEE
01C7FFC3
002A0006
003A0037
007E0035
017FFFE0
01E20022
0084002A
018FFFD6
008FFFC6
007A000A
003FFFE9
0009FFE5
00B5FFB1
000C0006
01E7FFD0
0185FFBE
0029FFE7
00720026
019A0032
00180006
0023FFE2
018C001D
01E9FFD5
0049FFE5
006DFFDE
01FE0003
001A000D
005BFFD1
00220026
00720021
01CBFFF6
01FBFFC8
0029FFF5
002A003D
0171FFD2
01D7FFFE
017FFFFA
00020003
0015FFBB
0189FFF0
01D4002C
0081FFDB
0081FFE2
001FFFCA
000A0003
01EFFFE4
0197FFE8
01D00037
00640011
01C0003C
0199FFE1
01E60008
003DFFD8
00560024
0035FFD6
01F5FFFF
00900049
01C3FFE5
001E0021
0078002E
01EE0018
001FFFD7
01DC0040
01C40014
01A20033
01FC0031
0006004D
00960036
0018004A
004DFFEF
01A5FFC0
00A1FFD7
004DFFE1
01480031
018FFFD1
01F7FFF3
01DFFFCB
00BE0043
0003FFFB
017DFFEA
01EA0034
01BBFFF3
01DBFFCF
0155FFD2
0007FFDB
002DFFD2
01540017
00060030
01A40020
01EE0043
01760000
005DFFE4
01A80020
01D5FFC6
017A0002
006DFFD3
01C3FFD7
01B5FFCD
01660034
00860003
0023FFE0
00340014
0165FFD6
019BFFEC
01D8003E
0090002B
00540049
01BFFFD2
0033FFE8
007BFFE5
01C3FFE7
017FFFC1
01A9FFE1
01C00012
0043FFD9
01840003
00220038
01A9FFCD
015E0041
0183FFCC
000A0032
0083FFBD
004BFFF9
00220053
00840027
0196002D
01800008
0050000E
0082002F
01DBFFD2
0031FFC2
00760041
01FA000C
01980021
0182002A
017A003A
01C7FFE9
0015FFCD
0067FFF4
0049FFBC
0019FFB7
01DFFFB9
000FFFEE
01BC0028
018E0013
00600039
0015FFC8
002FFFEC
016FFFCD
0178001B
0029FFF6
00260049
0015FFDD
0079FFF3
001C000A
005BFFEC
008FFFEE
0091FFB5
01DFFFDE
0055FFE2
0075FFE5
017E0055
002FFFCC
01D7FFCF
01AFFFF2
01B9FFC3
0046001E
0052000C
01C60021
01780050
0061FFE7
01EE002B
018DFFE8
00600029
01B60019
00140045
008A003E
01F1FFCF
0093FFCA
002E001E
0070002C
01FA003A
0192001F
01D80034
01BFFFDB
0177FFE1
01E1FFC9
0065FFFA
01A60030
015FFFF8
01860035
0083FFD4
0031FFDC
006DFFF7
0089FFD8
001C0033
008A002C
01D8001C
0085FFE8
0051FFD2
01BDFFC9
005C0025
0005FFC1
0166000D
000C001B
0025FFCD
01C9FFAD
01C0001B
006E0033
0055FFF8
0193FFCF
01EE0029
01B6001A
0015FFE6
01DBFFDA
004DFFAD
01DA000C
01E6002D
0181FFF8
01ABFFEF
00880034
01940038
0077FFD4
006FFFD9
01D20036
01F8001D
0025FFB8
00A80017
0069FFD0
00800027
0043FFF9
008BFFF4
006C0017
01F1FFCE
0001FFEB
01DA0030
01F00016
00BA003F
000C0016
017DFFEF
01E5FFFC
01CBFFC9
01A60020
0043FFD3
006DFFCC
01B2001A
0057FFE3
01D20005
00C7FFF1
01540047
01F6002F
01A5FFDD
01B7FFB5
0046003E
0159FFF3
0185FFEA
000BFFE7
01D8001B
0061FFEB
0034001B
018C0036
0041FFD4
01700011
015FFFFA
01C5FFEA
01F00043
01F5FFE2
00600033
01EBFFD0
0023FFD2
01F80038
019C0005
002C0018
019FFFB6
00400007
01D7FFCB
01C40011
0049FFF6
01F6003F
005C0038
00740042
0081FFF4
01940047
0027FFCA
00120020
002DFFE9
01BC0000
00260015
006BFFC3
001FFFB6
001C0014
01BC0049
01AC001F
01EBFFE7
01900045
0195FFF9
00780026
01D0003B
01A7FFCD
0191FFBF
01F40006
01FDFFC8
01CE0010
01740013
008BFFDD
007E003C
0192004F
01F0002D
004C0043
006FFFE4
002DFFE4
01A00050
0031FFF7
006FFFFD
003C0008
002E0001
007A002B
01A0004D
005C0011
000BFFCE
01ABFFCB
005C002D
01A8003E
01AC0009
00220016
01B60028
01A20022
001BFFED
004FFFFB
0077FFD1
01FDFFDF
01C80054
0021FFF0
0018004E
00600039
0011FFDE
01A20035
0192000C
001FFFD1
016E001D
01720028
0087FFF3
004FFFFD
003FFFEE
0059FFCD
01D60020
0051FFBD
01CA0009
0066003A
007FFFD0
0002002E
0051FFC6
0025FFC1
00340030
0058002A
0191FFD2
01F0004A
01F6002B
01AC0010
003BFFC3
0070002A
0089FFEA
003C0029
00700039
01B2001F
0031FFEA
00900037
0002000F
01AE001B
004BFFBC
00140037
01E9FFF6
01E00018
01B20024
01E7FFED
01DA000B
017E0029
00540021
019C001F
0077FFBA
0021FFC9
001BFFE4
016A0049
01D3FFD5
006FFFBA
00920028
01CA0033
001C0015
01D7FFC9
019FFFC4
01C3FFDD
01C3FFBD
00940015
01C00029
0191FFD9
00480026
0023FFE5
00040016
0181FFC4
007A0016
003FFFDA
0012003E
005E0011
006A0036
01DBFFD3
0021FFCC
0027FFC7
003FFFBD
018E000D
01960040
0009FFF5
01BA001A
00040033
00A60016
002DFFB8
00020033
01B5FFCC
0048002B
00280032
00C60018
00280003
0197FFFC
001C002D
01E1FFE6
01A7FFB8
019A0016
004E0020
0188000E
005BFFEB
00960005
01B6000B
004C002F
01AE0027
019FFFB3
0069FFF3
01C00019
0002004C
01780044
000FFFDD
00220009
01CE0009
00100033
0037FFFA
004E0047
00900007
0057FFA8
019DFFE9
01C3FFEF
01CBFFEE
0063FFDD
01FBFFF0
0151FFD1
018DFFC4
0015FFF6
000C000A
01DE0023
019BFFDF
01FFFFF0
0037FFFE
0059FFD5
018BFFE8
00CC0003
0192000C
017A0050
003C0048
0027FFE9
001BFFFE
01A9FFCC
01C1FFF1
0003FFEC
00340002
01DFFFE3
01BA0003
01A80022
001BFFF5
017E002B
01C5FFD6
0085FFB4
01E60044
006C000D
0188002C
01F80032
00260036
002A0003
01EC0034
00540020
0199FFE2
01C40043
01F40003
0062003F
01FBFFEC
00580005
000BFFDA
001DFFC1
0021FFF5
01F40032
01F9FFFC
01900040
01E7FFC5
01E20056
0010003A
002DFFD7
0053FFED
0197FFC6
01E7FFFE
01740021
0199FFE3
01B1FFF2
0023FFD9
0196001E
01AC0026
004C002B
0189FFFF
0061FFB4
004E003F
018E0025
0177FFD8
0011FFD0
007C000D
014C001F
003FFFF3
0005FFF2
01E80032
0175FFF6
005E000F
00400052
004A0039
01B2003A
01E9FFFB
01900033
0189FFC9
004DFFFE
01C8002F
01B1FFFB
01780007
0062001E
007E0020
0182002D
01F7FFF8
01EA002F
01F3FFCD
001E004A
00000002
01D1FFBE
002FFFB7
0001FFCC
0004000C
008A0001
0037FFFA
01920006
0043FFE0
018DFFD4
0008004C
00420021
01CDFFBA
003DFFE7
002E0018
0013FFC3
00240013
01C5FFC9
0039FFBE
0170001A
0088001B
004A0007
0091FFE8
004BFFE2
01ABFFDF
0055FFEE
01A60009
01B1FFAC
009A0032
006E000A
0024001B
005FFFDE
01C1FFBC
01CE0004
0028000E
019FFFD4
008A0015
019BFFE0
0049FFFD
01C0002D
01DBFFC0
01BBFFC0
0046001E
01F60001
017C0025
01840036
006C0025
0173FFC6
0021FFE4
01E9FFB6
005A0024
00320021
0052001D
00260000
0027FFB1
01DDFFEE
01D1FFDF
0053FFBC
0046001C
001FFFB6
0015FFC6
01C00012
017BFFCA
018E0025
01B5FFD0
013BFFC2
002A003E
01BA0036
01C1FFC8
000BFFB5
001BFFD4
00240003
0199FFE9
019DFFCD
019FFFB3
0075FFC4
00140026
01DE0042
0019FFEA
0007FFEF
01B5FFED
00240035
01EC001B
0039FFC6
0007FFFE
01A7FFE8
000DFFEB
00480023
01AA001C
0033FFEC
0003FFCC
0005FFF1
01F60033
001FFFF1
00200023
00B7FFA9
01B9FFF8
01FFFFE3
001E003F
01E60037
01CE004E
01D4000E
000E0005
0056003B
01B8001A
019DFFF7
01FDFFBD
000BFFF8
01A7FFD6
0187FFB5
005BFFE8
007BFFE8
018E0043
0062001C
01FE0022
0171FFBA
006BFFCF
0038000C
00360018
01C4002B
01C3FFC5
006C0001
01F60006
00920022
01FDFFC9
01EA002C
002C0013
01EA000D
018A0046
01860036
01A1FFD7
006A0002
01FE0035
01F00025
01CE0045
0168000E
01F2003E
00480034
01F5FFFD
01BA004A
0181FFCD
00920015
01D3FFE9
0067FFB5
01A8003E
0073FFFC
01C9FFFC
0067FFFE
0032002A
018BFFDF
0023FFED
0015FFED
019C003A
01ADFFB2
003E0055
01980008
004BFFC3
01F60042
01D1FFF3
01FC004E
019FFFC4
004FFFC8
01D7FFC4
00840018
0169FFDA
0063FFD5
000E001F
01F60019
01AFFFE3
0087FFBA
01E5FFE4
01A40014
004C002D
01D6000E
01E80040
003DFFF4
01A9FFEF
0008003D
0037FFF0
01C3FFED
01A4001C
0047FFC0
01C3FFD8
016FFFD9
0187FFF6
00280003
0037FFD7
002A001F
0006003C
000DFFD6
01B20038
003A0016
01F40029
0025FFF7
017A0025
003E002F
01AA002A
017A0012
0073FFF9
01ABFFD7
0024000A
0063FFCD
01FA0037
01920012
0173FFF5
003DFFD9
01A1FFF0
001FFFD1
003BFFB5
01CBFFFA
01A20048
0081FFDC
0029FFCC
0193FFD0
01E80008
0197FFB0
0193FFED
00120024
019DFFBB
01E80039
001DFFD1
00440003
0043FFE0
01FA002B
000FFFFB
01800028
01540044
00100034
0183FFB0
002DFFCE
01E2003D
00700039
00360007
01C20012
018BFFEB
0049FFA8
01FFFFF8
01E80004
005BFFC4
003BFFFF
01FA0008
0151FFFD
01E2002B
01C00020
006FFFBF
017E0013
007C001E
003FFFF9
017C000A
0071FFFD
003BFFE0
0013FFAB
016C003A
01E6002E
01DFFFB4
016A0016
01F1FFEE
001FFFFA
01BBFFBE
001A0031
00B3FFBB
0175FFB0
01D5FFC1
017FFFD2
01A9FFB5
0000001C
00060041
01900022
0171FFCE
001DFFD3
01C0002B
000BFFDB
0179FFE0
019DFFEB
01AFFFBF
0193FFFC
00520030
00840015
000BFFD2
01EA0019
0150004E
0054003C
0041FFC4
0023FFE8
018DFFF0
019BFFEA
0040002B
01CC0032
0009FFF3
01EDFFCF
0050003A
000C001B
003DFFB6
002E0020
0039FFED
0021FFE7
00320033
008DFFFD
01B40041
006BFFD0
01CE0026
01A3FFDF
01DBFFC9
00820011
0193FFDB
01A5FFF2
0088002E
015FFFC2
007E0022
01FFFFD3
0199FFC1
003E0037
0027FFFC
01A2000C
0015FFE5
01FFFFCE
01DDFFDC
01DA0019
00280059
01F9FFF4
001E002B
01E1FFC4
00680040
0033FFC4
007FFFCA
0019FFFE
0041FFD0
01B5FFC1
01DBFFDD
00A0000F
006A0040
01D80004
00300048
004E001F
01B8004D
0069FFC8
00780044
017C000A
00520036
0013FFE6
01AE0034
00020050
01C3FFE9
0047FFBE
01E2003B
01F60005
017FFFF8
005C0032
00580027
01CA0043
0194004E
0045FFF1
0178004D
017DFFEC
01A1FFFC
00AA0004
007FFFCA
00200023
00300002
002C0029
0073FFE3
00AFFFBA
01E3FFFF
00860025
01C40037
000E0002
01B1FFF0
01B80003
01BFFFD5
00200004
019BFFEE
0011FFEE
0056003D
000E003B
01EA0017
0059FFC0
01F9FFF5
00600023
005FFFDD
0017FFCF
016E0018
01ADFFB9
01DE000A
0041FFD6
007A0015
01D4002B
01A20017
01E1FFC9
01FE0007
00340023
0171FFD6
0189FFF4
017FFFBA
01A5FFFF
01A60045
0011FFF3
01B1FFE6
0087FFBE
0015FFE8
00580032
01CFFFD4
0182001D
006DFFDA
0012002F
01A1FFC9
01A00015
01AE0045
00480014
01B1FFDC
000A0030
01F20023
01E60028
00200004
01AC000E
0033FFC1
01F7FFBA
0005FFFC
01E3FFF2
0165FFCE
01E40005
01F1FFBC
01CDFFE1
018DFFCF
01FA0030
0089FFC3
005E0002
01FFFFE7
00660035
0039FFBD
0191FFDF
00140011
01BFFFDE
005DFFD1
01FC000F
001FFFDC
0067FFDB
00A4003D
00360033
0037FFAD
01C80031
0035FFE9
0194003D
007DFFC7
0053FFED
019FFFD5
01ABFFF1
0043FFE7
01CC0002
0010001F
009BFFEA
0089FFB0
003BFFED
01C20019
0051FFD4
007C0041
0047FFED
0163FFCB
005A002A
01D1FFB8
00400043
006C002C
01DE0009
01E3FFDD
00140034
0047FFB0
006C0000
0062003F
00320003
00700043
0033FFF3
01DC004A
001BFFCB
016BFFE4
0099FFCC
00960007
0181FFC7
01C2001D
00960033
01860013
01DDFFFA
01D3FFBD
0073FFFF
01DA0048
008BFFFB
00B8002B
01EBFFE1
0055FFCA
002FFFB9
00260032
01E00048
01E60045
0195FFFD
004DFFF6
0075FFCD
004E0049
0048003F
002BFFC5
00540042
004BFFDB
01B00009
01FFFFDC
01AC001B
01ABFFC6
0196002D
007BFFF4
01B5FFC4
0001FFCA
01D1FFF6
009FFFCB
0093FFB6
0031FFD9
01DBFFEC
01E00013
00560003
007DFFE1
002E001B
009BFFE8
0171FFFF
01C3FFA9
01E5FFC9
0075FFE0
0091FFC3
003DFFCF
01AFFFFF
001E0022
00A00020
01B5FFF5
005FFFBC
018C0002
00480025
01EDFFDA
00100021
00A0001B
01C40038
01FE0002
00540004
002DFFDF
00640020
00BA0012
002BFFC2
0078002F
00380030
0069FFBE
018C003A
00180009
0021FFC8
01CDFFFB
0069FFF4
006BFFB7
0188000C
01DE0009
00360026
01EDFFE1
01B5FFF3
01A9FFD5
0189FFB8
01D0001E
005DFFD4
018FFFB5
01B9FFD5
015C0003
003BFFC9
01FDFFB9
00400037
000C000E
000E0038
002FFFC0
01E40022
0069FFFD
01D3FFBC
0067FFDD
0085FFE7
00640005
01E7FFD1
01620012
019DFFD2
000DFFCC
0159FFE4
0035FFE6
004BFFBF
01AC0037
017E0021
0090001B
0189FFCB
00A8003D
01C40023
01FFFFCD
009BFFDD
007FFFF0
004DFFF8
007A0007
01FBFFF6
01A5FFC0
0013FFC4
0164001F
0047FFD8
006C000A
0179FFB4
01C80034
01B00015
00820028
01CC0004
0045FFC9
01DBFFB5
0046000F
018FFFD2
01F3FFF0
01D3FFF9
0039FFDA
006A0031
01C20034
0032001F
004E001E
01B5FFEC
01BE003B
01AE001D
01FFFFC8
0036001F
01A5FFEF
01B9FFEE
01C5FFFC
01B7FFCB
01E7FFB7
01780037
01E20009
01880025
01A3FFFD
017DFFE8
01680020
0001FFDF
01B5FFC9
018E0025
01D7FFE3
0093FFC9
004E0035
01D9FFD2
0188000B
01660031
0057FFE5
01EDFFDF
016FFFE0
002BFFC7
0009FFDE
003FFFEE
01BE0033
0013FFBB
001FFFFF
01DDFFDE
018BFFB7
0185FFF5
01840035
0164004B
01E60012
0049FFE9
01B8000B
002A000F
001A0025
01D80021
0086002D
01F60027
0171FFE3
01980029
0063FFD6
01CFFFCE
01FBFFCB
01FA0020
01DBFFCF
0187FFC7
002A000E
016A000A
01F9FFAD
017BFFC6
0046002B
01FE0024
01B20010
01BDFFCE
0195FFD5
01EC000B
01A1FFC3
01A8000A
001DFFD6
0040000D
0164003A
00780016
005BFFDB
0039FFCF
016BFFF4
0041FFEC
0018000B
01B7FFE9
01C3FFDE
0056001C
0197FFFB
004BFFEB
01CDFFFD
0181FFC2
01A5FFD8
0047FFE1
00380020
018BFFBD
01C4000D
01B5FFE4
01C60031
00640047
01EA002C
00220025
01C9FFBA
0001FFD5
00540040
01A00040
0168003D
01D3FFE7
007BFFE9
01C00015
01960034
01DBFFC6
01840041
01E9FFDF
0166001B
01D7FFDE
005E000F
01C60016
0047FFAE
0017FFDE
0015FFEE
0193FFB4
018A0024
01E5FFC9
0089FFE0
017A000D
01A40006
0043FFDD
01ADFFE0
0003FFE1
00660028
00020001
0016001E
0189FFC9
0041FFFC
01800022
01760011
0041FFCC
01E8000F
007A0022
01B4001B
00700025
006BFFFC
01A80018
0199FFFA
01EA0036
007FFFC8
0015FFEA
0159FFE1
01C7FFBA
01F80047
01D60027
0007FFE6
0082000C
001A0050
01CC000C
01CBFFEB
0016002B
01C4001A
00640039
00560009
0070000D
003DFFCB
01EFFFEA
01A1FFC7
0043FFDF
01A9FFBB
01DFFFF2
01F5FFE0
01B9FFCA
0063FFF0
01ADFFE2
015A0006
0077FFE4
0195FFC9
01AFFFA9
01920020
014E0028
01EC0019
018A0038
01F40044
01C0000A
00860013
01E40024
0183FFB5
01BE000C
0065FFF1
0062000C
00380010
00480002
00040001
0053FFFA
003BFFBA
003E0031
00420019
0157FFC5
017FFFD8
0008002A
0027FFC5
018BFFE7
00160009
002E0023
01AFFFD9
01F40038
01BFFFB5
001A0011
004C0001
00140004
018A0016
01D8000A
00080036
0083FFDD
0165FFE5
003A0045
016BFFC5
01A2003B
0187FFFE
01D20007
006DFFF8
01B9FFEC
0061FFD9
01DFFFEB
01A4000C
01AA000D
01D9FFC2
01E3FFF5
01B60035
001DFFC3
00720022
0196002B
00860000
01F00047
01A5FFFC
01EE002B
01EA0023
0092001D
0049FFFE
018FFFC8
00060038
01DBFFC4
017BFFDE
0189FFCF
01D1FFE6
01EBFFCE
002FFFD2
0169FFD6
0030002E
00300028
009BFFBC
01E40007
0019FFD6
01DDFFDB
018C0019
01C1FFD9
007FFFF4
01BFFFE7
0170002F
01E0002F
01BBFFC6
0157FFF6
0162000A
00200001
01DE003F
0006003D
001BFFE7
01A3FFD7
019DFFEE
01ADFFD3
01A40009
01F00003
01C4001D
000DFFF7
01D1FFFB
0049FFD3
01CBFFAE
014E0019
0014000B
01A1FFED
0043FFBF
01FE000D
0016002A
00000038
0179FFFA
01C20027
0181FFF4
003A0030
017A0054
0173FFE4
00340012
01F4000A
01E20042
002DFFEB
01760026
00160016
0053FFB8
018A0020
01DE0015
00620034
0042000A
002C0042
01FE0018
001C0034
01D00032
01E40037
01AE0020
005BFFB7
01FFFFC8
0183FFB7
006C0025
01D8002D
00320032
0048002B
00060032
01900041
00920002
019BFFDF
01740036
01A40034
0182003C
01A5FFC7
01BA0040
008BFFED
007E0006
01FC0024
004C0023
01B60005
01C3FFE3
005BFFE4
0095FFE7
00620024
0199FFE9
01B20029
00780037
006E001F
0023FFB3
01AFFFB8
01B1FFE8
01E0002E
001DFFED
019BFFDB
01980024
01940006
01C3FFC4
01DFFFD0
002BFFBD
0033FFD0
000DFFD5
01DC003F
019FFFE4
002E000A
01D5FFD1
00020028
01B3FFEE
00700006
018A0033
003DFFD6
01FA0027
01A00011
01FC0028
01DFFFD2
01C80006
01C3FFFA
0197FFCE
01AC003C
019C0001
00000017
01CDFFFA
00300030
01D9FFDE
01B8001C
01DC0011
0067FFEB
01DA000D
01D40014
00180025
00820019
01E3FFC2
0053FFC2
01F4004B
0055FFF0
018FFFE9
005BFFE5
0052002C
0189FFD5
016DFFD1
01DFFFE0
006BFFD8
0012003A
0043FFE9
0171FFE4
01680033
0047FFC4
0015FFE7
0079FFD3
01800019
0036002F
0173FFDD
01C4000F
01AA0033
01B20001
014BFFAD
01CE002D
001A0018
0159FFFA
01EE0009
0012000B
01A5FFF2
0012003B
01E9FFC3
0051FFCA
01DC003B
016BFFFB
014A0037
003DFFF7
00660002
018BFFDD
019C0004
01E5FFBF
0051FFB1
018BFFF8
004E0033
0160003A
0175FFDC
01B4000B
018DFFD0
00480023
0056003B
01A4002A
019DFFE7
004BFFF7
00060036
018C0034
01FBFFED
0047FFE8
00500005
0039FFCE
015A0001
00660048
0079FFB6
0013FFCE
01C2001D
0169FFF2
01BE0011
0073FFDD
001DFFEE
01F20023
01EC0026
01C9FFDA
01D8000B
01CFFFD9
005DFFF8
000E002D
003FFFCC
0006004D
0187FFE5
01E9FFBF
01E20007
006E000F
00720036
0001FFFD
01EDFFF5
01100010
0193FFF8
005C0028
0071FFDB
005FFFC3
01C00045
01AFFFB7
01F0003D
000FFFF8
0189FFD8
01C4001E
01E00004
002FFFD3
00800010
003BFFC0
0199FFD0
017DFFFC
01BBFFD2
01E80005
000DFFD4
0031FFB6
00B80005
01BBFFE9
00240043
000C0007
01C3FFD9
01F2001C
0027FFF2
0065FFEF
007C0019
0000003C
00320030
0043FFB4
019A0006
01FA001B
01A80029
01BE0003
000E0036
003DFFEB
0076000C
003BFFFB
00660045
006FFFC2
01EDFFB7
01CC000C
0043FFF2
005E001F
00820018
00980001
01B00017
0046000E
002BFFF3
0095FFE4
01F1FFDC
00CE0004
01F7FFDD
00580023
01EA0022
01C5FFAC
0197FFF0
01B5FFD6
01EFFFE8
00320037
01CC0012
001BFFEB
0072000B
0189FFCA
0031FFD5
002DFFD7
001DFFC8
01CA002A
00AE001A
0016000D
0020000E
01DC0000
01820016
01AFFFF5
003C0004
01D9FFE4
00600026
017DFFD8
005DFFDA
01DA000D
01BE0042
002FFFE5
01FDFFC7
0157FFCC
00900011
01D9FFFE
01B40040
017E0040
0085FFF2
01800008
00A40004
00180013
00540016
004DFFCD
0043FFE6
01A5FFF9
00380009
01D8002F
00120020
003BFFFC
000BFFDB
01F5FFC9
0049FFC3
001FFFB7
01E1FFF0
006E0024
01EE002A
0045FFFC
018FFFE1
00700033
01ABFFEF
0042000E
018E0039
01F7FFDC
0051FFC3
0033FFFD
01660023
01B7FFFE
016A0017
0021FFC6
00160015
01A40038
00220033
00400009
001DFFC7
01FC0016
0086001E
01BC0037
001E0012
019DFFF5
019A0020
0083FFE5
01BDFFE8
01FDFFFD
01EE002F
01A00038
01C4000F
01B3FFD6
01DBFFC4
01D9FFD2
0157FFDA
01F1FFE2
007DFFAF
01F0000A
0173FFFE
01F20005
0029FFAA
01940047
0083FFC3
0056003E
00680017
0181FFCF
007DFFE2
0017FFE5
00B60009
0081FFDB
01E9FFF8
0070001A
017BFFCB
01820015
018BFFE7
01620025
018DFFC5
01840026
01EDFFB3
019E000C
00600046
01FC0024
01C7FFBE
0033FFF9
000BFFEC
01C0000B
003DFFD1
0057FFCC
008C000D
01CA0031
001A001F
0151FFE1
01F40025
0034004B
0092003D
0079FFC6
005A002A
01FBFFDC
01FBFFBE
0015FFC9
01E80021
01B00033
0050001C
001BFFF2
01C40010
001FFFE4
01CC0028
01720021
000FFFCA
0027FFD0
000C000A
01E1FFF8
01FC003B
0189FFF5
004FFFFF
0089FFAF
01AC0018
004C002F
018E0033
0136001E
000E0022
0027FFC8
006C0028
01F3FFD1
01DDFFE3
01A1FFA6
0066001C
0045FFC9
01CDFFD1
01EA000E
0030000A
0187FFA3
004A0002
01F3FFE2
01F4001E
01960009
01C60010
01AE001F
01F7FFE6
004DFFC5
01BFFFFD
01D40008
00660041
01B1FFB3
001FFFCE
000A002C
01D4000F
0055FFBE
01F80019
005DFFF7
01F4000A
001DFFCD
0033FFFA
002C002B
01DFFFEC
01D7FFF0
001A000C
01CFFFC6
0081FFE6
0083FFF5
004E0038
00DFFFAB
01A1FFE1
0172001D
01DE0028
01DDFFC1
0031FFFB
0007FFCF
0053FFEF
0189FFDC
0003FFD8
0075FFEE
0039FFFE
0015FFFC
01D5FFF3
0029FFBC
001DFFD4
002BFFDF
01F5FFFD
0043FFF3
01D7FFD3
005A0043
007BFFFD
00900022
005C0034
003E0031
0194001B
00660038
0055FFE9
01760003
01E3FFD0
016E0029
01C3FFDC
007A0024
01880021
019A0001
009DFFFC
01F1FFD9
01B1FFC8
003E000E
017DFFFC
0157FFF2
0084003B
0179FFC6
017FFFB3
01DE0040
01C20000
0185FFC9
01760040
0176001B
006FFFE5
01AFFFD9
002DFFEB
01CBFFFA
01C1FFF2
01AA0021
01D0002F
0019FFF4
01CDFFFA
01CFFFE3
01700014
001E002C
01BDFFD2
00520000
01BE0019
01CE0005
0021FFEF
01A7FFF3
00200027
01FE0021
0041FFB6
01DE000E
018FFFB8
0061FFE2
01C80003
0035FFD8
01FA0022
0015FFE2
01EC0011
006C0027
01C7FFD1
0199FFD8
0081FFD1
002A0016
001C001B
01880022
01FBFFC4
00020027
01B0002C
01B6003D
003BFFDB
00600021
0016001B
01CBFFF1
0013FFBF
01F80027
0038003B
01B20022
01EC0012
0021FFD3
01E7FFC7
00480053
0059FFEF
00100001
01BBFFE2
01DE003D
01C00028
005BFFDE
0179FFE6
01A1FFA9
01C6001C
00BA003C
0025FFFD
017A0019
006E000F
01E5FFEC
01A5FFE0
01E4001D
0189FFFB
00B9FFC2
01F8003E
01D8001E
00ADFFD4
004A0014
01E3FFDB
009BFFC5
0089FFF4
01CBFFC3
0073FFFF
0187FFEA
01B1FFDC
018FFFDC
00A00027
009A000B
00700006
00600026
00B60024
018A0013
00820030
0016001F
018BFFE4
01E20026
00840011
01F5FFE6
01B5FFD0
0070002C
01AE0030
0169FF9D
00120043
00320023
006E001F
01700007
01E80027
01B2004A
006E0028
0183FFCB
001DFFFB
0059FFCC
01A3FFE1
0005FFEC
01F60035
0177FFEE
01D5FFEF
0130000A
015BFFF6
01B3FFC9
0026000C
01E60048
019BFFC9
018DFFC5
00580009
001DFFB0
001DFFEC
0199FFFE
000C001D
005BFFE2
00900036
016DFFC1
01C1FFDC
0080004F
0055FFEE
01EBFFF1
0033FFED
016BFFFB
00180004
006C004A
0161FFD8
00660013
0187FFEE
01880019
01C7FFED
01A9FFDE
0032002D
0029FF96
00C6003C
01B5FFD0
01C0003A
017DFFBE
01C80029
0017FFE6
0091FFE0
004FFFED
01BA001F
019BFFE6
0063FFD5
01AE0028
01F60044
005BFFC9
01F20022
0089FFC3
0034002E
017A002A
01E80009
01E9FFD8
00140032
01F00004
01DA0033
0047FFF1
01F80000
00260001
00460037
004A001A
007C0033
01FC0018
01F80025
01D00008
0093FFC8
0029FFFA
001C0013
01900030
01880024
00B1FFF1
0043FFF2
0050000F
01A5FFF8
0088000B
01C5FFE2
01FE000F
0189FFE1
00080011
01DA000A
01F9FFD2
019E000B
0019FFF6
000BFFDC
0043FFD7
01E5FFF1
00A20007
019E004F
0044001F
0083FFD2
01AFFFE9
01BBFFF0
0172004A
01FFFFFA
01AA0041
01FC0039
01DFFFE9
01DBFFDA
002BFFDD
01B60036
007BFFF6
0199FFCE
01F00037
0169FFCB
0087FFDF
006DFFEC
006C000F
01AE001E
017C003B
01B5FFDA
01AE0007
01DDFFF5
004DFFF9
01900032
00260022
00340027
0090002F
0199FFDC
000E0014
01D8000E
01A5FFD9
003FFFD6
01960036
00720033
0171FFEB
0073FFFD
00200016
005C001A
019E002B
01DC0014
01FE0006
0060000C
01C7FFEF
008DFFF2
01E9FFE0
00280024
01C0000B
005FFFC4
01F00035
01A60005
019FFFBE
01AFFFEE
0197FFD2
0009FFFF
01FA002E
00100046
01BC000A
00540034
004FFFDA
005A0051
01D60016
000DFFCB
003C0037
001BFFE2
01D60046
018FFF98
0191FFDC
0048002F
00440039
01CFFFC5
01C20018
01CE0028
01B20009
01CFFFD8
01AC001D
003C0049
00080046
00220033
0012000D
0056000C
0197FFED
0039FFBE
018BFFB7
00460023
01E60012
0077FFE0
01EE0028
009DFFF4
0189FFB4
0198002D
01BFFFD9
0195FFED
01E20033
01BA0011
00820018
0013FFE7
0033FFB6
015BFFC8
0169FFDB
003E0019
00320007
01D8002B
0137FFDF
003FFFCD
0065FFF6
000C0004
01F5FFFC
002BFFFE
018DFFF5
01FFFFCB
0037FFCB
01AA0033
01CE000D
01C4001D
0175FFD2
01BBFFF2
01C00024
01D7FFF1
002BFFAB
01EE0054
0029FFE0
0166003A
01AA0030
005DFFBF
005DFFD8
0024004A
0011FFE6
0059FFD6
0179FFE3
01980030
01FDFFC6
018DFFF8
004DFFD5
016C0015
0013FFDE
01CDFFEF
0011FFFA
0197FFCD
00660024
0039FFE1
00120009
008A0008
00820029
01D2003C
01D60019
01C3FFC4
0029FFFE
00880008
00180036
0085FFE6
007A001E
01D5FFFA
003A000B
01AC0050
0039FFEC
0178002E
0017FFEC
01B1FFED
00660012
00180039
019FFFC4
0197FFFD
0064000C
01C2000B
01D6003E
0043FFC1
0099FFC9
01A5FFC4
0004000F
005FFFB9
019A0021
00680002
01BFFFE7
002E0006
01EC0032
005A0003
004A0019
00880029
0197FFFE
0033FFF8
000BFFE0
0042002B
01BFFFC5
00260028
004DFFCD
01B6003B
01A4005A
0045FFD9
000BFFCF
0006001E
00A00016
006E0004
019A001C
005BFFF2
0064002B
01940034
00020011
01BE002C
009E0017
01B8002E
002FFFFC
000A0044
01BFFFF2
01DBFFCD
00740033
0162000F
01B80016
001E0010
004C002E
01F3FFB4
0193FFDF
01DFFFBE
00380025
01DC0036
01D9FFE0
017DFFC4
0055FFB2
00420042
00700017
00700043
01F40031
018E0007
01B9FFE1
000BFFFA
01A1FFEF
00420033
005BFFA5
0179FFF9
01F40046
019E0008
008BFFB7
0051FFC5
0019FFD3
0028000A
0065FFCF
0196003A
007BFFF0
0023FFE7
01CFFFE8
003DFFFE
007DFFBB
0185FFE6
000C001F
019DFFBC
000A0005
01F60049
009FFFBB
001C0048
000FFFC8
0061FFFF
005FFFCE
00100013
0039FFF3
01AE000F
01D5FFC0
00980037
0071FFB1
006C002B
0141FFA6
00060026
017DFFC4
01D40029
01D1FFF1
000DFFD6
01C3FFBE
01FA005B
006BFFD4
01FBFFFE
01700025
001FFFC3
0004001E
01EDFFDE
00320015
003BFFD1
0161FFEE
00900031
01C9FFE7
004FFFD3
0010001E
00580031
0055FFFD
01E4000E
01AA0036
01D1FFE8
01380014
0076001B
00ADFFF2
004FFFD0
0005FFDD
00AA0023
01960043
0020001B
00BDFFD1
001FFFE2
01EDFFE4
016FFFCD
0029FFE2
00120033
01A2003D
0024000D
01A5FFBF
0187FFB9
009A0029
00580029
01920016
0036000D
007FFFC8
01B2003B
0009FFF0
008DFFDA
01F7FFB4
01FFFFD0
01BDFFD4
0147FFCC
01C5FFDE
01B80013
002DFFEC
01FBFFEF
018E0033
01E60011
01780032
002FFFC0
0081FFC0
01EC0046
01C9FFFE
018DFFF3
01E6000C
019DFFFB
003FFFF1
00120041
0039FFF3
0150004A
0080002D
01BE000D
0189FFB8
01A1FFC2
01CFFFCF
0073FFDD
0090000D
0005FFC4
00280002
01880032
01B3FFDB
01DC0012
0006002E
0000003D
01EDFFCB
002E003C
01620034
01700030
0029FFF8
01EA003C
000A0002
0195FFFE
001FFFC3
01A20016
0027FFD8
0089FFAD
0056001A
005FFFEB
01DC0024
018E0036
01BE002A
0009FFE5
01960030
0089FFF8
01CFFFB3
004DFFDD
01C80002
00020040
01BE001B
01D5FFC9
01D3FFEE
01DFFFE8
0015FFFD
01C00021
01DBFFBE
017DFFFD
01E00016
000DFFC8
01C00037
0179FFEF
01BE0023
01ABFFA8
000C0032
01E7FFE8
004A0005
0043FFCB
0033FFE2
01940000
0005FFF2
0005FFE6
015DFFE4
01AE002B
00500023
0083FFE4
00020017
01FFFFCC
00120027
01DBFFCA
01C7FFDC
0017FFEB
0093FFEB
01700019
01D8002F
0031FFFB
01880008
0067FFED
01E60005
00760036
01CDFFB7
006FFFC3
01C3FFD9
003DFFCA
00680029
01E80021
01B3FFF5
01A60036
01E7FFBB
000FFFFC
0013FFDD
0075FFE0
001DFFFE
0152000C
01520011
0070003F
01E9FFEC
009FFFBE
01FE0008
01DA0004
0055FFF7
005E0007
01F1FFF8
01FC0004
0008001E
00380058
01B2000B
01C80012
00200005
01E9FFFC
01E60019
01D1FFFB
01B7FFD5
0078001E
001DFFF4
012C002D
01B20003
0069FFEB
000BFFF6
01AE0021
011E000F
00300043
01F7FFD5
01B9FFD5
01F9FF91
00820013
019E000C
00880030
01F9FFEA
008FFFC0
0014000F
01CC0071
002C003F
018FFFEE
004BFFDE
01C5FFE4
0101FFFF
0023FFD0
00520023
01D5FFCD
01B9FF8C
018BFFB9
0015FFEC
01660022
0029FFFC
01F3FFFB
014BFFF0
0193FFD3
0065FFE5
0027FFFD
0183FFE9
01E00025
01B5FFE7
00440015
003BFFFC
00120017
0026001D
0035FFC9
01F60010
006C0028
01DA0032
001A0017
017DFFF2
01D2001E
019FFFC3
01C3FFF9
0036001B
0047FFF8
01A1FFC5
018FFFDB
004FFFE2
0053FFC6
01F60005
0175FFFA
01C6002C
01DE0023
00980020
00520022
017E0010
001DFFB8
01FDFFD1
0057FFFE
0058000B
003A003D
006FFFC9
0035FFF5
01A40015
01D0002F
003A000F
01BA002C
00A9FFCD
018BFFD9
01FFFFF3
01A7FFFD
01D4004A
0089FFF1
00740024
01CFFFE6
003E000E
0037FFFE
01ADFFF8
017FFFD0
0056000E
01A7FFE7
01640031
01A1FFBA
01F3FFDC
00720006
01FFFFBA
019A0019
01DA001E
000A0004
00220026
01A1FFC1
01F8001E
001BFFE3
01FC0015
0183FFE7
0183FFB4
01F9FFF8
01CC0025
00380016
0189FFCF
0055FFEF
0054001F
019A0046
018A0020
01FE001D
01F60028
01800008
01E1FFA3
01C9FFDF
0047FFF4
01F60017
01960028
01BBFFDB
01B20008
018DFFBD
0183FFDC
0135FFE6
0042002D
01720004
0035FFFF
018BFFCF
0006002B
01CBFFAB
003FFFBA
01D1FFB0
0033FFE8
01EC001F
0014001E
00720001
01AE002C
01F9FFDC
004FFFC4
000DFFBB
0197FFEC
016C002A
0057FFCB
01EC0009
00800006
01DFFFDC
01CE000B
0005FFD9
01980018
0163FFFF
01E9FFE7
0011FFEA
0179FFE0
0167FFE8
00060020
017FFFE5
005DFFCB
0068002D
0041FFC0
0171FFD3
01C7FFDC
0000001F
0059FFFE
01640010
0007FFCB
01EA0034
01EC0029
0026005A
01760029
0181FFFA
018E0052
01E1FFDD
01EFFFEB
001BFFC3
00560045
001BFFEC
01A80023
00500018
01D9FFBE
01DFFFC4
0029FFDC
01C80046
01A4001B
01A3FFDB
017BFFE0
01920004
0193FFDD
005E0013
0023FFFA
0067FFB4
0039FFD0
01900044
007E000B
01BBFFD8
01C9FFDB
0095FFFA
0181FFE8
0060001D
01BE0055
006BFFE9
01B8000F
0057FFDC
0009FFFE
01DA0013
018E003D
0079FFDB
019DFFEB
01CFFFE3
001A0027
01900030
00740038
01AA002C
01BE004B
01FA0040
019FFFEB
0003FFC1
0033FFE1
01B80009
0075FFCA
01B9FFD7
01FE000C
01C60000
01FFFFEE
00180042
00560033
017C000F
017C002F
0010001B
01A7FFFC
01D1FFEE
0033FFCD
01A00037
0019FFF7
000C0000
000FFFE3
01A9FFFB
0016000C
01EC001F
000E0045
0163FFDA
005E002A
00020012
0066003C
006FFFA8
0005FFD1
00980000
0191FFD9
01F40042
0145FFC9
01ABFFC7
01C0001C
0117FFED
01D6002C
01DFFFE9
00200032
0014000D
0029FFEE
0023FFD2
00080045
0087FFF4
01E9FFA8
0198000E
01E3FFDE
0188001F
013FFFF0
01E5FFCE
008E0000
0169FFFC
01F3FFE6
00300028
01DC005C
008BFFD3
00380007
002C001B
01E5FFF5
001FFFD2
0085FFD6
00240035
002DFFF9
0005FFE0
01A9FFEB
0080002F
0003FFE4
0155FFD1
006E0024
01BC0031
01AA0004
01700015
01A3FFFE
0047FFB2
00760041
01A9FFD0
000DFFF6
005BFFBF
0194002A
01ABFFD3
0001FFC6
001DFFE7
004BFFB0
01700013
01600004
006BFFD5
006C0005
00700030
01DC003D
01C8000B
018FFFF4
002E0028
004A0010
01D7FFB8
01620019
01FE000B
00120041
00980022
0173FFA6
01E3FFD4
00540027
01AFFFF5
005DFFF0
003A0005
0059FFC3
01DC0030
01A9FFE7
01CDFFFB
0175FFFF
0071FFCD
01C60021
0064002F
0028003A
0033FFF8
01E80003
01EE0003
01D80003
01C80037
01FE003A
006A0043
0061FFFF
01B9FFEC
018BFFB5
01FA003E
00780044
017E0020
015A0023
01E60030
017C0014
0165FFC1
01D1FF95
004C002E
01DE0001
006DFFEB
01F80006
01F3FFBD
01F8002A
0014003F
0187FFD5
01AA001B
01A00035
01F4004B
0161FFFD
01A3FFD4
01C6001A
0063FFD7
0061FFA8
0043FFEF
0069FFFF
003DFFFD
01EC0004
01740018
0059FFE6
01E20050
0037FFCD
01C60014
004FFFDC
01B20039
01EBFFD8
017A003D
0053FFFE
01EC0037
01BBFFD0
001A0021
01E3FFF3
01A60024
0060000D
003E0040
004E0001
0185FFC2
0025FFCF
000FFFE1
0037FFD1
01DC0030
01F20032
002E0037
01F9FFDD
01D8004A
01F5FFA3
00500045
00760014
01DE0008
00180029
0182000E
01B60033
01CC0012
01D4003D
01D1FFC3
01500031
01EE003F
00160019
00100032
01F00004
003A0022
004FFFBC
0087FFDF
0050003B
01D2000D
017FFFDC
01A60034
0049FFFD
01B1FFCD
0065FFC8
00A3FFA6
0062000C
003A003D
0013FFC7
001A0044
01EDFFED
01B3FFFB
01AFFFE0
01A60040
01C1FFC5
01C60021
0041FFCB
01F7FFC2
01D7FFE2
01CA0013
01E6003A
01DC001C
003BFFE6
01A9FFCB
01D1FFB9
01FFFFC9
01DE001E
018C0018
0011FFF1
0027FFE2
01EFFFD1
00560038
0043FFD1
0068000C
01F00015
00260043
008A0017
01DFFFD2
01AFFFEF
01F5FFC0
01D6002C
01BBFFD8
019BFFFF
01E60030
01AC001D
01A60042
01DE001E
01B5FFF3
01C80014
009A004C
01E80025
002A0034
0010003E
000DFFFD
0033FFC0
01C7FFE6
0029FFAF
01860023
017C000D
01A1FFD7
01900022
01B00023
016C0001
003BFFC9
01920025
005C0003
01F40022
0051FFE8
002DFFC6
016BFFF7
0017FFB6
0022000A
01AFFFFA
005FFFFA
0033FFE3
0018000E
0008002E
01CDFFCB
017BFFCA
01860001
0005FFCF
004BFFE0
0037FFED
