005BFFF3
017A002B
01A3FFC1
0091FFC5
0029FFE5
00580016
0005FFDC
0001FFEC
002E003F
0055FFF5
0198003B
01DFFFC4
01CDFFD6
01DA0001
0071FFC2
00140011
0092000F
016FFFB4
01DFFFCC
0085FFF2
0085FFF2
009BFFC6
00A3FFD0
01EE0019
0040004A
01C60014
00600015
0166002F
0013FFAC
001DFFCE
01EA0033
01DFFFFB
01F0002D
00A5FFDD
01CE0012
0013FFD6
01E80001
01DC0007
01C00023
01D3FFC5
0198000A
0011FFD7
01A5FFF3
01D9FFBF
01FDFFD2
0185FFF4
01B60023
01840007
0072001B
0035FFD0
0042002E
0028000C
003E0033
01B00019
01CC0000
0070002A
01CA0035
0033FFDB
00200016
01AFFFFB
01A80034
01DBFFD6
01F7FFCA
007E0038
005BFFC3
01E40025
01A0001A
01ABFFB8
007E0032
017DFFDD
00240036
0199FFF4
017C001D
0039FFE4
00780000
0045FFF5
01EDFFFA
01DBFFCE
01CDFFBB
0023FFFD
0188001F
018C001B
0048004A
0182003E
004DFFFE
00240011
0070003C
001E0046
01D1FFFC
00AA0044
01DE0005
009FFFF3
001DFFBF
01D1FFEE
01A20043
016E002F
01F0004B
00500018
01F80011
007E0003
01A5FFDB
01B40028
01EDFFBE
0059FFFA
0052004B
01A4002D
01E80003
01E00022
0065FFB1
01B0001E
01E80029
0023FFBA
01FDFFC0
01E20008
0053FFFF
0017FFE7
00600043
01DBFFB9
007E0017
0037FFCB
0015FFFC
0176001B
01CE000B
01F7FFCB
01F7FFE6
01EC0024
003A0036
01720042
01A3FFE4
0062001B
01E00039
0045FFD5
00180025
00320007
006DFFE5
001BFFCF
008E000A
01AA0040
003DFFF3
0041FFF2
0067FFE0
0049FFDF
01BFFFFD
002BFFB5
00720008
00260045
017FFFEF
00ADFFE5
00600035
006A0027
006BFFF6
0039FFB4
0071FFF2
0011FFE2
0062001A
01B80009
00060005
019FFFB8
01F3FFCD
00120014
0080003D
01A3FFF3
0021FFDA
0177FFF8
01EFFFCE
01C1FFD5
0099FFFF
0033FFE2
01A4003C
01E2003B
01FBFFCB
0021FFC2
01DBFFE9
01D40037
018E0026
0027FFF9
00560022
017E0006
004A0014
00860026
01CDFFD7
0079FFF0
01EBFFFD
017BFFE9
00400038
01A8004A
01D4000A
01CE0039
01AFFFF7
0054000D
01B3FFFC
01BFFFC6
01EDFFBB
002C0034
0084003F
01940008
01DE0031
00560026
01FE0056
00000043
01E8000B
01AC0059
01B40005
0032004B
0081FFC3
019FFFDA
00320015
003C003D
0171FFFC
0037FFEA
0008005A
0036000C
015DFFF1
001DFFBF
018E0047
017DFFC8
0085FFDA
015FFFF6
0044004F
002DFFCA
00880031
0015FFC9
0034001A
0175FFE6
01E0002A
00580030
0006003C
005A0031
01D6001A
0170002E
01B3FFC4
01D7FFEC
01F00019
01E1FFDB
01E20022
00660011
01EE002E
0033FFD5
00880010
0071FFF5
01D2003A
01B9FFB8
005C003C
01E8001C
0188003E
01DC005B
01A7FFF0
006C0048
007E002A
0197FFEF
00720008
0194002C
01A80033
01CBFFF4
01D8000C
0002001B
01EBFFFD
01DE004F
01F60006
002DFFCF
0081FFD0
01E20028
018DFFFB
0027FFDF
007FFFE8
00A7FFF6
00160000
01940055
01680019
01D00029
003A0012
01E20030
0087FFEC
000BFFD3
0059FFC5
0054001E
01A5FFC6
01EDFFCA
0195FFE8
0007FFDE
01E7FFD4
01AC0016
0009FFB1
01A20024
0075FFD3
0009FFC2
00760033
01700015
00440047
01E60028
0199FFE6
01F2002A
01A40034
006FFFEB
01ADFFBB
01D40002
0051FFF1
01DDFFC7
01FFFFE6
000DFFDE
016FFFE9
0036003A
01B3FFDA
01AC0009
01C1FFD4
005BFFEA
00A80043
009DFFFD
0177FFF4
0001FFE2
00060001
01A1FFD0
01C20032
01C1FFFA
004DFFF1
003BFFEC
01AC000B
0055FFE8
01B00003
0065FFDF
00420021
0171FFCB
01D7FFF6
01A3FFDD
004E0029
01E9FFDE
01B1FFEF
01D6001A
0017FFEA
00380000
0190001C
00380037
0071FFD3
006DFFDC
0036001E
01C7FFBB
0061FFF4
0041FFEA
0008003D
01FBFFE8
0044002E
0077FFC7
01F7FFE5
005C001A
01F8000C
00380042
0077FFE3
004FFFEE
01920014
018DFFC2
004BFFBF
0046003F
00580005
01B40013
007BFFDB
0035FFC9
005C0040
01940022
0193FFC8
00660037
009BFFE4
01980042
00260015
01F20012
01740005
01CDFFFD
006BFFD6
0071FFD4
019BFFD3
01D40012
0197FFD1
001A002D
01FFFFF3
0059FFD6
00080038
00560015
0035FFCB
0049FFDD
00980017
0173FFF4
0157FFE0
004DFFF2
0178000A
00760020
0063FFC5
0051FFD8
01840047
005C001F
01C60000
01B5FFFE
00500040
01CA0007
00440042
01B5FFEC
01760026
004BFFFF
0053FFFA
01FE0013
01A9FFE7
01820006
000C0042
00720007
0017FFC7
018A0024
01BFFFCF
01B60034
00240019
01E9FFD5
00180012
01C7FFF9
01D20039
01FE0004
018C0012
01C5FFDD
01F8002F
01FBFFCF
005A0036
01B3FFE9
01CBFFFC
01B5FFD4
0161FFB5
01CDFFD8
01E5FFF1
01DC000C
01AA0005
00620000
01D3FFD0
0069FFEA
0018003B
01CA001B
01CA0033
009FFFD0
00380001
001A001D
01900028
0195FFD8
0097FFD5
01C40044
01A9FFC2
00400016
0036004C
01F4005A
01AC0019
01B9FFF7
005E0006
007FFFD7
019BFFB8
01AC0013
01F40017
0180002E
01EFFFDD
017FFFC0
002FFFFB
0027FFCC
008FFFDF
005C003C
01B9FFD6
00860012
018FFFD7
009BFFCB
005FFFE2
002E0038
000DFFD9
003BFFE0
01B8000F
0169FFD8
003E0018
0041FFE7
0023FFF5
007E0001
0089FFDA
00520034
01960003
017FFFEB
002BFFBA
019A002C
0002000C
01F1FFDB
0189FFD4
0188001F
01B5FFEC
0035FFAE
018E000C
0004000C
01F3FFB0
01A0001D
01FC001C
0033FFD7
016DFFFA
0081FFCC
01E0000D
0043FFE0
019A0015
0015FFEE
00360024
01F3FFC4
0187FFC9
00540015
01A1FFE4
01FDFFC8
005BFFF0
0015FFED
008E0028
01D7FFD0
016FFFAC
0053FFCE
0065FFE8
0023FFBA
01FFFFE8
01F40006
0089FFBC
00700034
01EFFFD6
0020002C
01880002
01EDFFC6
01CFFFFE
001E003A
0164001B
01BDFFCD
000DFFD6
01FE001D
01B0001C
0022000A
0051FFE9
0061FF99
01A40037
0071FFD0
0053FFDB
00700009
0013FFE7
00040014
0067FFCF
0170001C
01B6000F
0191FFA5
0197FFFD
0051FFC2
008BFFB7
01E3FFA4
018DFFFB
000FFFF5
0176000C
015FFFE6
015BFFFB
019C002D
0005FFCB
0017FFF7
0023FFDA
0193FFAE
018C002D
0183FFFA
005E0046
00840003
0177FFCC
01B80025
01C3FFD8
0069FFEC
0033FFFC
01E7FFDB
006C0011
01C5FFFF
0189FFD4
01DBFFBA
00020006
01B80007
00360036
01BFFFDC
01DE0007
01E00016
002A001E
01A0002A
019BFFB9
01DBFFC3
0051FFC6
018BFFFA
0188002F
01940023
0063FFE7
00440015
01D5FFE9
0072003B
01A5FFDE
000FFFD2
0017FFF0
00560005
0099FFFE
0017FFF4
01DDFFBB
0091FFD0
0052000A
0040001A
00680049
00900032
01A1FFE2
01C1FFD9
0165FFE7
01B2005B
01940020
00060037
01F0002F
0069FFDB
01800024
001DFFF1
0048001C
0069FFDC
01A80019
0063FFDE
019A0005
00540060
01DA0041
0053FFCC
0001FFE9
01BA0024
01B20040
003C0054
0087FFC8
01BE003C
004A0012
007E0015
01FBFFD9
01C20067
01AC000F
01520029
0173FFBE
017BFFED
0067FFCC
001BFFD4
0180004A
019E004E
01D40016
00C6000E
0003FFCB
0182001B
01EC0022
004DFFE9
0199FFF2
001A002F
00200048
01F1FFE6
001C0028
00080058
0017FFD9
01AC0026
0091FFF9
006FFFF2
01EDFFB9
01C3FFF8
0019FFCC
0071FFC8
006BFFFE
001E0031
0079FFD1
01D4003D
002E0011
0096002F
0007FFE8
01C00025
01EDFFD9
01A7FFE8
018C0013
00440022
01C7FFCF
00400006
01F5FFDC
01C80026
0027FFD2
00800027
002BFFF9
004DFFDE
015E0032
000E000C
00140027
01A5FFCD
003A0028
0185FFE4
017C0032
01B80003
01D8004B
0021FFC3
01A20002
0069FFE5
0005FFB4
01D40037
01E4001F
0052002E
0082001D
0093FFF0
019C0006
0037FFEC
01EFFFFC
005FFFC0
004E002B
008E0021
00360007
0174000D
000C003C
01EE003C
014FFFBF
00080013
01C5FFEA
007A0004
0089FFAE
01D40023
003FFFF5
008DFFFB
00380000
01F60038
01740048
001E0029
01AA000F
0040002E
01C40016
01C9FFE6
01B00020
01E8001C
016A0043
0187FFC6
01D7FFAE
01960044
0013FFE5
016C004D
0040001B
00800042
003C0037
01EE002C
01D3FFED
0030001E
0009FFB2
00840008
00440035
0062003C
01E60022
01F5FFC0
01FDFFC5
0030000F
00A7FFC6
0030000D
0038003B
00680008
000C0032
019FFFE3
01D20022
01F4002B
01CA0037
0017FFDB
01FBFFB1
000BFFCD
01E40014
000FFFD1
01ADFFEC
0087FFFF
00680014
01CFFFF7
007C0049
0049FFA9
0011FFE6
000DFFEE
01CFFFB9
0077FFEA
01EBFFCE
01DA000C
01CA0025
01D6000F
01720016
01C60017
00080001
001DFFE7
0034001B
0086001E
015E0037
00340018
01FE0015
01C1FFF2
001A0036
001BFFF7
01D8000D
0194000B
01F80011
01D20030
000FFFC0
0076001D
00480042
00620047
0005FFE1
01B6000B
00AE0026
002C0039
003C0029
002DFFF7
01B1FFE9
017A0027
003E0046
0061FFCA
0009FFDD
0002001B
0013FFCE
01AA0043
01BC001F
01EDFFDD
0085FFDC
01900026
01CFFFE4
0087FFD1
01D20023
006A0027
01EC003F
01C5FFF1
01AA0026
000FFFEA
0001FFC2
01780014
0059FFED
01520030
006BFFC0
01900015
00100009
00680043
01C5FFD5
0069FFDC
0033FFF4
005E001A
01EBFFEB
016BFFF6
01C3FFD9
0154002B
0005FFC5
01620019
01E3FFD0
0009FFE1
01760042
01C40029
01E40045
01BBFFC1
00720027
019E002F
01FC0023
0162001F
007E000B
018E001C
01E3FFC9
01CE0014
01FFFFED
01D1FFFC
005DFFDE
00340021
01BA0010
01D20037
0081FFC6
005C0056
00A5FFD9
000DFFCA
019E0046
01880024
01E5FFD7
0003FFE1
0004002D
01A3FFE3
017C0010
017C0042
00960043
01C5FFF5
01C7FFCA
007FFFDB
01860012
01EA003A
01C1FFE0
01B0001F
01CBFFBB
01BE0019
0059FFF9
0014001C
0071FFE1
01DE0013
018C000D
01B2000B
0054000A
0085FFF9
004BFFB7
01D7FFD2
002A001B
01B6003B
0198001C
004FFFFF
01C9FFDE
01B7FFCA
008DFFED
00020020
01F7FFFE
01D1FFF5
00880021
0185FFF0
0074003D
008DFFF6
01F6003B
0021FFCF
004A0004
0058000A
006A0012
000DFFF3
01EFFFD7
00500003
018E001F
0003FFDA
01EBFFFA
01C4002B
01B2000E
00440005
001BFFFD
00020031
0165FFE7
01760022
0013FFEB
0002001B
017E0003
0017FFD2
006BFFD1
01DC0041
0021FFDE
01EFFFE7
019FFFD6
00260037
0040002B
01F60013
00420030
01CFFFF6
017DFFC9
01DA0034
0034003A
019BFFFA
00080030
0045FFF8
0028002C
019BFFD3
0061FFE5
0035FFEB
000FFFD7
01DC0049
00260012
01DDFFF7
008FFFC9
00A1FFFD
01EDFFC0
0069FFF8
004DFFB9
01B80037
01DC002B
000FFFDE
017C0044
01A9FFBE
018E000C
0152000F
005BFFCE
0044001E
01DBFFE0
016E002F
0067FFC8
0065FFC1
01E2000B
01F3FFBD
016DFFB9
01C9FFC2
01C5FFFB
001E0058
0006000D
0179FFD6
0171FFC5
0045FFD0
01EBFFF8
000C0014
01FA0024
01CE0019
0088004A
01E00019
018FFFC7
005C0056
01B3FFD2
0033FFF6
001DFFC4
01A20027
01E9FFC0
0171FFC4
01CBFFAD
0017FFB3
007DFFE8
00A40036
003BFFEB
01F7FFF9
01A80018
0199FFEB
0099FFE6
001E0025
01D1FFBC
0083FFBD
01FFFFF2
01FA001C
0024002F
01A20035
01A1FFF5
0082003D
0028002E
01DFFFE7
01900025
01FDFFC5
01F1FFFC
01A60019
01F9FFE7
018BFFB9
0081FFF4
005FFFDE
0077FFD4
0039FFFC
018BFFBB
01DC001F
01E3FFC1
009FFFAB
0197FFC0
0019FFEA
00860026
00340033
00240001
019E0039
0179FFF3
001FFFDC
00A60030
0052002D
0194001D
01D0001A
007A0023
0047FFCA
01A3FFE6
0090000B
01FDFFEC
00960025
01FDFFD6
018DFFB1
0025FFEE
003DFFDE
01F80022
01B8004B
0005FFDA
01AFFFEA
00620049
01FFFFBE
01820028
0063FFED
017C0032
0083FFDE
016FFFED
01A40021
0062004C
00580045
01E8003D
0167FFE4
006BFFCB
0030001E
0048001F
01DFFFBF
0068003F
018BFFDD
016A003D
00000020
0093FFC8
01D40031
016FFFD8
018FFFDD
01A3FFF3
01E2004E
0039FFDA
0061FFB6
0057FFC6
01AFFFD0
0050001A
0007FFE5
0193FFC1
01D4003A
0080004A
0025FFFF
000E000A
007E002A
0005FFEF
01C1FFB1
01E7FFE2
00560026
01FA0031
0055FFDC
01FBFFFE
017DFFF9
0035FFFD
01520015
01A9FFD3
0043FFF5
01F8000B
0001FFEA
001DFFC8
017DFFD9
019BFFCE
01F3FFE9
003FFFE2
017DFFB7
01CDFFCD
01F5FFC9
003E0017
004C002B
01D00028
01D1FFC0
00220010
000DFFD9
01DDFFF7
00900011
0158001B
01FBFFE4
017C0015
00600029
00640036
0025FFEA
019BFFD4
0009FFCD
01C60038
0027FFE7
00180025
0193FFF9
0023FFFF
00300017
01B7FFEA
0069FFC4
0033FFC4
00920037
00420024
01D5FFCF
01FC0046
00A2002E
00860042
00360020
01EE0022
0047FFF3
01EFFFEE
01DA003C
01F6000D
0031FFFC
006C0023
0018003B
0053FFB7
0181FFD8
01F20008
0170003B
01800046
006A0016
007FFFF0
007FFFBD
0039FFBC
003DFFF4
0055FFE2
009FFFF6
006DFFBE
018C0021
0053FFCD
01C20000
004DFFE2
01F00039
0185FFF4
01A9FFEE
00200020
0189FFD8
0053FFC1
0003FFBF
01B7FFB8
00200043
00240021
002A0041
01DDFFF2
0049FFCC
018DFFF8
0065FFF2
01D5FFF6
01EBFFE0
01D9FFCA
016BFFC1
0019FFDD
01DC0009
0003FFB9
005DFFD5
01FBFFC0
000C002A
01F00044
01B00047
0049FFBC
016BFFBA
004DFFDA
015FFFCE
000DFFE4
0021FFEB
00200024
01DBFFE6
01D1FFB4
0081FFE5
01740031
0073FFDC
019BFFE0
0019FFD9
004C0023
008BFFDB
01C7FFF1
018FFFF3
0039FFE3
0144001A
0041FFDE
000DFFF1
01FBFFF0
0199FFD6
0024003C
01ABFFC4
00080029
000DFFF8
01DC001C
01940017
01FDFFD6
017DFFD3
006BFFD6
01B1FFB5
00640026
01BA0018
016C000B
0033FFD9
0035FFB2
0071FFB9
0033FFF4
01760010
0045FFCB
00880017
01F80040
0075FFC5
001DFFEB
01B9FFCB
0169FFE2
000FFFEB
0170001D
0021FFEA
01CA0000
0169FFEF
0057FFD6
0199FFD8
00660016
007A002B
01C9FFCE
01B5FFCC
0057FFE8
01EE0027
0171FFF7
005DFFEF
000C0010
01E6001F
00760018
00A2000A
0021FFEC
0042001E
01D3FFFD
0025FFBB
0082001D
01C40030
000A002C
008BFFF3
015DFFD1
002A0005
0075FFC9
003A0045
01B1FFF4
01CDFFEC
0032003B
00640031
01C9FFFD
018DFFB6
01C1FFDC
01940000
01F60027
006DFFF5
019E002B
01EA001A
01FA0000
01E9FFF7
01F6004C
019A000C
0050003E
01B5FFF2
016BFFC4
0028000C
0073FFB0
01F8000E
0001FF9E
0025FFF4
01F3FFC1
0061FFF2
01BBFFDD
0089FFF9
01880034
0001FFDF
01DA001F
00160011
00560033
00260037
0017FFF4
005FFFC6
01E0002A
0017FFE2
00640019
0091FFE6
01D0003E
01CBFFF9
0096004F
0001FFD7
00100010
01EFFFE6
01CBFFD5
01AE0026
002BFFC4
01C5FFF3
005BFFEE
0021FFC8
01C20004
01AA000F
004FFFF8
005A0038
005FFFF3
0045FFBB
0185FFA4
001E0029
019A0037
0059FFE8
01CFFFE7
000C0034
0029FFEE
01820046
01DDFFFB
0020001C
01F3FFBC
01C9FFF0
000E002A
013FFFD0
01EE0005
01760040
01ADFFD1
006BFFD1
01EDFFEA
018FFFE8
0035FFEE
00080015
01BC0010
01EA0038
0051FFB9
0043FFFB
0157FFC6
01840036
000A0000
01EE0030
01A5FFEE
0165FFD2
01CFFFC3
016C0012
0016003B
0032003D
00320011
0156003B
01CA001E
0031FFBF
01A5FFCA
0055FFD2
014DFFD6
0158000C
01900047
0187FFCF
017E0024
006A0021
01CFFFC6
0195FFDE
0098000B
003FFF9D
0074000F
0063FFE6
00120046
01F3FFDF
00560017
0021FFF3
0021FFC1
01860029
01D5FFC9
00500014
003FFFF8
001A001A
005E0017
00320024
00180041
01BFFFDC
01E3FFAF
01AFFFE0
01A2002F
014FFFD9
01A1FFCA
01A7FFF1
0057FFCB
01820016
01A8002F
01AE0029
0018000D
0005FFC4
01CC0005
01C0003A
006A0013
01CDFFE6
003C0037
01F80030
0017FFDE
014C0023
0011FFCD
01AFFFD3
0047FFD7
01F1FFB0
0059FFC9
01A5FFCE
00020010
01B7FFB7
01BBFFC5
01A1FFFE
002E0022
00740032
0083FFBC
0019FFB3
004BFFBA
019C001A
01E9FFD3
0065FFF1
01B80021
00520014
00220033
00080020
01F1FFDA
019A0004
001FFFF7
00320040
009A0001
0193FFBF
00200019
000E001C
003A0033
00A1FFB7
0010000F
00700007
0192003F
0006002A
005E0021
01A40004
0053FFD3
0025FFC0
006A003A
0033FFFD
007FFFE1
01FFFFBA
004E0028
01B5FFFC
01BA0028
01CBFFEE
0181FFEF
001BFFC5
0033FFF0
0019FFC5
00800000
006A0037
01F6000E
002E0037
0052000B
01EC000F
01D1FFE0
01FFFFA1
006DFFF5
017BFFCB
000BFFD8
002A0015
01F3FFC6
0195FFC1
0019FFED
01AFFFD2
00480031
00320036
003BFFE4
01B5FF9D
01BBFFB6
0193FFCF
006E0004
01B0003A
01DA0042
01E40011
01F40008
018C003B
005BFFD4
0044002F
01B7FFD2
01BBFFFF
003E0028
005E000B
0069FFBE
01FFFFC5
0014003F
008E001A
00220050
0198003D
01B20013
002BFFD8
004FFFE1
019C0032
014DFFFB
01FE0034
01C00013
00720043
01E9FFCA
01AFFFE7
0177FFC1
0193FFD5
018A0044
00680033
004DFFCA
006FFFF6
01E5FFB5
006A0027
000C0049
017A0032
0079FFF7
00660032
01A00011
0195FFF4
01F60025
0193FFD3
0063FFD1
0013FFB7
0049FFEE
007E004A
01F20041
01DDFFF8
00720021
0029FFFB
006C0022
0183FFE5
0198002E
00520042
019BFFFD
01A1FFCB
017DFFFB
00480030
0059FFCE
01880015
01940033
00120023
0083FFB1
0197FFF3
006DFFBD
009A001B
0001FFC9
0123FFCE
01FA0055
01F3FFDC
01A20028
01C20017
01C9FFD2
0061FFD6
0065FFE1
01BFFFFB
009FFFC5
0015FFCC
01BDFFEE
01D5FFEE
007A002A
00A1FFFB
00920041
01AE0008
006BFFBB
01F80022
002BFFCD
002BFFCD
00100001
01FBFFF2
0047FFB5
009C0009
00140055
01C9FFBD
008DFFB0
01AFFFFE
0192002E
01BC0001
00920012
00C00026
007DFFF4
0077FFE3
00A6001E
0079FFDD
003E0002
0038004B
000A0006
00AFFFF4
006DFFCE
000E0024
016A001F
0007FFFD
0054002F
00700009
01EFFFB0
003DFFF4
01ADFFF3
01EC0015
0000001A
0169FFFB
01FC001F
016C0022
006A001F
01E00011
01EC000E
0009FFBB
0033FFC7
015FFFEF
006A0017
0033FFE2
0069FFF5
004FFFB9
0001FFE8
0019FFB6
00620007
0080001E
019C001F
01D1FFCE
01A0004D
00320041
01720017
01C80053
01D80012
004A0039
0056002C
018FFFE0
007C0033
018E0048
01A5FFF0
008C0031
0075FFF8
01D5FFD0
01BC0021
005DFFDC
0153FFBC
0049FFE9
0167FFC3
016BFFF8
01800039
01960034
014C0023
01C00022
000FFFE6
001E0036
0045FFFC
01F7FFE3
016DFFFF
01A5FFC7
004A0025
016C0032
006BFFBE
0035FFDA
01A80014
0017FFF2
004DFFAC
01840014
0020003A
0035FFF8
0170003D
01EBFFB3
016E0019
0183FFEF
003A0005
01E8004C
01EA0040
0057FFF7
00700025
0041FFC5
0001FFE8
01F00023
01EFFFE0
01840040
00680021
018E001D
015BFFFE
01720006
00280028
0191FFBE
0163FFF5
01C9FFD5
0041FFF0
0041FFC0
01E6001B
0025FFD2
0190002F
01C40015
01760015
01C3FFCF
0089FFE8
00580033
005E001C
01DFFFF4
01DDFFBD
01CA0015
01D20022
01B9FFEA
007E003E
01E9FFB7
009FFFD4
00740021
01A20013
001BFFD5
01AFFFB9
0011FFFC
01E4000B
00A7FFFD
01EDFFB4
01C00023
0042001E
001E0011
0071FFDF
01DE0038
004FFFF9
007DFFDF
0055FFF2
0053FFFE
01C80021
00500004
0183FFC2
001FFFBE
0033FFF5
01A1FFF8
01C6001A
002A001D
0161FFD0
01980026
002DFFD2
018FFFCA
0075FFE1
01B20003
01A0002D
01E3FFD4
01E9FFBB
0079FFEF
006A0001
0180002A
01E5FFDB
01A1FFF2
0192000A
01FC0018
00500033
00A1FFF3
00520041
00460031
0077FFF9
0021FFB5
00220014
00560036
004E0007
017DFFDF
007C0021
019FFFD7
01EFFFFC
005DFFDB
0024002A
0191FFAE
01EFFFB5
00140001
017DFFAF
01FFFFF5
005DFFFC
01280049
003DFFD7
01840027
00960007
0185FFEB
018E0020
01A5FFE3
0049FFA6
00600014
0025FFE1
01B20038
0027FFC3
0015FFD0
01AC0009
01F40023
00700043
01F5FFB2
005A0015
002FFFDA
01FC0001
01640007
00520009
0039FFCD
01B7FFB9
01D1FFD9
0038001F
0169FFB8
0035FFC8
019A003C
01A6001F
0016000C
00060032
002FFFD7
006FFFCF
01900039
01D8001F
0099FFBC
01AA0022
0013FFF9
01F3FFBF
018E0052
0161FFF7
0071FFC9
01760036
01D2003E
01B9FFC6
017DFFD1
003E0042
01D6000F
01B3FFFD
002BFFFC
01BFFFF8
0011FFC3
01740001
0038002F
0058002F
001FFFCB
0023FFF0
001BFFF6
002A0018
01DDFFC5
002E001D
01D9FFCA
01AE003A
00080021
01E1FFEE
01900024
016BFFD4
0082002C
0007FFD1
01D40029
018DFFE0
00120008
00820027
01940026
01E20032
017A0013
006DFFFD
01A0000E
01D40027
01F3FFF6
006DFFF1
01C3FFCE
01E7FFEC
007FFFDB
0003FFF2
004A0035
01EA000B
0197FFC6
01E80022
019E002A
01AFFFB8
001DFFEB
01F00013
018A0036
006E0004
0088004D
01D9FFDA
01A9FFE1
0065FFE2
0025FFFC
01EA000E
00A1FFC4
0069FFCC
0068000C
01E0000A
01E5FFE9
01F1FFE7
01F4002E
019FFFD5
002BFFF8
019FFFDA
0009FFD8
004E0029
01A4001C
0184000B
0028000E
01D60023
01D60025
01740034
01FBFFDA
0015FFD0
01FE0014
0000004A
019BFFD8
01BDFFCE
0079FFEF
017BFFB5
006A0033
01A60027
01BA0015
001C0038
0028001F
00A8003C
01ABFFE5
01EE0054
016C0011
0001FFF9
018FFFFA
0071FFF6
016E0008
0039FFD2
00740045
000A0039
000FFFB4
01A1FFE1
014A005A
017FFFEF
01CE004C
018A0041
0011FFCD
004C000E
01F00005
0071FFFF
017FFFE9
01BA0000
01D9FFE9
000A000E
01840013
01CA004D
00520048
01A80058
016BFFE7
0057FFD0
01E0003A
01AFFFDD
01CC0036
019E0039
01FBFFB8
002DFFDD
006A0033
01FBFFF8
00400002
01660047
0011FFC5
01B80041
00560018
004DFFCA
0184000A
01BA0019
01980014
01C6003A
0053FFE5
00580011
01860019
01CE0029
01D0001E
0004003F
01A4002C
01FC004C
0022000C
01A4000C
00A00039
000A002D
01E40014
0059FFC5
001E0007
00480005
001DFFD8
0179FFD9
01E40042
0067FFDF
003FFFF6
00800010
001A001B
0091FFC6
006C0025
0061FFCB
01FE0038
01F3FFC4
018E0022
01C7FFC8
00680009
01CFFFD6
01AE0041
0074003C
01BFFFE7
019BFFC6
004C0012
0055FFC7
01BC0009
01B4001E
003A0031
003FFFE6
01F5FFE1
000E0021
018FFFFC
0189FFDC
018A0002
0095FFCF
006BFFE5
019BFFF8
008FFFEE
005BFFDA
01700047
00420026
0071FFC5
0021FFEF
0041FFCA
019A0012
01AA005D
01CC0008
0007FFC0
01E0000E
002C001A
01DFFFD3
0046002B
008E004F
01CFFFE8
01F60010
01C5FFF2
0095FFDC
01EFFFF5
01F1FFC6
00400023
01D9FFB7
019DFFEF
01C5FFEE
0025FFD3
01B5FFD2
01B5FFD7
018FFFCD
0006000F
006E0007
0061FFC0
001FFFDB
01D80046
004BFFE9
005DFFFE
01F1FFED
019A0027
0079FFFB
0009FFD9
01A9FFE7
01B7FFB6
01D7FFC8
019C0023
01FBFFFD
01C20015
01D00024
01EFFFDC
00280031
01780023
001BFFEB
0197FFDE
002E0012
01C3FFE3
0190000A
0007FFEF
00520040
00440024
018BFFE8
01D9FFF6
00760049
01500000
0083FFD6
000FFFBA
008A0001
0013FFC2
0022001E
016A000D
00ADFFCD
00A3FFBF
01C1FFC1
006DFFEB
01AFFFF5
005E003F
0006000E
01F40010
01EA0019
01B1FFD7
000C0020
01E40067
01F7FFCC
00CC0046
01A1FFDA
0039FFF4
008BFFE1
0093FFCB
001BFFC1
006A0027
0011FFFA
016FFFF0
015A0062
01700043
0192002A
00820038
01ABFFF4
017C003B
006C0006
01DA000C
00100038
015DFFFC
0009FFC2
003E0017
0196004C
01DFFFEA
006DFFF6
01C1FFF8
0181FFBD
01D5FFEC
01ADFFF6
005FFFB1
01DC0019
0157FFB9
01A1FFC8
003E001E
0075FFCE
0022005D
00480046
0179FFE4
01A20023
0057FFCB
01CBFFB5
01FA000D
003FFFE4
018E0015
00540019
0156001D
01A00006
0058002F
006FFFD9
01F60022
006DFFE3
0011FFED
01A0002A
0097FFC8
006BFFCE
00840028
003BFFD6
0185FFE6
0057FFDB
003FFFE0
01C3FFD6
009E0016
002DFFB7
0013FFD8
000A000C
017DFFB0
018E0003
01C3FFE4
0087FFCE
005E0016
01FE0006
00660043
01960020
0019FFBB
0197FFB6
01F2002C
0097FFED
01D3FFD3
0187FFE7
01EDFFC8
01A9FFD3
0195FFC8
019A003A
00A6001B
0028001B
01B1FFD5
00700054
0003FFFC
006DFFD5
0000003D
004C0003
003BFFD5
0009FFB2
0015FFF2
0035FFCD
0193FFCD
0182002A
00400001
000DFFFE
007C0001
01F1FFFD
00080054
015FFFAE
01D6001F
01EA0035
017A0005
01CA0009
017DFFEE
0075FFE3
01AE0035
0190000B
01E9FFCC
01FC0010
016E0034
00140014
018FFFCF
01A3FFBF
01B80023
0005FFBD
0020001F
01E8001A
01C00010
006DFFDF
00220022
0184002C
017FFFBF
0194003E
01C0004D
0053FFFA
001E001E
0055FFE1
01CE0016
001A0008
0047FFD8
01CA000A
0195FFDB
01AA000E
01D3FFEF
01E2001B
01D2001E
019E001A
0173FFE4
019E0032
005DFFE3
017A000C
001BFFEA
01A9FFFF
0194003C
00640005
01E60004
0174000F
01920019
00080012
0075FFCF
005BFFD8
0007FFD7
00320011
0059FFBB
01DA000C
017E0007
0047FFB5
01560003
01880036
0168004B
0061FFEE
00060004
01AFFFC8
00780009
00600036
01EDFFB7
007A0002
00580016
006A0041
0063FFBC
004C0044
006DFFC6
01B8002C
004DFFEA
008E0035
0194003A
01FC0023
001E001B
00780033
002C002F
0034003A
0063FFD8
01B9FFD6
01CA003B
01AA0026
0005FFC0
00380019
007BFFD4
01E8003F
01FA0015
0194002E
01A9FFEE
005C003A
0178002B
01B3FFFA
005E0034
01FFFFB3
004FFFB9
00140027
0190000C
01CE0012
0035FFDB
01B3FFD5
0013FFC4
004C0014
005E0039
01C1FFBD
0029FFCA
01E1FFE0
01660015
00540020
01D9FFE1
0185FFF4
0197FFD9
01EFFFDB
0167FFE3
01E7FFD4
0181FFAE
00520001
00180028
0081FFC6
0084003B
01ABFFEF
01D1FFDD
01D5FFCB
01E4003D
016C0018
008A002C
00380012
0087FFCE
01B7FFD1
00760036
01D1FFEF
01BA004E
002FFFFA
016FFFAF
01DBFFD5
0029FFFB
00160052
01C60048
0089FFBD
001DFFEA
003BFFE4
0070003F
00540033
0081FFF6
018BFFEC
01B9FFDE
01D2003F
0016001D
01A8002D
0057FFBC
00840021
01C1FFB9
001C0017
01B8000E
0021FFD5
00320035
016A000F
01C3FFCC
01EE0031
0002001F
00200032
01EC0013
0043FFF6
0025FFD9
0009FFE3
00360057
01AE0011
01FDFFFB
018FFFE2
00620001
018A005A
01C60046
001BFFF0
0005FFC7
01B60023
01A7FFE3
01D1FFD0
00060018
005C0040
01F60011
0065FFC4
01E2003D
019DFFED
0047FFB6
01A80034
00200028
001A003C
01D3FFC1
00220002
009A0023
0065FFF5
0085FFFA
0075FFD0
019C0030
0039FFFD
01DBFFFD
015FFFDB
01A40036
0023FFF8
003DFFCC
0195FFB5
00A3FFDD
0079FFC8
01A1FFFD
0152003C
0187FFD6
01B7FFC8
00120009
005FFFED
01D7FFE4
017DFFF7
01FE0053
0075FFB5
01B80015
006A0013
0039FFC6
01CA0018
0177FFDA
01D5FFE3
01FC0011
01FC0020
01BE0031
01E2001B
00040006
0077FFF5
00660020
005FFFD1
00340014
0177FFE1
00320005
01C80025
0031FFEA
01F60011
0031FFD4
009DFFEF
01B4004A
000FFFF7
007FFFD3
0177FFF2
0029FFC9
004C0034
01FE0034
01CC0003
017DFFF2
0037FFF2
01C8000D
0043FFDE
01FA0040
002C003F
01820050
003DFFE8
01A9FFC5
01DA0029
00100004
01880027
008DFFCD
019A004D
0188001C
01CBFFD4
0087FFF3
017E0016
0069FFEB
018C0020
00500021
006A000A
000C0027
00360041
001E0043
002A0046
00260060
01E40004
0011FFFD
009A0023
0184004A
0037FFF2
01BA0042
000DFFE5
0068002A
00400013
01960048
001A0012
006E0049
00240046
002DFFB2
0027FFDF
0057FFCE
00600038
01C1FFCA
01E40010
01740002
00540057
01C00034
00780007
0001FFD7
01FE002D
0051FFD1
00320005
017C004D
01F7FFE8
00320007
0021FFC8
001DFFC6
002A0045
003BFFD9
0032000F
001BFFFD
0083FFC6
00080005
00940044
0008004C
0019FFDB
001C003D
015DFFD3
01C5FFD2
01420025
0077FFEA
007E0042
0184000A
0003FFEC
0053FFDE
01A0002B
005C0000
01D20013
0185FFC4
003FFFD6
01A9FFD5
01C80021
0164000D
0069FFB0
01B4000F
0059FFE6
01860011
008DFFDE
00A80025
01C4000C
0027FFDA
01F00027
01B60027
01800041
00500005
000C000C
00800037
0061FFF6
0019FFD3
0025FFB7
01A2002C
01EC003D
0185FFFF
00600027
0010002A
00520036
00540024
01A7FFF6
01900027
00500040
01D6004F
01D3FFCA
01EC001F
0017FFC8
0157FFCA
006FFFD4
01D4004A
0181FFED
01F8000E
0173FFFC
006FFFEF
01D5FFDF
0019FFC4
0014001E
0088003E
017A0028
0037FFEB
01C8001F
01EBFFE1
0016002D
0002004C
00560008
01860018
01EE0036
01FE002C
004E0029
0060004C
0015FFDD
01C1FFF3
006FFFCB
01720004
01B5FFED
01AA0055
003C003F
014A0038
00480040
002C003D
00220011
0197FFBF
0091FFEC
0001FFFD
01B3FFED
00080013
005A002A
01FC0016
003E0037
01B5FFF3
0033FFFB
0057FFD6
006E000D
00A3FFCC
01B9FFD8
00A3FFD6
0187FFDD
01DA001E
01D9FFE1
0054000D
01CDFFD6
0045FFE4
00280027
01B2001A
01EBFFC9
01A80029
01AFFFDA
000E0009
007E0028
0018002F
003DFFEE
0023FFF7
006FFFD0
01BE0043
0003FFDE
01F1FFD4
01C1FFD9
000C000B
009C0020
00080030
01A20016
0082004A
002A0013
01900042
003C0047
01C5FFC4
00320025
0173FFC7
01DC002F
01E1FFC7
01AC0019
01E00005
01F40015
00400042
01D5FFB3
0037FFD2
00700031
01EDFFF2
006A003A
0045FFE3
0087FFE4
01FC0037
01A60014
01A1FFFC
0164002D
01A60025
0189FFE5
0095FFCC
018FFFD1
00820007
0018003D
01EE0000
0047FFE4
0049FFFA
0027FFBE
0183FFF4
00700021
0021FFE9
0090001B
001C003A
01C4003C
01D5FFC9
01BBFFEB
001C0012
01C5FFE3
01760033
01EC000D
01B9FFBC
01BDFFB7
0094002F
003C001F
01B9FFF6
0058001A
0078000E
0079FFFF
003E001B
001A002F
006A0008
0013FFD9
01BDFFE8
01B80014
01920043
003FFFD8
0159FFEB
0075FFE2
01EFFFF6
01D20017
019DFFDD
000A0043
00080006
0006002C
01780006
00580010
01700006
004FFFDB
01D7FFD2
0029FFDF
0185FFFC
01C1FFCB
003A0019
00460026
019FFFD0
01C5FFC4
0061FFCA
0036001C
01E60037
001C0033
006A002B
005DFFEA
019DFFD0
01E60057
01B20005
01BC0002
0019FFDB
017DFFEA
01D40012
0038000F
0185FFB9
004E0024
01AC002B
01AE003E
005FFFF5
01ADFFD2
0181FFCE
0061FFF7
0071FFCC
00220034
00400031
002C001F
0043FFB4
00140027
01B3FFE3
01A3FFB6
0019FFF4
0052000E
00160013
004A000D
01E5FFFD
01EFFFFB
01F2002C
00280006
0024002A
0175FFC9
00580034
01C1FFD4
01CBFFD9
004E0005
00560023
01A80002
0025FFC2
01EE002E
01CBFFEB
0065FFCB
01ADFFC3
01EDFFEC
0037FFED
006BFFD8
002FFFE1
01E7FFF8
000FFFAE
01B8002B
0028001E
01E80029
0185FFF6
0077FFF4
003A004B
01A80025
00680030
0199FFFE
0025FFE5
019C0010
015A0025
0001FFF0
0185FFFA
01E5FFF0
01D8001C
003A0015
004BFFC1
0048002C
01D9FFE5
0189FFEA
0199FFCA
019DFFE9
0157FFE2
018FFFF3
001C0012
00600031
0170001D
000C0023
000A000D
016FFFFE
0196001F
01BFFFC9
01780010
002BFFB8
01860036
0053FFD0
000E001A
00560014
01F3FFEF
002C0010
01D2000F
000E004D
00540039
0017FFBC
0039FFDE
01BE0016
01B7FFE1
01C7FFC0
01EDFFF2
003FFFEF
007A001D
005C0003
01C40026
0074001C
006DFFC5
01CBFFC4
0189FFDA
01D5FFEB
018C0056
00820002
0023FFF9
009C0001
00A7FFE1
0055FFE7
0001FFD9
0015FFFD
0035FFEB
002FFFDA
004E000E
0048002A
0049FFF5
01CFFFCB
01AA0030
0079FFF9
0007FFB8
005DFFDB
00C0003E
01FA0035
01B7FFD0
00220002
004DFFF1
0195FFDC
01B5FFF9
01BE0024
00440009
0002003D
0027FFCD
01F20002
01A00016
01A40024
0070001F
006E005D
01380035
0009FFF1
004FFFE5
005E0016
019E0028
00BA003E
01D3FFE5
002FFFDA
009BFFBC
0006003A
01BA0020
00020016
00460041
01CDFFDB
0164003A
0026000E
0176000C
0185FFCF
01B1FFE7
0003FFC5
00420013
018BFFE1
01EA0038
0183FFF2
0008002D
0188003A
0011FFBC
018BFFCC
0084002A
0097FFEB
01D5FFFC
003BFFC4
0071FFF7
01F40033
00380042
00000048
01BBFFE2
018C0039
01EBFFE5
01ADFFCD
01C5FFE5
0004002C
0161FFDF
0170000D
019DFFE0
01B1FFD1
0095FFF9
01900028
018C0016
00620009
01D3FFE5
01BFFFD9
01E20028
0003FFB2
000C0016
019E003F
01A5FFD2
01FC002C
004E0048
01F7FFCE
0084000D
0195FFE9
01E00007
01D0001C
0025FFCA
00040030
01BC001A
01B9FF94
0025FFBE
01FC0055
01AA002A
01DC002D
00000028
002FFFCD
008FFFD0
01980014
01B5FFEB
0181FFAE
01920005
003DFFCE
01B40022
0195FFBD
01BA0042
018C0027
00660007
000A0020
0039FFC1
009A001C
004A0031
01ADFFAA
01E20013
000BFF97
01F3FFC3
0046004A
002DFFB0
01C20013
016DFFE6
01D7FFFC
01E9FFE0
01AA002C
01EDFFE1
0087FFB0
003DFFAF
01D7FFD3
0012001C
01EC0007
01640017
01F5FFE1
00060025
008BFFED
0064000C
01E00005
01D20028
01ADFFF2
000DFFE7
0188001D
0043FFBB
0193FFC6
007FFFE3
005BFFE6
01B80014
00400002
002DFFF4
00060036
00B9FFF0
019E0044
004E0034
00380023
01E1FFA5
0059FFE9
0077FFD5
01FDFFC4
004A0032
000C0038
00B60009
01B4002B
004E002C
01E3FFCC
0051FFFA
002BFFD3
01FE0022
0190003D
01F2001E
0014003E
003BFFE5
015C0034
01EA000D
01F7FFF4
01AFFFD5
0187FFD6
00460025
01F3FFE3
0029FFB2
01780012
0177FFA9
01E40027
01A9FFDC
0058002C
01DE0018
01B40038
01DFFFC1
0087FFD0
0055FFF7
01B80011
01F80017
0017FFB3
0029FFE7
001C0048
01C60046
0078002C
0175FFB3
0095FFD9
01F20034
00340021
0061FFD2
018FFFC1
01F5FFB5
01F9FFB4
005E0015
01DE0016
01B3FFC0
006FFFAD
00820010
004C0009
016E002C
01E40027
006FFFF1
0151FFAE
00340027
0053FFA3
0199FFDC
0013FFED
01EE000D
017E0020
01A3FFEC
00080000
016FFFD3
01AFFFE3
01EDFFE6
01DE0021
01C9FFDE
0030000F
0021FFAE
0004000B
01BC0021
01D5FFDF
0009FFD9
0027FFE6
01A20019
01FA0050
017FFFE9
017FFFF1
00020008
001FFFBE
0015FFD2
01FC0039
0095FFEA
01D20001
0033FFB6
0033FFD1
002C0047
018BFFF8
01E7FFF9
01DDFFDB
015A0003
01B60027
0031FFC1
0095FFDF
01E7FFD1
01C6003C
0045FFB5
0052002F
01DFFFE9
002FFFF3
009BFFEC
0197FFE5
01D5FFE6
000DFFFB
019A0040
01CA005D
005FFFFD
00840040
001C0001
01F7FFDB
005C0023
01D9FFDD
01AA002F
01E3FFC6
0056003E
0083FFD8
01F7FFF0
018FFFFB
002E0021
0171FFD6
0053FFC8
0085FFCB
01BBFFFF
00000029
01F5FFE5
0137FFCD
014BFFFA
01E20017
000E000D
0181FFF4
0192000E
01FA0036
00820011
01EBFFFA
0061FFED
01E6003E
0168005A
0029FFED
01C20030
0018002B
01A8003F
0041FFFC
0003FFD2
01D80029
01E9FFCF
0185FFB7
018A004A
0165FFE6
01E7FFD1
01F1FFC8
01F20020
0000001A
0079FFD6
0029FFEE
01BBFFD5
019FFFCE
019E0006
0091FFD7
0028001C
00A00049
0030001A
006FFF96
0187FFBD
0034003B
0043FFC1
00B60027
00680017
0044000F
01C7FFD2
0084002F
01C9FFEE
00520004
0069FFEF
01DBFFCF
0071FFBE
002BFFB7
015A0000
0015FFDD
01EBFFDA
0034001D
009BFFFE
0007FFEB
01920048
001E0042
00360022
00640004
01F40029
018FFFE4
006C0027
01C3FFFE
0056000A
0033FFFE
01CFFFCC
0035FFF9
0035FFDF
01BC0018
0007FFE6
0053FFFB
01F2002C
001C0003
0050003D
006DFFCA
000E001F
01C60009
0055FFFF
01EDFFC8
001C000C
0183FFCD
017DFFCC
003FFFB7
01F6003F
00520038
0021FFFB
01EA0006
00820006
00640027
00A40002
00420004
0007FFBF
01B20029
0007FFC3
014E0027
01AA001D
01D80030
0013FFD2
018E0036
002A001E
0074002B
01FC002E
019C000F
018E0000
00500012
0037FFB7
0053FFEC
01FA000E
01D0003B
003A0000
0068002E
0039FFF6
0189FFB5
0041FFD4
0193FFB3
01B20029
0048002E
0085FFE9
01B7FFB5
019E0028
0165FFD2
0013FFD9
016DFFD2
01AA000D
01CDFFED
00380001
004A0045
017FFFDC
00580024
01A60016
000A002A
0041FFB1
0069FFC5
005E001E
0003FFE6
01D9FFEA
003E0036
005DFFE9
005A0053
01460029
00040040
006C002C
00560018
00380028
003FFFD3
01A20013
019BFFE3
005C0015
01BFFFD9
019A005A
0185FFCF
01C1FFE0
0042002A
00120034
00720004
0055FFF2
01FA000C
004BFFD7
01D40028
01DC0003
01AE000F
00B20025
001BFFEA
001DFFEB
016A002F
001FFFD8
019DFFC5
0065FFBE
01B4002B
0050001A
006DFFCD
0033FFFC
00560041
01D1FFDC
00880032
006DFFF6
01F9FFCF
005A000A
01EE0014
01FBFFC5
01D1FFD7
0084000D
00060038
01F1FFD5
004BFFE8
01A3FFCC
00260028
00360014
0003FFC3
01ABFFC8
00660021
000E0045
0065FFB5
01940007
00260010
01AFFFD7
01820004
01ABFFBD
0049FFE9
0033FFF7
0169FFD2
017C0028
0064002E
01C9FFFB
01D20008
001BFFF1
018FFFDC
0055FFF0
0073FFC9
015DFFF8
01C9FFE3
0046003C
01C20058
01B00005
004A003A
01F9FFE3
001C0015
0021FFEE
00380000
01AC0046
01840003
01B6000E
001C0019
003E0023
01D8000E
01B2002D
019DFFE6
005DFFE4
01DE003E
006C0002
019A0033
018BFFEB
0041FFDC
01D7FFFE
005BFFD3
000C001A
0083FFCF
01F40012
019FFFD7
0036000B
01F5FFF3
0033FFE6
01F7FFF9
005FFFC9
01900007
01F00018
01A3FFCC
003C0011
00780019
017DFFCB
01B6000B
00540024
019E0013
0034002B
0048002A
00580054
01CFFFEC
01DE0006
01D6001A
006DFFC7
00960013
01E80000
0063FFDC
01A9FFA5
0034001D
01AC003B
00660019
01E5FFDC
01EE000D
01960021
018A0017
01B7FFF8
001DFFA2
0067FFF2
019C000B
01E7FFB4
002DFFD3
001BFFCB
01EBFFF9
000DFFC4
01840001
00BE002E
0055FFC8
00480011
01B5FFEE
003E0016
01F20023
01AFFFEE
01D6000D
01FC0013
00040015
001E0000
00740024
00C60004
002DFFDC
004FFFF1
0014000D
0063FFEC
0009FFE8
01F0003E
01DDFFDC
01CA0021
00420017
01AC000D
01DFFFF9
001A0006
01C1FFD9
0096001A
00320030
005E0032
00220048
01660049
018DFFE9
00720012
00660035
004DFFE4
00380010
01CA003D
01A60034
004C004A
01FBFFF6
002DFFCE
01A7FFFD
0155FFCD
01F80030
01FFFFF0
0035FFF6
01B5FFC9
0032000B
004C004E
0023FFC6
006C0021
000DFFAF
00400035
000BFFFE
01ABFFD1
01960025
01B5FFE2
00740016
01A5FFB1
000FFFC1
0153FFBB
01F3FFBF
004E0028
01B8000B
000A004F
0055FFFB
0169FFC5
0013FFDA
01F40041
00300030
00860024
0165FFFD
0000001D
0186004C
007DFFF5
01E60036
01BE000B
01E9FFCF
0097FFCA
001BFFC4
01BFFFF6
01EDFFEB
004DFFAF
01F2001D
0151FFCB
004A002B
0003FFD7
0007FFC2
01EA0013
008C000F
0181FFDE
005A0000
008FFFDF
00180010
003DFFC0
0185FFD7
01C60005
01B3FFF7
001FFFF3
00240024
01EFFFD2
002E0034
01DFFFFA
006FFFCD
01ABFFCF
005DFFD2
00A5FFFA
0189FFE6
01C3FFAB
01C7FFFE
01C6004A
01E20015
001E0017
0055FFE3
01FC001A
001DFFD3
005E0008
01CBFFB5
002C0015
01BDFFC0
01DFFFC4
01F9FFF8
01FC0025
004E0046
002A002C
0013FFF1
019BFFC1
01AFFFCB
01B00022
01B80010
001A000F
01B6004A
015C003C
01FC003A
01FE001D
0037FFD1
00880007
0080002F
01A80062
01900027
001BFFE5
000C0024
01CBFFEA
01D7FFCB
0177FFFF
00B3FFFB
00960007
0093FFFA
01D9FFD2
00780024
00B3FFEF
01C1FFE2
0033FFED
00360057
00840010
018DFFF3
0021FFDD
01F60030
00280008
01E7FFE2
01FBFFCD
0183FFE1
01C8001F
01FDFFCB
00160006
002A0033
01B5FFE2
01BDFFE1
002E000A
00A5FFC9
0061FFDA
01DC003C
0012003B
005DFFDB
003E0027
01C7FFF5
01C5FFF8
01BDFFF0
00460007
01D6002C
01D80011
0061FFF0
00920014
01C9FFF7
00ABFFC5
00000006
001DFFD5
00360014
0019FFD5
01EC002A
0023FFC1
01D0001E
0049FFE7
01F7FFD2
01D60012
016FFFEE
0185FFEB
001FFFBC
01D20021
0069FFFB
01E4000F
01EE0017
01FDFFBB
018C0033
017E000E
01A8001F
002DFFEE
017DFFCF
01D60029
0062002C
0047FFD2
008DFFF7
005FFFBD
0161FFDA
004A000E
0047FFC4
0035FFFA
006DFFE7
01B0000B
0027FFDF
006C0019
000FFFE2
01EBFFCC
0179FFF6
0003FFD5
01E1FFD1
0043FFCC
01F0001C
007C003C
0183FFDC
000FFFF0
01E60031
001BFFF4
0080000F
00200046
01A00024
0020003F
00460039
0001FFE1
01EFFFCF
006C001E
00480048
00A2003E
0035FFE6
01D00014
004BFFD6
01D20047
002BFFC3
017E0003
002FFFEC
0057FFE7
01AA0000
0031FFC0
00560018
00000055
00440030
0094000E
009BFFE6
00200013
005DFFD3
01D40006
01A40030
01C8002A
01A9FFC4
01F4000C
009E004C
00280010
0085FFF4
001E005C
00440056
009C0002
00420043
0021FFD9
01D1FFDE
0097FFED
00B80018
004DFFDB
0019FFCA
00560053
01C5FFD4
0089FFE2
0073FFE0
0027FFE2
006C000A
01C9FFE5
00420027
0186000E
000A002F
01BA001B
00080032
01E20008
00760029
01B5FFFC
01E00000
0071FFF6
000FFFEC
0057FFDD
01F00032
01A3FFC9
004A0042
0192003F
006DFFD4
0017FFDA
01BFFFE2
017BFFCF
001BFFD3
000E001C
018E0007
01B00055
005BFFEF
00120013
01880002
0090002A
01A60010
006FFFD6
019FFFD9
01E00030
000BFFF2
01F3FFE6
002C0029
0081FFFB
01AE0043
003C0056
0026003D
001C005B
01B80031
01EA0035
019A0037
0187FFCA
01F60014
005C0006
0066000D
0016003E
0031FFE2
00660014
01CBFFCE
016FFFCE
00140025
01D2004F
0087FFCD
00620046
00200019
01CFFFED
007A0025
018BFFBB
007BFFCC
01E1FFE8
016C0011
01F60013
00700027
004A0047
01F1FFD7
000FFFF8
01860038
019BFFF2
0069FFC1
01700007
0183FFDF
01E60015
01CDFFBD
0061FFBF
01EA0010
0054002B
006A000D
002BFFE7
004E003D
01FE000F
009FFFCD
000BFFFC
005FFFB1
003DFFAB
0067FFEE
015E0017
00440007
0173FFD4
0077FFB1
01F20004
01F80035
01CA0006
019A000B
006A000B
01F9FFCB
0019FFF2
01A80017
01DFFFCF
01820016
008E0005
0027FFFE
01D5FFDE
01DA0001
014A0010
003E0012
0093FFBF
01D7FFC5
01C60015
002C000C
019A000D
006C003C
01CE0009
0079FFCF
008DFFD6
018C0041
00740018
01860012
00A80042
0045FFD1
0087FFE5
00B1FFB8
002FFFEB
00080031
00080036
0036002F
006DFFE3
00A0003D
017E0010
0039FFF3
0192002D
00260016
0029FFEC
00620042
005A0029
01EBFFCD
01DBFFE1
01FDFFF6
01D5FFED
0025FFEB
0013FFF5
003C0006
00A40052
0035FFE7
0046003D
016BFFDE
01500045
0189FFFF
01D5FFC5
00640020
015BFFF9
01C9FFFC
0187FFCB
01A40008
006A0053
017C0037
00240053
01CC0045
0187FFF4
019FFFFB
01AA0046
002A0046
01D8004E
00000008
0182000B
0070001E
00460034
01EFFFC9
006E0016
01FA000E
0064005E
01B00005
0024003D
01AFFFFA
0188002A
015FFFFA
0153FFC8
00140027
00A3FFC7
0016000A
01CC000A
01EA0000
00120006
00520018
002BFFBD
01CDFFE2
01FC001B
013BFFB7
0159FFA9
01F00026
0177FF9D
009E0015
016A001E
0067FFDB
008BFFE8
016BFFEE
01FE000A
003DFFF5
01680007
01CFFF91
0189FFB2
0078002C
01F0001F
0085FFB5
01ADFFE7
0009FFDE
019DFFE9
002DFFBF
01D6001E
01B7FFE6
00360043
0164000E
017DFFF3
019BFFE1
01A4001C
01A5FFF8
007A0026
01EE0003
0041FFCD
01EFFFFA
0053FFCD
004DFFFB
01ADFFF1
003A0043
01C3FFDA
01D2004A
019BFFE6
01B5FFEE
01DBFFD4
01E5FFC5
0197FFDF
003A003A
01ADFFFD
007DFFE9
0074000A
003E001C
01C9FFFF
0002004C
017FFFCA
0178003F
01C9FFFD
0175FFBA
01FFFFFA
00B80026
01E3FFBA
00680038
01FA004C
00380007
01A8003E
01F8000F
01800005
006A0028
0037FFAB
01FDFFB4
01A40007
00BA0041
00A9FFCD
0065FFD4
01F3FFFD
005A003C
0021FFC4
0029FFCB
0046001A
00000018
01CBFFCF
01A2001E
016FFFB8
00420031
01F9FFE4
00300022
008C0029
003C0011
0063FFFE
0076000F
01F00037
0020003E
01A60014
0085FFAB
00ABFFD6
00400030
01C7FFE6
01C3FFE6
01B40014
01EBFFA4
01BA002F
01640010
0079FFAC
01CA0009
001FFFDE
002BFFDC
01C2005A
01F40005
002FFFD8
004FFFCD
0054003C
005BFFB5
004BFFCC
0003FFE1
0197FFEF
0008002B
01F7FFFC
01CE0023
006C000C
0051FFD9
016A0023
0197FFD3
0185FFCF
0087FFDD
004E0023
0177FFF5
018A0020
01940036
0040001A
01BE005E
00280048
01DDFFC7
005FFFFF
01E8000F
016C0052
01BE002E
019BFFE9
01E5FFBB
01F3FFFB
01A5FFE9
00320041
01740028
005DFFFE
01D80036
00200004
006BFFBE
0081FFF1
0064001E
015DFFD0
003A0027
0197FFEE
0009FFF6
01FC0035
01E9FFFD
0199FFEF
00280000
0088002F
019C0039
0189FFEC
01AE0027
01CFFFF7
017DFFE3
0039FFBE
005DFFB7
00640021
0009FFB5
01FFFFE6
01700034
007A0015
00560037
003C0037
00A3FFE2
00360055
01C5FFDA
01BC0039
0067FFFF
0199FFD0
01F7FFEF
00920024
0187FFF4
00760056
0199FFD6
019C0039
0082004D
01EA004C
000FFFEA
001C002F
01A40043
015E0011
001FFFDC
0053FFC6
01E2001B
00360053
01EDFFD3
01B1FFFF
00540043
019E0031
0197FFF1
003DFFBA
016E0018
0027FFBB
01560002
01C1FFF6
01FE003A
000A000F
0011FFF3
01E20044
0067FFF1
00520011
01EDFFF7
000DFFF3
01A40015
018DFFFA
0019FFCA
01940024
01D6002D
01F1FFEA
01DC0013
01D40014
01F1FFD6
006C000D
0061FFB2
01AFFFCD
01A7FFBF
0195FFAD
01B80012
01FFFFC1
00B00000
008E002C
001DFFAF
01B7FFEC
01DBFFE9
01E5FFC2
01DE002A
00A20011
008FFFCC
01980002
016FFFED
0171FFDB
00A60014
01B5FFDA
0078001F
01D8001A
01A5FFC7
00BFFFC3
000FFFBB
0070001C
01CA003F
01D1FFCB
014C0018
0032005D
01E6002E
017C0039
002C004C
00840055
01A8000B
01CE0028
01C80026
003DFFD0
01E8001B
01B6000E
01CC0001
00380034
01F7FFDA
01AA0064
0032000F
01A2003F
001DFFD1
00660011
01BC0014
00060031
002A0036
00600015
01D5FFFA
00540045
01F1FFDC
00800025
01B3FFDF
01B80016
01A60006
00220037
01EA004B
01940000
01D9FFFB
01E9FFDC
004BFFD3
01B0000A
007A0037
0096002B
00560041
0054004E
0087FFEA
01B5FFC0
019E000D
019C0005
0081FFEC
000E0017
0035FFFD
0191FFDC
000C000B
017DFFF0
01F40041
01DE0038
0049FFC5
000DFFC8
00620020
001E0002
01F80033
01E40040
0056001C
00440035
006DFFBD
01EC0019
0188004E
006A004F
00440029
0035FFDE
0196005C
01E8000B
016DFFE8
01D80034
00760043
01AA0039
01D6003A
00660051
01D5FFED
01BE0039
001DFFD9
0027FFF0
0004004C
01A60029
0027FFBB
019A003A
0171FFC1
0053FFD7
01D3FFD9
00740007
01DFFFF1
018BFFE7
01CDFFE5
0187FFBB
0065FFF7
01A7FFCB
01D3FFF1
0037FFF7
01A9FFC4
008E0006
01B40008
0049FFAC
0095FFE7
01E80038
004FFFF1
01F8002E
0063FFD2
0005FFD1
006A002F
00420001
003FFFE3
015BFFD8
01F8000A
0175FFBB
0016001C
003E0016
01D9FF9E
01ADFFC4
0042002C
01B3FFD2
018DFFD0
01B7FFE9
01CBFFC1
005E000C
01A1FFCD
01B80015
01E5FFFB
019FFFF4
00300027
003A0000
01C00046
019E003B
01D20059
005A001F
01C00021
0024000C
01EDFFCD
0041FFE6
00280005
01B1FFE7
0199FFF5
0041FFF3
0025FFC9
01CA002F
00960019
009C0031
01D9FFE2
01EFFFF9
00640015
01DA003F
01EE002B
01D60037
0064000D
00140016
01BC000F
01C7FFBA
01E3FFB3
01D1FFED
00B00003
01AFFFD9
004C0050
004DFFFD
0069FFD1
0187FFBE
0186002C
01E60017
0067FFDD
0031FFFD
0091FFE8
001DFFF5
003E004F
007A0024
0007FFF4
0197FFD1
01D7FFD6
016E000B
01A20043
01E5FFDB
01BA000D
01DC0005
01BBFFD5
01B5FFDC
00480020
0033FFD6
018A0039
01AC003D
016C0045
01940000
00720006
005E0002
0035FFA1
01A20029
01BE0015
0049FFE4
01AFFFD2
0035FFBD
0197FFDF
00A2002E
01F4001E
01E3FFBA
01C40016
01CC0009
01B60014
0051FFDB
01C9FFD0
001FFFF2
01B5FFBC
0048003F
0033FFFE
019A0006
0099FFFC
01D6002C
01AA005B
0065FFF7
0015FFB5
006BFFDC
00120031
017FFFCE
00240004
0009FFC3
0019FFBE
01EBFFF1
005DFFE0
0087FFFC
000DFFD9
0003FFBA
0009FFF5
0011FFE3
0012003A
00780038
01840039
0055FFC6
0077FFD0
019C003F
0037FFB7
0023FFC3
007DFFCF
0083FFCF
00720011
00260017
01BA0031
00620015
00560022
0075FFED
01BE002B
01AC0041
01AE0027
01C3FFAB
0008002D
000FFFD8
01C7FFFA
01F60038
01CC0033
01AA0061
01760018
0187FFCF
008FFFBD
01B40023
000BFFEB
01D80001
002FFFBF
01F9FFBF
01C00039
00360052
01B7FFDD
01580001
01E3FFD2
01CFFFC0
01AA003D
0171FFCF
0069FFFF
003DFFF4
00020023
01400036
001FFFF9
0034003A
019E000A
018DFFB7
00520028
0089FFCF
0097FFE4
005A0033
01BFFFE3
004FFF95
0010001F
0002002C
01F0000B
005DFFFC
0017FFFE
002FFFF2
01B3FFB9
000BFFBD
005FFFB1
0019FFEB
00A0001A
01EA0000
01C1FFAE
01DDFFD5
00CC002A
0011FFAC
01CC000E
01C8000B
001FFFCD
0096001B
005FFFC5
01F80017
007DFFFA
01E7FFF7
0029FFE3
01B3FFBE
01EFFFEA
0067FFFA
01BDFFDF
00340048
006A0037
01E00036
002A0036
005C001C
00A3FFB2
005A000B
005BFFBF
0149FFBD
01D00001
019DFFDF
00420001
01760054
00560024
0177FFE8
00180027
00860048
01A3FFD4
002DFFCB
01EC002A
01E4002E
00780032
01D40021
00360008
001A000D
00020005
0013FFDC
01A5FFF3
01D3FFCC
0041FFB7
0037FFFD
01D40002
0176003E
01B3FFC2
01A9FFE6
006A0011
00980003
0014000D
01A00003
003C0027
0031FFF9
005DFFD1
01E00000
003BFFE9
0041FFCB
00380057
004DFFC9
01E40002
01860007
01FC0047
0032002F
0051FFCF
01B5FFE6
01C9FFC6
01E6002F
01D7FFCE
01D5FFC9
007DFFE0
00600044
01C00033
01AC0032
018DFFB2
00320024
01960023
01A9FFE3
0053FFDD
00840008
008BFFFE
0063FFEE
0005FFC3
01F0003B
01A7FFE8
018C002D
0039FFE7
019C000F
0017FFF0
007A0022
01A5FFE6
0189FFCA
01FDFFB9
00260003
00300018
0006002B
0001FFD4
0021FFF6
01C6001E
0069FFB2
00260009
01D9FFA9
01AA0005
01940006
01D3FFA4
01AC000D
0001FFE6
0087FFCE
01B20024
01800005
007A0042
017E003F
01F8000B
0011FFF9
0019FFE9
01CBFFC1
0069FFB5
01720015
004A0014
01B0001D
01E7FFBE
008FFFF9
01D1FFF1
0009FFC2
000FFFE1
0019FFEB
01F5FFDA
01B9FFCE
0001FFC8
0165FFD5
01B60029
003E001C
0079FFD9
0027FFF0
01AFFFE7
003A0011
0048003E
00400038
0189FFCF
01FA0042
01E3FFE1
0023FFD1
0043FFE7
01DE0035
0055FFD5
019DFFF3
008BFFF3
01AFFFFB
01A3FFD6
01E20018
00220047
002C001A
00460027
0038002E
000C002B
01C1FFCC
0168005F
0082001C
01B0004F
00520052
003FFFFB
0025FFEF
01D5FFD7
0072002C
0005FFF3
0025FFB9
0074001D
01F5FFCC
01E20004
00400009
0017FFF2
000BFFE4
000FFFD9
0057FFCF
004DFFDB
008A0023
0188002F
00400012
008DFFDF
00480002
0059FFFB
007C0031
002C003D
01D00030
01A00011
0065FF9C
0074000F
001FFFE1
01EFFF9F
002C001C
01C7FFCD
01F9FFEE
01DA0030
00780016
0184000B
01E7FFEF
00780027
01A5FFFF
01FFFFD5
01F5FFEC
0174001C
01EDFFE3
01E9FFD0
01D9FFC1
01C60037
017DFFDF
0019FFBD
01E0000A
01D1FFFB
00680041
006BFFEE
00460011
0171FFC5
0191FFC2
0195FFFC
0189FFE3
0085FFBA
01E6001B
016DFFBD
00140022
019E0013
0071FFE3
016DFFF7
002DFFD9
01540046
0196002B
005C004A
0039FFE6
0070004D
0071FFEB
0014003D
00560016
016E0001
01FC0014
014C0009
014FFFE2
00060024
01FE0061
006E001F
01920003
00020007
01E2003C
0063FFB3
005C0006
016E0030
005BFFB6
01960001
01A7FFEE
0179FFE7
01CFFFD8
01A60054
017DFFE9
002C0039
018C003A
01A9FFDE
01C6003B
01DE002B
0183FFFF
019E000A
00140016
01560014
01B7FFD7
01DFFFE9
0197FFFE
017BFFCE
0178001F
01A80043
01980046
01F3FFE9
002A0025
01DA0011
00780011
0171FFC6
00460026
01B1FFC3
017E0025
002E003D
01CA0008
01FDFFD1
0082003C
01C8002D
01E00005
01ABFFDF
016FFFF7
016E002C
01B4002B
01DBFFDF
01BC001B
00100024
01D1FFE3
018DFFEF
01B20045
00580044
0188005E
01FA0035
01D9FFE1
015DFFCE
01E2002B
01EC000B
0019FFB8
016C0043
007C001A
009DFFCA
01FA000B
00600040
01E7FFDE
00600051
00160048
01F7FFE9
0057FFE9
0045FFF6
01900023
0177FFD0
01960046
01880009
007BFFF2
0021FFFD
01FDFFB2
009FFFE5
00320002
00880048
01C9FFF4
01F1FFD3
01D80000
003E0037
0043FFB9
00620006
0177FFCC
005E0034
0199FFAC
005E0014
0165FFC8
0052003F
0185FFC2
007A0006
0192001E
01B20028
018DFFE4
01E5FFEA
0005FFEA
0066002E
00200042
0000002E
005BFFF7
0193FFF8
00520041
00680044
006C0051
015BFFEC
00100022
0077FFEA
0171FFFB
01FC001F
018FFFE8
01520059
018C0057
01C1FFFE
00160056
0069FFE5
01CDFFD6
013FFFD6
01E9FFE3
01CDFFC9
00760018
01EA002B
0065FFCC
0047FFCE
0037FFEE
01A00026
0071FFDE
01CDFFCA
004BFFDC
0045FFD5
002DFFA1
01ADFFC2
01AFFFFA
0055FFF1
01F20033
01FBFFF3
01740043
0023FFFD
0029FFCA
0199FFD8
01F40010
00280007
01880038
01D2000D
0083FFFD
0029FFF3
0191FFF1
0029FFB1
0013FFF5
01ADFFEB
005FFFEF
005C0031
01A3FFC8
01E00049
0189FFB8
0065FFF1
006FFFDD
01F9FFF9
0188003A
01BA002A
01DDFFD7
00220027
01D20049
01CC0029
00640003
0054002D
019C0042
0184001F
00360014
0191FFA9
0058002A
01AFFFF6
0015FFEB
00500023
003BFFC0
01FFFFEE
01C9FFEC
01E3FFD1
0193FFCE
00720000
007BFFE9
01F1FFEB
01960011
00480021
01F20015
01D7FFD3
01B4000C
00560023
01A40012
0191FFDF
01B20033
017FFFE3
01D3FFEE
01EDFFF7
0042004D
01D3FFBA
0063FFE8
008A0006
01F80043
01AC0009
0087FFE3
005BFFF1
001E000E
01A5FFF6
01AE000B
0008000B
0017FFDC
01E1FFDE
01EA0023
01460008
01EC0023
01EFFFE1
0069FFF2
01F2001D
01C9FFFE
01E7FFFA
0041FFA9
01B20010
01E3FFAA
003FFFCE
017BFFCE
015BFFE0
0160004E
005BFFE7
0033FFDE
019E004E
01FFFFFB
0061FFFC
0067FFCF
0005FFAA
008BFFBE
019C0047
008BFFC2
01C2004E
003A000C
0183FFFE
0001FFD4
01A7FFED
01A9FFE5
01E20008
004E001B
0162002A
01EDFFF6
00120030
015DFFF7
01F8000F
0021FFE0
01FA0033
0074000F
01EA001C
01D40014
019C0038
00160005
01AA0000
01A5FFC6
01D00003
01FFFFC9
0170000E
01C0002E
01D3FFC8
00340027
0041FFFE
0030002B
01FE002D
0183FFD3
0050002E
000A0035
0085FFC2
00660041
0071FFBD
007FFFF0
01C00033
01C20021
006A0010
0050001D
00680000
0023FFC6
0193FFBB
00380016
018E001D
0006001B
000C0030
0079FFE9
01A5FFED
007BFFB3
01AA0022
0064000B
018C0031
0040001C
0007FFCB
017FFFF9
000FFFF0
01C7FFE5
01EDFFD9
01CE0039
000DFFFA
018A0025
0070000D
016FFFF7
01D20030
006BFFC4
01B60029
01EC003A
00240006
007E0015
01A20028
01E40039
01E40036
00300046
01EE0017
01B6000B
0012001B
0047FFE3
003A0013
003A002D
004BFFD6
00640051
005FFFD4
0189FFD4
01B8000C
01EE000D
0183FFFA
01D40051
0067FFC8
016E0051
0075FFD2
01F1FFDD
0075FFD2
01560044
004FFFD6
01E7FFFD
01F60026
01BA0014
0181FFE9
01CC000B
0163FFDA
0021FFF3
01BA000C
01EA001E
0075FFC4
01D5FFBB
0187FFC4
0046003F
007C0022
006FFFD6
018BFFE1
0059FFFB
01960023
01EA002F
0057FFC7
004A0025
018C0020
01EDFFD3
01E80003
00040020
018E0025
0053FFEB
0003FFE1
0005FFEE
01B7FFE2
0070001B
00820013
018C0011
01F1FFE2
01A7FFDA
005DFFE5
0043FFC4
01AE003C
0079FFCB
00660035
01D5FFCE
00860025
00400024
01960034
01F00025
01D5FFDC
01CDFFBF
00000041
002E002C
0018001A
0081FFE3
0086000F
01EBFFE1
003FFFDE
01C4003D
002C0038
0199FFD6
01DFFFDF
01A20014
0065FFD6
01C60008
0023FFDC
006E0012
01D20015
01DDFFFA
01880029
006A004C
01CE0005
01FC0040
006FFFEB
01DDFFF1
01D1FFE8
002E0057
01E3FFCB
01A7FFFF
001BFFF6
01DFFFB9
00440002
00020009
0178000E
00540028
01D0001F
01EA0008
004A005A
01A00044
0167FFF2
003A0015
003BFFF2
019DFFFD
002FFFF3
01E60022
01C1FFD6
0047FFBD
0063FFF3
0038004A
0058003F
002DFFEA
01EFFFDC
0045FFEB
00080000
0063FFBD
001BFFB1
01FA000F
004FFFD4
0045FFE7
01540009
01C60045
01E60043
00B3FFCD
0091FFC2
00B1FFE1
001DFFBB
002A001D
005DFFAF
01D80004
016A0016
0065FFE1
004BFFE2
01B00021
00020005
0075FFD3
00CDFFD9
00A00010
000C0049
00B5FFF0
01EC002A
005E002D
01AC002D
008FFFD1
004E001D
00460017
0033FFE3
0092004E
000C0001
0191FFB3
003FFFE7
00240022
0051FFDE
001E0034
01F9FFDA
01DA000A
0026002B
00280022
0045FFD1
0047FFD9
0062003E
01E20019
008BFFDB
01E4001F
00780000
01D60008
002C0014
01C5FFBE
0011FFE2
0017FFC7
00C80006
0087FFB5
0035FFDD
0042002B
01E40037
017BFFBB
01FC000D
01940015
009BFFFF
0053FFE9
009C0003
0029FFAF
001FFFF0
01EBFFC5
01E7FFE6
0044003B
0199FFE0
0198003E
00080005
003FFFD2
0015FFED
01F1FFD5
00400039
00A60031
01CFFFB5
01FDFFE3
01960020
01EE001E
0176003E
0165FFDB
01FDFFBA
01B00045
00360002
01FFFFCF
002A0049
006E001B
0011FFED
0027FFDF
0006000A
01A3FFE8
000BFFF4
0071FFD9
0027FFCB
005DFFF0
0164002B
0162001C
00160039
00260004
01F4001A
0196000A
004BFFEC
01E60038
00560045
0057FFC8
01720034
01E40006
0083FFB9
00260037
01EDFFD7
004DFFF0
0027FFF1
01A00062
00180001
01BBFFF5
01B6002C
01D60031
0015FFCC
00220038
01E3FFC4
004A0013
01D60010
01B0000F
01880023
01860036
01FA0060
0152001F
01CFFFF9
000FFFE6
00360001
0007FFF3
0179FFC4
01EBFFF6
00660058
003FFFF8
01DC0025
00860004
01B5FFF6
01EDFFD7
01B2001C
005DFFF7
019FFFD7
004DFFBA
0053FFEB
004DFFE1
002C0010
01A9FFFE
00320041
003E005B
0037FFEC
001A0027
0011FFE3
009A0001
01E3FFC5
01AA0014
0011FFFD
01E3FFD6
01BFFFD1
0063FFC7
0011FFCD
01ADFFEA
01B00003
0099FFB3
01AC001B
01E2001E
01E1FFE7
01B1FFC4
000BFFD2
01A20045
01A1FFD5
00040032
0069FFDD
00300022
0031FFE8
0083FFBF
0071FFF5
00040033
0187FFC0
0076005D
0045FFB0
01C3FFE2
00440044
019E0026
000DFFE5
01BC0038
00860011
0185FFDE
0003FFEF
006FFFE6
00100017
018C0008
009C002C
002BFFCC
0047FFE1
015FFFEC
0021FFC5
0197FFCF
008DFFCB
0173FFFC
00160023
0175FFED
0005FFB0
0003FFAA
000C000E
01E7FFBE
00400026
005A0031
0071FFF8
01A1FFD9
0199FFF6
0180001E
001C001C
01400010
014FFFF3
0162003C
01F1FFD9
005BFFF7
007BFFD1
0049FFB4
007A0033
01BBFFBE
01EDFFCD
00480014
0137FFC9
01580039
0032000D
014E0034
016BFFBA
00580007
01B3FFE9
0094001D
01BFFFD5
0014001D
01CFFFE3
01940020
0169FFD6
0164001D
0007FFDB
015BFFDB
004E0000
01AFFFFE
01920048
01B8004C
007A001A
002E0040
002BFFD2
003A0023
001C004F
0045FFF5
0061FFD9
006A0003
0011FFB3
0013FFEB
01C00048
01640035
0044003E
01C1FFED
01F00033
01C00025
005A0024
01C40041
0021FFFC
006BFFD7
017FFFEC
0181FFC1
00620044
01EFFFDF
018C0017
004DFFF6
0185FFF9
01C80037
00400016
00460010
01ABFFF0
01AE000C
0193FFCA
0002001D
01B7FFEB
007C0048
0054004F
00320067
01A2005E
00240014
019DFFE0
003C000C
015C0023
00700005
0011FFCF
00820044
01A4003A
000E001A
00060017
007C0068
01980018
000A0026
017E0009
000FFFEE
01B5FFC3
0011FFBB
0031FFED
01CA0031
001E0002
003FFFC3
01F60010
01C00048
01FDFFDA
012A0030
014FFFCF
01FBFFE6
01C40001
01A80047
01EE0045
01A9FFBA
01C3FFCB
00280018
0026000F
0001FFC2
01CFFFE0
01780001
018E0009
0171FFF1
01FC0005
017C0016
00600040
01FA0010
01D80000
0183FFAE
01F7FFD3
004FFFE8
0072000C
01C5FFD4
01E4002E
01B5FFF1
00240030
01EBFFF8
01F60042
00200021
01FA003A
0178001A
0013FFE0
00860035
0083FFE4
0084001C
01B1FFBC
00500035
002C002D
005DFFC8
006A0018
00620008
0043FFF7
006A002B
004FFFB7
00500044
00580018
01F1FFBD
00500037
0185FFEE
00560032
019DFFDB
008C003F
01E9FFBB
00A60031
00260001
00820054
01960003
0065FFDD
01D3FFBD
0027FFD8
01E0001C
01DFFFED
0185FFAB
0023FFE3
01F1FFB6
01760010
0190001F
0038005A
00840022
01EA000C
01F1FFF6
01EA0049
002DFFD9
01EC000A
019DFFDE
01EBFFBF
0037FFBF
01D8002D
01B3FFEA
004BFFD1
0013FFDE
01FA001A
008E0000
01EC002E
01CE0031
01A0003E
003BFFEC
0070001D
001A0029
001DFFFF
0073FFF0
0069FFCB
01E6002E
01C40023
016FFFEC
01B7FFFB
01CC0004
01AA003F
01B1FFD4
01EA0011
006C0001
00640018
017BFFE8
01F80027
0193FFCD
0194003A
004C003F
014DFFE4
002E004B
00780018
00900003
0068002F
01A8000D
0074002D
0191FFF1
01E20023
0033FFED
00220017
00460034
019A0000
01FBFFDA
0049FFDD
00340006
0000001D
004BFFC2
01B5FFDB
01DFFFF2
00200025
007A0028
0025FFD0
004BFFFD
01EA001A
01F4002C
0162002B
00140035
01DBFFB4
01F8003D
01C1FFCF
0097FFF1
00B80008
01CBFFB8
01D7FFFA
01C60001
01C9FFEA
0184002D
005BFFD4
004C000E
01B9FFFC
01B7FFD5
00100046
01FFFFF0
00A60035
0099FFF7
01C4002F
0013FFE1
001FFFE2
0071FFDD
00680009
01D1FFD3
0063FFD6
0198002B
01CBFFDF
0043FFC3
01ADFFC8
0069FFD5
01A7FFBF
01F3FFEF
01BBFFE0
019A001B
003BFFCB
01D00000
0015FFC5
016FFFBD
01F0000A
01EFFFE2
0187FFDE
01B9FFBE
00700013
000A003C
0057FFE3
002BFFE1
007DFFC7
0170001A
00220030
01B60001
00300012
01AFFFE5
00720001
01ADFFE6
01D00027
01E60034
00660014
0013FFBB
01A3FFD3
00460004
00100028
006DFFEE
01DDFFB9
00A1FFEB
002A0012
006BFFC8
002BFFE0
003DFFDA
00260022
01A2003E
01FFFFBA
0063FFCA
01E60016
002FFFEA
01DA001B
01A8000F
003DFFC9
01C7FFE7
00160020
002A0027
0033FFE9
005BFFFB
0055FFE3
0069FFF2
006FFFD2
01EA000E
01C1FFD1
01B2000E
015DFFF8
0067FFFE
0165FFE8
00020035
007C0017
009DFFE5
0097FFCF
008DFFCF
01860026
005DFFEC
0197FFC3
005BFFC5
000A003A
01CE0056
001DFFD0
004FFFF0
0000001F
0005FFBC
00880029
01B5FFED
016FFFEB
001DFFFA
01820047
0038001E
0066003D
017A0008
0035FFF4
01E80013
016BFFF3
01E4000C
00780034
01800005
00400000
01F7FFC4
0003FFC8
002BFFC6
00120028
002BFFC5
019E0016
01BDFFD1
01920023
01B8002D
006E0020
0083FFA9
0049FFFF
01D9FFD1
0067FFB3
0015FFD4
01EDFFD1
01BC0034
00360022
01A9FFCE
01C4001B
004C0022
01EBFFE8
01BDFFFF
01C40002
01A5FFD0
00A8002D
01D8000A
0045FFED
01E00008
01AFFFD6
01F60020
0015FFC6
018C000F
01F0002F
003E0002
01BC0043
01C40001
00A1FFD1
01DBFFEA
01BDFFF6
003A003F
01BA0000
0019FFFD
01EA0031
0033FFE1
01A9FFE0
019FFFFB
017E004F
00300047
0027FFDD
01C5FFF2
0161FFCA
01E1FFB7
0009FFEB
000DFFC0
00660030
0072000A
01EBFFF9
007FFFC7
0199FFF7
01DC002B
01CFFFF5
01EBFFB1
00560022
01D40023
01F5FFE5
01CC003A
0091FFF8
01EE000A
0186001C
001DFFA6
017DFFBE
0070000A
0057FFBE
016E0011
00240026
01CDFFC9
006BFFE0
0193FFEF
01DE000F
00620047
01EDFFF9
003DFFE4
0001FFAA
000FFFDD
01E00007
006BFFCF
002C0028
0059FFD8
01800027
01DA0036
004FFFD9
004BFFEA
00120025
01C7FFDC
0073FFE6
00A5FFDD
00B6004B
01BA0045
01E7FFD9
0185FFE3
01EE0037
0173FFD6
018A0015
00620000
0065FFFF
01EE001C
00620040
00120034
01D4001F
01780044
0068002C
019C0040
001C0034
017FFFFF
0063FFC6
01B00019
01A3FFBA
01F2001D
00320039
01E20017
01DE000C
01F80045
0011FFF8
00840012
0035FFE8
019E0035
0029FFF6
01C1FFD1
017FFFD6
01B9FFDF
01F2001A
002BFFED
01900031
015E000D
01B00035
004A0011
00620002
01A80040
01AA0027
0187FFEF
01CE0007
00320032
01A00032
01DC0001
017C0011
018BFFE6
0186001F
0161FFEC
01C20050
018FFFF0
01EE0035
0006002B
004FFFE3
009C0011
01E5FFD2
0044002F
0034001B
004BFFD0
00140034
01B1FFF5
01D8000A
01F20001
01DBFFDA
01DA0043
0066003A
003BFFFB
00360041
00040011
0035FFF6
0058000A
0012004A
003A001A
00160055
0010003E
0060002C
0185FFCD
002BFFD1
013FFFBB
01960011
00B7FFB6
01DC0009
01EFFFC3
005C002B
00480057
0011FFBD
01CDFFA2
01D7FFED
01CFFFD1
01DDFFF3
0075FFE2
0015FFD4
00160009
00B3FFF4
01DBFFED
0189FFF5
01760028
007DFFD6
00300012
01A0001B
00600040
018E002D
0033FFCB
00180047
01C9FFBF
002A0024
00300017
0095FFD2
019FFFBB
01B1FFCD
0035FFB5
01B20022
005FFFBD
0035FFDA
01F5FFA4
0005FFF5
01ADFFE1
0027FFC9
01BA0007
01C5FFDA
01AA004F
01E00044
01AFFFC4
01D5FFBB
0025FFE7
0055FFAF
0055FFDD
01E0003F
00180031
0037FFC9
0093FFD5
0064002A
0084003A
00800021
00400012
01DE0003
005FFFF7
01AC0022
003C003F
0039FFBA
0034002F
01C1FFBD
0039FFC6
0069FFD6
001E0027
0171FFE5
01AFFFCC
017C0041
01C60001
001E0025
01B3FFC8
005DFFFA
01C3FFCD
015BFFEB
0007FFD2
0195FFC9
002E0010
01760049
0195FFBE
01EBFFCB
016FFFEB
0197FFD2
01C00053
00680004
0082000B
01BFFFFB
0047FFC3
01B7FFDA
01D5FFC6
01AA003B
018DFFF6
018DFFFD
01C20027
019E0009
01DDFFC6
0183FFE1
00100023
00280040
003FFFD9
002DFFD6
005A002D
01EBFFC2
019C0001
005C0027
001A0023
009C0028
01B8001F
01A60006
01C9FFCE
0163FFB0
011FFFD6
01DFFFAF
0071FFE7
0071FFEA
0087FFD5
01CE000B
0060002E
009DFFCE
003C004E
01E7FFEC
01E5FFCD
00100003
0011FFFC
01E3FFDD
01C1FFD9
01CA0007
01F8000A
01BE0022
01FE0007
0017FFC7
01FFFFF6
0041FFF0
01FDFFAE
00840009
01CC0027
0013FFE3
016DFFCB
0067FFBE
00460013
00200007
01EBFFFB
00B1FFD2
00A6003A
0068000E
00300006
00180019
0071FFF9
002BFFBF
01B9FFF1
0073FFD6
0072000F
006A0023
00080035
01960014
002E0011
019E0006
0082004A
0084003A
01BE0028
01BE0033
01EA0027
0051FFF1
0053FFF0
000FFFC6
01EC0053
018C0007
016BFFD2
01CFFFF1
01F40018
01EDFFCA
01F4002F
019BFFCD
00180025
000FFFD5
008C001F
0071FFBF
0045FFE1
002DFFEA
0065FFFA
0052002D
00800010
0001FFDE
006DFFD2
01EA002B
01F0002F
01AC002D
003C0033
0059FFCE
01C40006
0003FFD3
0018003D
0033FFFF
01B9FFAA
004BFFBC
01F00031
01FBFFD6
01A1FFF3
01A20003
00480025
0029FFC9
0029FFF7
01B3FFCD
01680027
0049FFB0
01CFFFB0
006A000C
008DFFD7
01740011
01E7FFDE
0090001D
0071FFCB
01C3FFD2
0018004C
01C00037
0003FFD4
018FFFBE
004DFFCB
018C0038
0000002E
01A0004A
00160045
01A3FFF9
000FFFE8
01760001
01BA0019
00640042
01AA0059
00460033
00180031
006C0023
01DFFFF6
01B60037
00160044
0001FFDE
008E0017
01F1FFE4
01FBFFC5
009DFFE9
0018004B
0197FFB7
01AA0020
01C0004C
00880059
0051FFD0
01EDFFE4
0057FFE4
00520001
00120011
00BDFFC4
00820000
005A0028
004C002E
01760011
002C0002
00080044
01BA0035
01E7FFE0
01B20017
00160011
01EC0029
0013FFE6
00160003
007C000B
01E40004
01ABFFCE
018A000A
01FC0001
01C6002D
0190002D
001DFFDE
0139FFCB
01F00036
01F00022
0161FFC0
0071FFE2
017C0044
005A0015
0069FFFA
01C7FFE5
01B6001A
01860032
0169FFD6
01E00016
01E1FFC0
00360012
000E0006
01A20025
01C5FFD8
00340018
01A3FFA0
01F7FFD0
0185FFCD
01A5FFDF
0087FFB7
0082001F
01960034
018C000A
01C00006
016DFFFB
003A0038
01CFFFB9
01C80018
00020016
0003FFFE
00180025
01C5FFF5
0061FFEC
00780028
01D60015
0175FFF1
0038000F
01D60040
01BA001C
01C00042
002E0027
0059FFE2
008A002E
008C0008
0077FFCE
0035FFE5
01820036
018FFFCE
0002002D
00960021
019FFFDC
0182003B
005E002A
00080057
019A0019
008C0044
00480005
019BFFDC
0033FFC6
0189FFE4
008C0006
01BDFFC2
0038002E
0081FFD6
000C003E
007E0002
01940057
01A3FFC8
004FFFDE
01A20024
01A5FFD5
01A1FFAF
016E003A
01F9FFD5
0099FFE2
003BFFFE
01B00031
0181FFE8
00060031
004C0052
005FFFFD
00740026
01980053
001A0022
01AC0048
0096001F
01C7FFDF
01C40037
006BFFCB
0041FFD3
0194001D
015E0003
0194002F
01E5FFE6
018C002E
01B5FFEC
019E0043
01720015
0181FFF2
00380005
01E2000D
01840007
0181FFDC
0059FFD4
00340010
01F0000E
0057FFD1
0032000F
0041FFB8
019DFFE0
00740002
017C002F
01AE000D
01FDFFD5
001C001B
00860025
01E40039
01A3FFFC
004FFFFC
01ABFFBB
01D4000A
01F1FFBB
01B7FFC3
019E0031
00780001
00640018
01E9FFDB
00A2002F
01D40026
000E0013
005DFFC9
01A7FF9F
00060018
01E5FFD6
0068002C
00A40019
00380001
0075FFC6
01C40009
00140003
01E3FFF1
0073FFD5
005A0001
01A5FFB9
01DBFFFE
0043FFB7
01B8001F
01F8002A
01B20016
01B6002E
0063FFBD
0014002A
01C8002C
01F9FFF2
018A0017
01E4003E
00560047
01FC004D
0169FFCF
007A000A
01FBFFE5
0032000F
01FBFFFD
01CDFFF1
006BFFE8
01ADFFDF
01D8003D
0017FFFB
01EE0043
002BFFFB
01F20016
0189FFD0
01A7FFD5
00960052
003A0026
01880043
019BFFD7
01B7FFED
00400048
015BFFFA
019C0020
002DFFFA
01FE0039
000FFFEF
01E20026
003C001A
0040000E
005C0012
01F8000F
01EFFFF8
01EBFFF6
0058000F
01B00007
0035FFCB
0057FFED
01EA003F
00300042
01F00029
0063FFFB
017FFFD5
0051FFD1
01B80017
0043FFF6
01C00003
0179FFEA
01EC000C
01DA0004
01A9FFDE
00A00013
009A000A
0085FFEC
000A0007
001DFFE3
0198003B
000BFFDA
00680028
004DFFDB
0178002A
0092000D
00A00032
01D2003E
018C0004
00080012
01A4000C
000DFFDA
01ADFFF1
0085FFF2
0025FFD8
006BFFBC
017DFFCC
01D7FFF5
0067FFB7
01900020
0051FFDA
0029FFBC
016BFFF8
01D7FFFE
003E000E
017C0025
0087FFBC
008A0047
000FFFE0
00160003
0155FFAD
01BBFFF4
01FA0021
01A20020
017FFFB9
01D5FFDF
00240001
01C9FFD3
01E7FFC5
004A001E
0042002B
0169FFD2
01420009
019C0011
002FFFFC
001FFFA9
0072001D
01E9FFED
0054001C
00B3FFC5
01FFFFEE
01DE0058
01C7FFF2
019BFFD6
005FFFBB
0013FFB4
000C000D
01D5FFD2
0055FFA1
00060030
01ABFFF4
000A0001
001BFFEA
0001FFE1
01900012
017FFFC8
01B4002F
0183FFAB
008A0025
01FDFFA8
0077FFF1
017FFFC2
0077FFFC
01FE0006
007C003D
009E0010
0057FFC3
0009FFB5
01F7FFF1
01E20039
001BFFF3
01C7FFB5
008A0005
0181FFCC
005DFFED
01BA0042
01DBFFD8
0033FFC0
007DFFF3
007FFFEE
01840046
0023FFF5
0001FFF0
01B3FFBC
01ADFFC5
0161FFDC
0019FFD0
00140022
01CFFFE3
01EBFFEF
0042001D
00740018
017A000E
01F60016
001BFFC8
003DFFCF
016DFFDB
003FFFF2
01800020
01D00013
01B1FFC0
00520014
0094003C
00840032
006C0036
01FA001A
01600001
017E002D
0019FFF5
00840022
00060018
01A1FFCA
000E0057
01C1FFFD
018DFFE4
0087FFB8
0025FFD3
001C0033
01CDFFFD
0099FFBD
007BFFE2
0079FFE9
01DBFFF8
018C0005
01A60027
0081FFDA
0031FFB2
0039FFF5
01D4003B
00580017
00000038
01FC002B
006DFFD6
0008002C
019FFFE3
0084001D
01800015
0059FFD2
00A7FFC8
01D7FFC7
0099FFD7
003DFFC7
009A0009
018DFFB3
0041FFF2
01E3FFF6
0079FFDB
01AE002A
01FE0009
01F2004A
01C80012
01C7FFED
0175FFF0
01C00027
01ADFFCF
002A0023
01BFFFBA
01EC0037
01FA003C
00540027
01BA002A
00700051
001C0009
01C1FFF5
01960022
0181FFF7
01780048
00160044
01B2003E
01FC0001
0049FFF8
003A0027
015A0016
0057FFBA
01F40025
00660017
0082001A
01ADFFEA
007C0018
0062002D
003FFFE7
01C8003B
017A0006
01AC0045
00120044
002E0020
0191FFBB
019FFFD9
0074001A
003E0052
005C0052
0173FFEE
0165FFC7
01CE0009
01C80024
01600017
0033FFE3
0167FFC2
019C0003
006DFFE2
00660044
008A0024
005DFFCB
01EE002D
015FFFD8
01CA004D
01C4000F
01E80037
01B20038
01AC001F
0197FFF3
002C0014
0195FFE0
0053FFF9
0014002D
01BBFFD9
01D0002F
0183FFCF
01720022
0051FFCD
01FE0005
00340023
0085FFF2
003DFFFF
0023FFE9
007BFFFD
00920008
0028001C
0049FFD3
0027FFD0
0057FFD4
0044001B
001C0021
01CFFFF3
0021FFF5
019FFFE8
0052002A
00520036
000E0047
01DC000E
00520015
00240032
0077FFFD
01A5FFCA
000E001A
01A7FFE7
01A3FFB1
0031FFEC
0051FFF4
01FE002F
01720027
0012003E
005A0038
01E20044
0031FFC1
0053FFB4
0049FFCF
0079FFC3
0183FFE1
01C00028
01D3FFD3
01AFFFD6
0033FFCA
019BFFD3
01A3FFE3
0005FFF2
01D5FFF0
017E000A
007DFFFD
00080019
008BFF9F
0059FFE2
0087FFF0
01A9FFC1
01A4003B
01C1FFDE
01520044
003BFFFF
019A0028
002E0012
018DFFDD
018DFFF3
00160025
01D60035
01FBFFF5
00AC0009
01D00002
00700015
01D00043
0158003C
0186003E
00300039
019DFFFE
005E0042
00060038
01EC0007
017BFFE3
01DDFFFC
017BFFE8
00600036
01B6002C
00340038
01A1FFBB
0013FFB1
019C0013
01F80036
01AFFFBC
018DFFD1
0010002A
00260053
01720050
017E0038
0028001A
00700042
006C0036
01B7FFDE
01B7FFB1
007DFFFA
01FE0020
01CE001B
0021FFEF
002BFFFB
00200076
0162000F
0018003A
01A00058
001BFFE0
01C3FFC9
0065FFF5
01BBFFD8
000A0022
01B9FFC3
003BFFF7
01FA000F
0044005F
006E0029
013BFFF8
01E7FFD9
01A1FFC3
017DFFB4
01D9FFA7
002A0035
00940012
001E0011
01F9FFE6
01D7FFE7
01CA004B
01D7FFEC
01F9FFC6
0193FFC7
0041FFFD
00C8002F
0050002A
0147FFDE
01D20040
019BFFEA
007A0028
01C60011
01D7FFD2
01F4002B
0041FFD0
00180040
01C40018
00360017
0035FFF0
01900020
002E0014
0051FFF4
01CE0013
01BDFFD3
01920017
004FFFF9
0001FFC2
006DFFB3
0060002C
0065FFE1
01C60053
005E0067
01C1FFE6
01EE0022
00AC001F
00CDFFA4
01DE0047
01F5FFEC
007DFFC4
01C00027
00A20012
01B7FFD3
008A0039
0045FFD4
00120045
00A7FFC7
0199FFD8
0057FFF9
00360011
01C7FFF4
0041FFF2
0199FFCB
01A3FFFD
018E0028
0027FFE9
0086002B
01D2001C
0042001A
007FFFD7
01C2000E
0077FFDA
0016002E
01A20028
00900022
01D1FFEE
001C0033
016DFFD0
006DFFEE
01BA0008
005C0042
01BBFFEA
0011FFE5
003DFFCC
0037FFF7
01DA000B
0018000D
001FFFE7
01880009
01DE0004
01A1FFC2
01E4002B
01F7FFDB
01A9FFC2
01A40017
01960018
0028001D
0055FFEE
01D1FFF0
01BA001C
015FFFD6
0186003A
01A8002E
017C002E
0066002F
0052002A
01F9FFDB
0063FFE2
001C003F
01CC002F
00640014
0014001E
0057FFD2
006DFFDC
01A80021
003C001E
017C0033
01DA0016
01AFFFD0
01A20026
00460018
018FFFCF
019A0032
0177FFC3
0001FFB7
0022002C
00080018
0174003D
017BFFF1
0183FFBB
0189FFDA
01BBFFB0
018FFFE9
01B1FFCE
01B3FFEB
008DFFBC
018E0028
01BC0027
01C3FFC8
01FE001C
0026002C
01A9FFCF
007C0009
0012001D
0076002E
019DFFE5
003A0006
00020036
0051FFD6
0023FFC0
0007FFA6
00200021
01F80009
006A002E
01BFFFD8
0022000F
005DFFDD
01AC000E
000C0013
01F80021
019A0003
0048000F
0159FFA8
01CFFFE5
001DFFD0
004FFFF1
01C6002C
01EC001D
01EC0009
0023FFF1
00A3FFCC
01FBFFD8
009BFFE5
003A0032
0050000B
01A2002C
00340035
01B8002E
00000028
01A40012
0006001D
01F00042
01D8000D
007BFFFE
00A3FFCE
00300014
0019FFF9
0197FFE6
01B8003A
0174000D
01EA0038
00400042
0041FFC7
0185FFC2
0027FFF3
001A001C
0044000C
01FC0003
01E3FFED
0043FFCE
008E0027
01F1FFE2
003DFFDA
0093FFC2
01A6003F
006BFFB6
0179FFC6
01B3FFE0
006FFFBB
000DFFBF
01940018
01EC001E
01E1FFF2
0021FFC0
007BFFDC
019C0027
01BDFFC9
01A1FFDD
01D9FFC6
01B20035
01B9FFFC
0076001A
01780013
01BBFFC6
009C003D
01B4000A
0047FFFE
0077FFC3
0042002D
0011FFF8
00000008
016C0027
004DFFF6
01F7FFEA
0045FFCC
01720018
006FFFEC
00260024
0067FFFB
01AE0008
00320023
001DFFB6
007C0036
00340019
01D1FFF3
019C0019
00060042
00520013
0075FFE4
0032002F
01FE0029
000BFFDF
0066000F
016FFFE6
00600004
002C002D
01C80021
000E0031
003FFFF4
017FFFF0
0059FFDF
0027FFED
01FE004C
01C1FFED
01820058
005A0011
01FA003E
01D9FFD7
015FFFC1
01D1FFCE
001FFFF7
01A80022
002FFFC8
000DFFCF
002A0037
0189FFC9
0161FFEB
00700044
01D5FFFF
01A4001D
00440010
0017FFCF
00400007
01BC0017
007E002F
01D00033
01F9FFCC
019A0020
01940026
0041FFEB
0049FFD4
01C00037
00B9FFD3
01EC0040
01E40034
00820001
01D00032
01D5FFCC
013E0058
009E0047
01EE005A
0067FFFB
01A80003
01BFFFB9
00A1FFED
0083FFEC
0177FFCE
0177FFD1
01AE0030
01B8003A
00A80046
00040015
0099FFDB
0027FFD8
0011FFBE
018FFFCB
01FDFF9D
018DFFD1
01E5FFCA
007E0035
00180006
01D7FFFE
01E60008
00960036
0155FFD2
00860003
01840003
00760041
002FFFEC
01D7FFCF
002E001E
001C0033
01EE0029
00A80017
0043FFD3
0034001B
01D7FFCB
01BC0049
01F0002D
01AC0009
016E001D
0191FFD2
01E9FFF6
001C0015
006A0036
00C60018
01C00019
0151FFD1
01A9FFCC
002A0003
01E20056
018E0025
004DFFFE
008A0001
004A0007
019BFFE0
00260000
000BFFB5
01A7FFE8
01D4000E
0038000C
01F00025
018BFFDF
0063FFD5
0047FFC0
017A0012
0193FFD0
002DFFCE
017E0013
0175FFB0
00840015
002E0020
01FFFFD3
0019FFFE
00020050
00200023
000E003B
00340023
01A00015
01CDFFE1
00360033
0051FFD4
0033FFF3
01EBFFE1
01AC001B
0171FFFF
01C40038
0188000C
000E0038
017E0021
0179FFB4
01C7FFDC
015C0048
00720034
018E001F
01960048
014FFFF5
01FFFFD3
0043FFC9
01460027
01F20027
0017FFDA
01D80036
00120036
01D1FFD5
01E80022
000FFFE5
0166004D
01F6001D
001A0030
01B7FFFE
01980042
00000046
01D1FFFA
01B4004B
00060052
01EC0028
01FE0042
01EC004B
0080001F
000A0042
014E0043
01C5FFCF
01BFFFB4
01EFFFFE
01D20007
00120050
01DBFFE5
01C40022
01780020
01FDFFED
018E003F
01E00025
01F3FFD2
0173FFAA
015FFFCE
0035FFFD
01AFFFC0
00780017
0009FFE4
004DFFCB
018C004F
003C0047
00220000
002FFFC8
007DFFE0
017E002E
0157FFDF
0041FFC3
00320029
001C0039
0035FFFB
00580046
003FFFE3
01B2001A
0012001C
01CA000C
00BC0038
00760019
0001FFEA
01DFFFF9
01880030
004A001D
017FFFE0
0023FFE2
017FFFFA
003DFFD8
0018004A
0007FFDB
0023FFE0
00220038
01FA000C
016FFFCD
01AFFFF2
0070002C
008A002C
01B6001A
0069FFD0
006DFFCC
018C0036
01C40011
01AC001F
004C0043
00220016
01720028
01F0004A
01E00018
01D7FFC9
01DBFFD3
00280003
0002004C
018DFFC4
01C1FFF1
01EC0034
0010003A
0177FFD8
01C8002F
0037FFFA
0091FFE8
0049FFFD
0027FFB1
001BFFD4
000DFFEB
000E0005
00360018
01CE0045
0023FFED
000E001F
01C3FFD8
0073FFF9
01E80008
01E2003D
007C001E
01D5FFC1
000BFFD2
0039FFED
0199FFC1
0041FFD0
01C3FFE9
00300002
01EA0017
0171FFD6
01AE0045
018DFFCF
0037FFAD
007C0041
01DC004A
0055FFCA
01ABFFC6
01C3FFA9
01FE0002
01DE0009
002FFFC0
0090001B
01C80034
01EC0024
0044000B
00020037
01DC0041
0017FFDF
01A7FFE1
002C0023
00460024
003A0024
01900036
0056000E
0168005D
002C0016
00660004
01E5FFD1
01EDFFDD
001FFFED
0185FFF7
01A3FFEB
00440024
0057FFFB
00000007
01E5FFCB
01F5FFEC
0189FFC2
01D7FFF6
00780004
00460024
01B00045
004FFFE4
01EDFFE9
01C60003
01B9FFF6
0067FFD4
0071FFEE
01D8000E
0080001B
01AA0024
003C0016
007DFFEF
01AFFFF1
002E000D
01BBFFE4
00580031
01CFFFCC
0036000B
01CDFFF3
01C1FFE4
0076000E
0043FFDC
002E003E
01ADFFE1
0188002C
01FA000B
0039FFE5
0003FFFD
0046000F
00560030
01BBFFC0
0046003F
002BFFE8
0091FFE8
01EA0022
019DFFF6
00680045
016A001B
01E0002D
008C0026
00340014
01B8000C
0024002A
01EA000E
01E20022
018C001D
00020003
00560024
004DFFEF
002DFFD2
00340014
01A9FFCD
01980021
0178001B
01B9FFC3
01FA003A
01D8001C
0015FFE6
00800027
01B2001A
0041FFD4
0049FFF6
01EBFFE7
006FFFE4
01B60028
0087FFF3
01F6002B
01B20024
019FFFC4
0021FFCC
0197FFFC
01780044
0015FFF6
0003FFEC
00540020
002DFFD7
0011FFD0
01B1FFFB
01920006
004BFFE2
01C0002D
01DDFFEE
00240003
00480023
0056003B
01C4002B
0168000E
0015FFED
01F60019
016FFFD9
01ABFFD7
0197FFB0
00700039
003FFFF9
017FFFD2
01EA0019
0021FFE7
003E0037
01B5FFC1
0047FFBE
002C0029
0059FFC0
0189FFF4
00480014
01FA0030
01C80031
0047FFED
001BFFCB
002FFFB9
0196002D
01E5FFC9
00540004
00360026
01E40022
0189FFCB
01B00015
01C00001
0183FFCC
01D80007
0023FFEA
003A0037
005C002D
0033FFDF
01CFFFE7
01CBFFEB
01D20041
00060028
0063FFD5
00880046
01B2003F
00220001
007FFFED
0081FFD7
004FFFF7
0021FFBF
003FFFF8
00560037
01B40030
01A8001F
0048000E
00520006
006FFFC3
00920020
0013FFA4
004FFFFF
00BFFFD3
01BBFFDD
01A5FFE2
0021FFC5
01AE0039
01A40001
001E0038
01FBFFB3
0073FFE1
01F7FFEE
001FFFBC
0081FFE7
0069FFAE
002DFFBC
007FFFE6
00540012
0043FFBB
01AFFFD1
01D8001D
006E001C
00600013
006FFFC8
0049FFF6
01FE0020
01FA0009
018DFFB6
01EC003D
0025FFC8
000FFFD4
00380028
01B1FFD4
01D9FFC3
01F7FFC7
0005FFF4
01F40011
01E80033
0159FFCA
0030000C
016FFFF7
0016000E
01D00029
00680035
006FFFC9
0084002A
01E9FFD5
0015FFBB
0035FFD6
01A5FFC0
01540017
0165FFD6
015E0041
0182002A
0029FFF6
0046001E
0192001F
0085FFE8
01DBFFDA
0043FFF9
0057FFE3
01700011
01F6003F
01900045
002DFFE4
01A20022
004FFFFD
01AC0010
01E7FFED
01C3FFDD
0027FFC7
001C002D
000FFFDD
000C000A
00340002
0199FFE2
0053FFED
007C000D
01780007
0043FFE0
01ABFFDF
01DBFFC0
01D1FFDF
0199FFE9
01AA001C
01B8001A
01C3FFC5
01F2003E
019C003A
01AFFFE3
0187FFF6
0024000A
0193FFED
00360007
017C000A
01A9FFB5
0150004E
00320033
0027FFFC
01DBFFDD
01E2003B
0073FFE3
01F9FFF5
017FFFBA
01B1FFDC
0089FFC3
0035FFE9
0163FFCB
016BFFE4
00260032
007BFFF4
0075FFE0
002DFFDF
01EDFFE1
0069FFFD
00A8003D
00820028
007A001C
00260024
00560052
0163FFEA
0067FFF6
016BFFEC
0060000E
01F2000F
01F5FFBF
01A80019
01540028
006E001A
01BE0000
0042003B
01BFFFDA
0019FFF3
005C0028
0033FFC3
01DFFFF3
0011FFA3
0077FFE0
001BFFFF
01800032
0045FFC9
0094004E
000A0024
0031FFEF
004A0030
01F5FFFF
01ADFFBA
01C7FFB8
0027FFCE
008BFF9B
01CE001D
0048004E
01ADFFCC
006FFFD8
01A3FFC8
0178002F
01FDFFF6
01D5FFEC
01860005
016BFFE2
01CDFFEE
0171FF9E
01A7FFF6
01D3FFD9
01D80001
0196003A
0047FFCB
0009FFF2
013DFFD1
019E002E
008C0015
0174001A
0091FFDA
003C003D
01D20008
01F40037
00400056
01AC0049
019C0053
002BFFFA
01BC0029
0075FFED
018C0034
01A7FFEF
01C20008
003DFFC3
0034000F
005DFFE3
005C000B
018FFFD6
0049FFE5
0189FFF0
01F5FFFF
00A1FFD7
00060030
019BFFEC
0183FFCC
017A003A
00260049
0052000C
01D80034
0051FFD2
004DFFAD
008BFFF4
01D20005
015FFFFA
005C0038
0195FFF9
01A00050
001BFFED
003FFFEE
003BFFC3
01DA000B
01C3FFBD
003FFFBD
01E1FFE6
00220009
01DE0023
01DFFFE3
01C40043
0197FFC6
014C001F
0062001E
018DFFD4
0055FFEE
01BBFFC0
0053FFBC
019DFFCD
0033FFEC
019DFFF7
006C0001
00480034
01ADFFB2
0087FFBA
00280003
0063FFCD
00120024
01C20012
0071FFFD
0000001C
0054003C
008DFFFD
01A2000C
00A0000F
01F60005
00AFFFBA
00600023
01A5FFFF
000A0030
005E0002
0194003D
005A002A
0099FFCC
01E00048
01B5FFC4
0091FFC3
00640020
01B5FFF3
01D3FFBC
01C40023
01CC0004
01F1FFC5
01A6002A
0027FFFD
0187FFF6
0175FFCF
01A00052
01960059
0029FFE4
01B0001A
01A3FFE3
017BFFD5
0027FFCE
01E20041
01760004
00100012
01BC0033
01540032
01C20013
01F6005D
016A0003
0067FFD1
007BFFFD
005C001D
01E00014
0087FFCF
0055FFD1
01F20044
01D7FFF0
014E0025
00540008
003E0009
01FA0020
0075FFFC
01860008
005FFFC7
0170004C
0065FFD1
01B1FFE9
0005FFD0
0027FFBA
01FBFFE8
0084001D
0005FFF6
003DFFF2
01E7FFDA
01B20011
019A000A
01AFFFFF
01E00030
01D3FFDE
01DA001A
01360036
00260038
008DFFD6
005E0053
01C60005
01DFFFC0
0023FFDA
01DC0016
01ADFFDB
006A0002
0060001D
00020028
0172001A
000BFFEE
0049FFF1
01B80045
004FFFAF
0065FFF0
01E7FFF8
01FE001A
00580052
008FFFC6
006DFFDE
01D4002C
00900049
004DFFE1
01A40020
01D8003E
000A0032
01C7FFE9
0015FFDD
01C60021
01BFFFDB
01BDFFC9
01DA000C
006C0017
00C7FFF1
01C5FFEA
00740042
00780026
0031FFF7
004FFFFB
0059FFCD
0070002A
017E0029
00940015
018E000D
01A7FFB8
01CE0009
019BFFDF
01BA0003
01F40003
01E7FFFE
003FFFF3
007E0020
0008004C
01A60009
0046001E
0046001C
019FFFB3
0003FFCC
01FDFFBD
01F60006
01F5FFFD
003E0055
01E5FFE4
0037FFD7
01FA0037
019DFFBB
018BFFEB
003BFFE0
00060041
0041FFC4
01B40041
0015FFE5
006A0040
017FFFF8
01E3FFFF
005FFFDD
01A60045
01F20023
01FFFFE7
007DFFC7
01D1FFB8
00960007
01E60045
0001FFCA
003DFFCF
00BA0012
01A9FFD5
0067FFDD
01FFFFCD
0045FFC9
0197FFD9
0199FFD2
019FFFCE
000FFFE5
006E0005
004FFFDA
01EA0016
01CE0049
01B0003A
0030004D
01D9FFF7
00640004
01AC002F
01B7FFEE
00400034
00160019
00080006
00080021
01A20019
002DFFFA
0189FFFB
01F60010
01A40047
01B3FFD1
01C3FFDC
01E8001D
01CBFFD0
0020001F
0049FFEB
01D8003E
0042002B
01F1FFC9
00700004
01B7FFD0
01F9FFDE
00640033
01BFFFCD
01D1FFF9
00760038
0063FFDD
017E0023
0191FFC2
001BFFB7
01820001
002E0022
0060000F
003FFFEC
00920009
0018000D
0013FFFE
005A0033
006BFFF1
0031FFF3
0091FFE4
0052000F
01DE000C
002C0005
01E7FFC2
0033FFC1
005BFFB4
003BFFD0
01DFFFCF
002FFFF3
01C5FFD2
005FFFF3
01FBFFF7
01BBFFEE
000FFFE4
00380032
00400027
01780028
0085FFD3
007A000A
01FE0003
0081FFDB
01C3FFE5
01480031
01EE0043
0090002B
0083FFBD
0015FFCD
0079FFF3
01780050
0177FFE1
005C0025
01E6002D
01F1FFCE
01540047
01F00043
0081FFF4
01D0003B
006FFFFD
0077FFD1
01D60020
0089FFEA
00540021
01C00029
01960040
019A0016
00100033
01FFFFF0
01A80022
0062003F
01740021
0005FFF2
0182002D
00420021
01B1FFAC
01F60001
001FFFB6
0075FFC4
0005FFF1
000BFFF8
00920022
01BA004A
01980008
01A40014
002A001F
01920012
01E80039
0049FFA8
0013FFAB
01900022
0023FFE8
006BFFD0
01FFFFCE
01D80004
005C0032
00860025
0017FFCF
0011FFF3
01E60028
00660035
0053FFED
00400043
0181FFC7
0195FFFD
01D1FFF6
01AFFFFF
002BFFC2
0189FFB8
0085FFE7
009BFFDD
01DBFFB5
01C0001E
019E000C
006BFFCD
0022003A
0050004B
015C005A
01860021
002A001C
01B20045
01FA0035
0014001B
0013FFED
00660029
01BFFFE1
01D0003D
004A0025
00080022
01D5FFD4
01580026
01BDFFD3
002DFFBC
003A0042
006C002D
000C000A
0079FFC9
00180031
01920014
01780001
0035FFD7
0038003B
001C0046
003A0036
00520015
01E1FFC8
00220016
00780047
00ABFFD5
01A20011
0185FFE6
0051FFF3
00000020
0057FFCB
01F3FFD4
01C1FFFD
0071FFB5
01E7FFD6
01A3FFE7
01BDFFF2
006E003B
0099FFF1
01FE0032
01FDFFDA
01E9FFCF
01EFFFC5
01E7FFD0
01E5FFAE
0039FFAE
01DE000F
0191FFB1
01AC001F
0021FFED
01A7FFBF
019A002E
01C9FFAD
00800030
0037FFB9
00280009
003DFFCE
0010000A
007E0009
01F3FFE4
0183FFE7
003FFFE9
001A000D
0081FFE2
001E0021
018FFFD1
01760000
00540049
004BFFF9
0067FFF4
001C000A
0061FFE7
01E1FFC9
0005FFC1
0181FFF8
0001FFEB
01F6002F
01F5FFE2
01940047
01A7FFCD
003C0008
01FDFFDF
0051FFBD
003C0029
019C001F
0191FFD9
0009FFF5
004E0020
0037FFFA
0037FFFE
001BFFF5
01FBFFEC
0199FFE3
01E80032
01F7FFF8
01CDFFBA
009A0032
017C0025
0015FFC6
00140026
01F60033
01A7FFD6
01FDFFC9
0181FFCD
004BFFC3
004C002D
0006003C
0173FFF5
001DFFD1
01FFFFF8
016C003A
0171FFCE
018DFFF0
01CE0026
01DDFFDC
00300048
00580027
01C40037
016E0018
01B1FFE6
00200004
0039FFBD
019FFFD5
006C002C
01C2001D
004DFFF6
009FFFCB
001E0022
0078002F
01D0001E
00640005
007FFFF0
0046000F
000DFFC1
00020031
004E0041
0152001F
01D1FFC7
00540030
01CA0043
01B00008
00420006
0187FFBB
0052003A
0039FFDF
008A001A
01B3FFBD
00BFFFE8
01F1FFCA
017C0016
01D1FFC7
0053FFC2
0059FFFC
01A00035
01FDFFF0
017DFFDE
01D80000
01A1FFB8
0055FFBE
00B9FFED
0009FFCE
0069FFD6
01D5FFCC
019BFFE4
01CFFFFB
0011FFAD
0089FFD1
01F9FFF6
0189FFAD
0194001C
01CFFFAB
009E002D
01BA0036
009DFFB8
01E20002
01EE002D
01CFFFC7
01C60010
0191FFDF
0177FFE6
0043FFC9
006E003A
01CBFFAC
0178001D
0005FFD5
015DFFEB
01C20009
00240005
0061FFDD
004A0013
0007FFD2
00500031
01960016
01FFFFC3
004C0025
01760022
00000036
01FC0007
016BFFD5
0007FFD1
00AA0047
00080034
000BFFF9
01F3FFC5
016DFFD9
0009FFE5
005BFFD1
001FFFCA
0078002E
01F7FFF3
005DFFE4
01BFFFD2
00220053
0049FFBC
005BFFEC
01EE002B
0065FFFA
0166000D
01ABFFEF
01DA0030
01A5FFDD
00600033
0027FFCA
0191FFBF
002E0001
01C80054
01CA0009
00700039
0077FFBA
00480026
01BA001A
0188000E
004E0047
0059FFD5
017E002B
00580005
01B1FFF2
0175FFF6
01EA002F
003DFFE7
006E000A
01840036
01C00012
01DE0042
001FFFF1
0187FFB5
01EA002C
00920015
01F60042
01D6000E
000DFFD6
003DFFD9
00440003
01E80004
01E6002E
001DFFD3
019BFFEA
01A3FFDF
01DA0019
004E001F
01CA0043
000E0002
01ADFFB9
0087FFBE
01AC000E
0191FFDF
01ABFFF1
01DE0009
00960033
0075FFCD
0093FFB6
00A00020
00380030
005DFFD4
01E7FFD1
004DFFF8
018FFFD2
003BFFD6
0197FFF3
0165FFCE
00620011
019FFFEA
0013FFD4
01F20005
00120043
01A00004
0134002D
01CBFFF6
0080000E
0193FFEC
01DFFFF0
01D9FFC1
01ABFFF9
0051FFD1
00400004
019E0014
01C1FFC8
007C0026
0197FFC5
00660033
01980046
004FFFB9
01F9FFF9
01DFFFB8
01BBFFEE
001C0029
0045FFED
0028000B
0009FFC5
000C0035
00280004
015DFFEF
002E0002
018C0040
019FFFC2
01CE0019
00900026
0038000D
000DFFD2
01DA0020
01FC0045
01A00051
0036004B
01CFFFE0
01B9FFEE
0093FFC0
01BC0002
0037FFB6
005BFFC4
001BFFF4
01E9FFE8
0046003D
00440013
0067FFE8
0041FFE7
004E0042
01BBFFF7
006E002C
0191FFD3
01B8000C
00900021
007FFFD3
0071FFF2
01F20014
01EFFFD3
00340014
0071FFF1
01C1FFC1
01DFFFC4
00B5FFB1
00220026
000A0003
01EE0018
01DFFFCB
01A80020
0033FFE8
00840027
0019FFB7
008FFFEE
018DFFE8
01A60030
000C001B
00880034
01F00016
01B7FFB5
01EBFFD0
00120020
01F40006
007A002B
0021FFF0
0066003A
01B2001F
0021FFC9
0023FFE5
00040033
005BFFEB
00900007
018BFFE8
01C5FFD6
000BFFDA
0023FFD9
005E000F
01F3FFCD
002E0018
0024001B
006C0025
017BFFCA
0019FFEA
00200023
005BFFE8
002C0013
01D3FFE9
01D1FFF3
01E80040
01B20038
01A1FFF0
0043FFE0
005BFFC4
01DFFFB4
01C0002B
0040002B
01DBFFC9
00280059
01B8004D
0194004E
01B1FFF0
01DE000A
0015FFE8
0033FFC1
00140011
0043FFE7
01E3FFDD
01860013
004E0049
0031FFD9
01B5FFF5
0069FFBE
018FFFB5
01620012
007A0007
01F3FFF0
00020012
01CFFFD1
01D20041
0051FFD9
0029FFF8
01E7FFC6
005DFFB3
019BFFB7
01B5FFBE
014DFFD9
01E7FFBC
01BA005B
0087FFF8
0038003A
01F7FFCC
0039FFDF
01AC0030
0043FFCA
0022001B
00120048
01B40042
00A00004
01940021
01E40002
006C0016
01DA001C
0053FFE5
01ADFFE9
007FFFC8
01ABFFDE
01DA0032
0003FFCC
0052001B
01F3FFC0
005C0035
001BFFDC
01ADFFF6
01EE0037
0049FFCF
01880002
00140011
019BFFDC
0025FFDB
01B7FFFE
018C003F
01F8001C
01C6002C
000FFFEE
01B7FFFA
003A0048
015C0058
01900029
01DE002F
01D0000B
019DFFF2
01F5FFE3
0055FFD1
01D40038
01DE000F
003BFFF8
00760043
0151FFD5
002E0051
01F1FFF4
00540044
00AFFFF6
0022004B
005A0030
0087FFE5
01B1FFE5
006C0034
00420001
000C0006
00720021
01EFFFE4
001FFFD7
00BE0043
01D5FFC6
007BFFE5
0196002D
01DFFFB9
0091FFB5
00600029
015FFFF8
0025FFCD
01940038
00BA003F
0046003E
0023FFD2
002DFFE9
01FDFFC8
01A0004D
0018004E
007FFFD0
0031FFEA
001BFFE4
00040016
00A60016
00960005
0057FFA8
00CC0003
0085FFB4
001DFFC1
0196001E
00400052
001E004A
0013FFC3
005FFFDE
0173FFC6
018E0025
0007FFEF
00B7FFA9
007BFFE8
01EA000D
0067FFB5
01FC004E
003DFFF4
003A0016
001FFFD1
01FA002B
003BFFFF
016A0016
000BFFDB
01CC0032
00820011
01F9FFF4
0069FFC8
0045FFF1
01B80003
0041FFD6
00580032
01F7FFBA
01BFFFDE
01CC0002
00140034
01DDFFFA
0048003F
01DBFFEC
005FFFBC
018C003A
01B9FFD5
019DFFD2
01FBFFF6
01D3FFF9
001FFFDC
0069FFC8
00480023
002E0008
01F4001F
01C00016
0199FFB3
01CFFFD2
01C00014
0189FFF1
0028001D
019E004E
01A9FFC1
008E0051
017A0010
0015FFBC
01BFFFEA
005C001D
019BFFFC
0169FFF1
01CDFFA4
002E0027
00100043
0082003C
01C7FFF6
01C80039
017E001B
01D80016
002FFFC9
01C8000F
018FFFED
0044002D
0161FFC1
005A001C
0174003C
0065FFCC
003DFFD8
01D3FFEC
000BFFEB
00420012
00400020
018BFFCC
00320032
0079FFFC
015DFFC5
0176004C
0065FFE9
0043FFCC
016A0016
01BBFFFF
01B00016
01EDFFDA
00180038
006E0030
0037FFA9
01C5FFE4
018BFFDA
0031FFF7
00580034
01B9FFD8
018E0010
0189FFE1
0021FFCB
00120018
0006002F
0197FFFE
0051FFB0
01B1FFBE
0028000E
01EE001D
0177FFD2
01DFFFBC
01E7FFD0
01CBFFF6
0197FFE8
01DC0040
0003FFFB
017A0002
01C3FFE7
01800008
000FFFEE
01DFFFDE
01B60019
01860035
01C9FFAD
0077FFD4
000C0016
0159FFF3
01F80038
01BC0000
01CE0010
005C0011
00600039
0002002E
00900037
016A0049
0181FFC4
002DFFB8
01B6000B
019DFFE9
0192000C
01E60044
0021FFF5
01AC0026
004A0039
00000002
00240013
01C1FFBC
0021FFE4
01B5FFD0
01B5FFED
01B9FFF8
018E0043
018A0046
01A8003E
019FFFC4
01A9FFEF
01F40029
003BFFB5
000FFFFB
01FA0008
01F1FFEE
0179FFE0
0009FFF3
0193FFDB
001E002B
00780044
0178004D
01BFFFD5
007A0015
01CFFFD4
0005FFFC
005DFFD1
0010001F
0047FFB0
01D3FFBD
002BFFC5
01E00013
018C0002
00180009
015C0003
000DFFCC
01A5FFC0
0039FFDA
001C0048
0056000D
00880030
002C002F
01FA0030
0011FFED
0011FFC4
01AA0051
002A003E
01C7FFC3
0086004B
01A00014
0047FFDD
00020019
0012003D
005E0011
0024001C
01E60041
0173FFE2
0079FFF4
0193FFFE
01DE002D
01940004
01800031
002E002F
008E0026
01D5FFF7
006FFFE4
01FFFFC2
01AC004B
00000010
001FFFFF
01C1FFE2
00480012
003A0026
01C8000B
01E5FFC2
0066001D
01BC000E
01A8003A
01A4003C
0009FFD2
001A000D
0099FFF2
01AC000D
005BFFF1
01700029
009BFFE9
004BFFDD
0191FFD2
0041FFD3
0015FFD9
01DA0015
018C0039
01A9FFFD
01B80028
001A002E
01BFFFD5
0016001E
01AE0026
01F60009
0069FFC3
0070000C
0006003B
01B9FFC0
01A00019
018E0023
001A002A
0065FFB4
01A20020
001E0036
01D7FFEE
0185FFBE
01FBFFC8
01D00037
01C40014
017DFFEA
006DFFD3
017FFFC1
0050000E
01BC0028
0055FFE2
00140045
0083FFD4
01C0001B
006FFFD9
017DFFEF
0185FFEA
019C0005
00260015
01740013
000BFFCE
0011FFDE
0051FFC6
0002000F
01D3FFD5
007A0016
00020033
004C002F
01C3FFEF
017A0050
006C000D
01F40032
004C002B
01B2003A
01D1FFBE
01C5FFC9
01CE0004
01E9FFB6
013BFFC2
00240035
01FFFFE3
0062001C
01860036
0073FFFC
004FFFC8
0008003D
0025FFF7
01CBFFFA
01800028
0151FFFD
001FFFFA
019DFFEB
01EDFFCF
01A5FFF2
01E1FFC4
017C000A
017DFFEC
00200004
01D4002B
0182001D
01E3FFF2
01FC000F
009BFFEA
006C0000
0073FFFF
00540042
00560003
00480025
0021FFC8
003BFFC9
0159FFE4
0013FFC4
006A0031
00720019
0067FFE9
01900047
005C0044
00400010
004FFFE6
0178001C
006C0037
01A1FFED
01BC0004
01E1FFCB
0071FFC0
01AFFFF9
01FFFFC7
01AFFFF3
01A20001
01860020
01FBFFFE
0066001E
00320009
004BFFE8
0009FFE3
01FA001F
01A40007
000BFFF4
01EC0020
0031FFEE
0037FFC4
0001FFFC
01FA0027
017C0036
01E2002F
01A9FFBC
0067FFD1
0021FFDB
0010000D
018FFFC7
01A40021
01BE0028
0081FFFA
0001FFDC
0067FFEF
01DFFFE2
01EBFFB1
0047FFE5
0176001A
001BFFE8
016BFFF7
0083FFE4
017DFFC1
0180004D
0008003E
0043FFD0
0181FFD5
01AFFFF3
007BFFC5
016E0023
0055FFE5
016BFFE2
007C0057
005A0019
0173FFE7
01E4004E
0049FFCA
01E00028
01B80014
018BFFD5
0193FFB7
001E0039
0181FFF2
01F40011
01C7FFC3
0029FFE7
0029FFF5
00640011
01A20033
01EA0034
01C3FFD7
01A9FFE1
0082002F
018E0013
0075FFE5
008A003E
0031FFDC
006E0033
01D20036
01E5FFFC
000BFFE7
002C0018
006BFFC3
008BFFDD
01ABFFCB
01A20035
0025FFC1
01AE001B
006FFFBA
003FFFDA
01B5FFCC
01AE0027
01CBFFEE
003C0048
0188002C
01F9FFFC
0189FFFF
01E9FFFB
002FFFB7
0039FFBE
0028000E
005A0024
002A003E
01EC001B
001E003F
01FE0022
01A1FFD7
01C9FFFC
01D7FFC4
0037FFF0
017A0025
01A20048
01540044
01E2002B
01BBFFBE
01AFFFBF
0050003A
0088002E
00680040
00520036
01A1FFFC
019BFFEE
01A20017
006DFFDA
0165FFCE
001FFFDC
0089FFB0
0062003F
01DA0048
004BFFDB
007DFFE1
01EDFFDA
01CDFFFB
01FDFFB9
0035FFE6
0164001F
01C20034
01BE0013
006A002F
006E0037
0062004A
01A7FFC2
00240006
01DA0016
00400051
01B80023
01FE0021
00340044
01580057
01CFFFFF
0073FFCA
019A0018
01E3FFDF
01CC0005
0007FFFD
0004002A
003FFFDB
01920000
0077FFD6
015FFFC6
0168000B
01E1FFE4
01EFFFE2
0036003E
01B7FFCD
0017FFEF
017BFFC1
0003FFF7
0043FFE4
01FC0014
00300030
01ABFFB8
00B60006
00300037
0091FFFC
00080004
01BA001E
00640042
019E0006
0025FFAD
01C1FF96
0039FF9E
0077FFF5
0085FFD8
0174002A
01BFFFCA
018E0027
0163FFDD
00400007
01C7FFE0
016FFFB2
0074001F
0057FFB2
0059FFA3
018BFFD6
01CBFFD4
004C0014
002BFFC2
00660051
0173FFCC
002A0007
0028001B
0068005A
002FFFE2
01CFFFE2
007BFFD6
001E0002
0185FFEA
002A0006
00720026
002A003D
01C0003C
01FC0031
01BBFFF3
01B5FFCD
01C00012
01DBFFD2
00600039
017E0055
01F1FFCF
006DFFF7
0055FFF8
01F8001D
01CBFFC9
01D8001B
019FFFB6
001FFFB6
007E003C
005C002D
0192000C
00340030
004BFFBC
00920028
0012003E
0048002B
019FFFB3
0063FFDD
0027FFE9
01F80032
01900040
0061FFB4
01900033
0001FFCC
0170001A
019FFFD4
00320021
01BA0036
0039FFC6
01E60037
0171FFBA
006A0002
0067FFFE
00840018
01C3FFED
003E002F
0081FFDC
00100034
01C00020
001A0031
0193FFFC
000C001B
015FFFC2
0033FFC4
0013FFE6
00AA0004
0011FFEE
01E1FFC9
0012002F
01E40005
0067FFDB
003BFFED
00320003
008BFFFB
01B00009
002E001B
00100021
0069FFF4
00400037
004BFFBF
0047FFD8
0032001F
01FFFFF1
01D40006
0063FFB7
015BFFCB
0013FFE5
0074002F
0015FFEC
0033FFD3
01D80009
01480003
0031FFD5
01A4005C
009BFFD0
0179FFEB
018BFFEE
0041FFC3
01F5FFD5
00360022
0065FFE6
01E7FFE0
002FFFE3
01A7FFFC
018BFFFB
01620015
019A0010
01F1FFCC
01C5FFD9
01E1FFBA
01EDFFD6
005A0021
009C000D
007DFFFA
01BE002E
017FFFB4
01DFFFE2
0042002C
01E20015
01C40015
01EC0009
001DFFCD
00660026
0001FFB9
0060002F
00560014
002A0010
0073FFB0
01B8002C
0001FFD8
00560028
019E0024
01C20013
00520039
0069FFD0
019FFFF8
01A60020
0060001E
000DFFF4
01EE0000
0077FFC0
007C001E
01D7FFDD
0017FFE5
0013FFF2
01C7FFD7
01DDFFF9
000FFFFD
016BFFFE
0017FFF4
0001FFCC
018E001D
01D6000E
003A0037
019A0032
0171FFD2
0199FFE1
0006004D
01DBFFCF
01660034
0043FFD9
0031FFC2
0015FFC8
002FFFCC
0093FFCA
0089FFD8
0193FFCF
0025FFB8
01A60020
0061FFEB
00400007
001C0014
0192004F
01A8003E
001FFFD1
0058002A
00140037
01CA0033
005E0011
00280032
0069FFF3
01FBFFF0
001BFFFE
00260036
01E7FFC5
004E003F
0189FFC9
0004000C
0088001B
008A0015
0052001D
01C1FFC8
0007FFFE
01CE004E
006BFFCF
01FE0035
0032002A
0169FFDA
01A4001C
01AA002A
0029FFCC
0183FFB0
006FFFBF
00B3FFBB
00520030
003DFFB6
007E0022
007FFFCA
01AE0034
007FFFCA
0056003D
01FE0007
01A1FFC9
01F1FFBC
00A4003D
01C20019
00700043
00B8002B
01FFFFDC
009BFFE8
00A0001B
006BFFB7
000C000E
01AC0037
006C000A
004E001E
01B5FFEC
0001FFDF
0013FFBB
01980029
01EC000B
004BFFEB
01A00040
0193FFB4
0041FFCC
0082000C
01B9FFCA
01BE000C
002E0023
01D20007
01EE002B
01E40007
01A3FFD7
00000038
00620034
01900041
00620024
0033FFD0
01C3FFFA
0053FFC2
0079FFD3
0051FFCA
00480023
0169FFF2
006E000F
002FFFD3
0065FFEF
01CC000C
01B5FFD6
01AFFFF5
01800008
006E0024
01A40038
01B3FFD6
0017FFE5
0033FFF9
0015FFC9
0089FFAF
0187FFA3
0055FFBE
0172001D
0043FFF3
019A0001
01AFFFD9
01A7FFF3
002A0016
0021FFD3
01E5FFEC
018FFFDC
0169FF9D
0130000A
0080004F
01B5FFD0
017A002A
0029FFFA
0019FFF6
002BFFDD
00260022
01FE0006
01BC000A
01B20009
0189FFB4
0065FFF6
0029FFE0
0011FFFA
003A000B
0004000F
004DFFCD
002FFFFC
0055FFB2
0019FFD3
000FFFC8
01C3FFBE
0055FFFD
0029FFE2
01BDFFD4
003FFFF1
0006002E
01DC0024
01DBFFBE
015DFFE4
01E60005
01520011
01E60019
019E000C
0015FFEC
01F60010
01C6002C
00A9FFCD
01F3FFDC
0189FFCF
0183FFDC
004FFFC4
00060020
018E0052
0193FFDD
0009FFFE
0075FFCA
000FFFE3
01C0001C
008E0000
0003FFE4
004BFFB0
0173FFA6
01E80003
01D1FF95
0061FFA8
01BBFFD0
01F5FFA3
004FFFBC
01AFFFE0
0011FFF1
01AC001D
01900022
0008002E
01FFFFC9
01D5FFFF
019BFFC1
0017FFDE
00A5FFDF
002DFFA8
01FA0004
00600001
01B7FFFB
00140026
0192000D
01820039
0039FFBB
01E4004F
0167FFDD
003BFFC9
01DBFFD6
003DFFB3
01E1FFDF
01D3FFDA
005BFFCE
01CFFFD4
0161FFC7
01EE0015
0084002C
01BE003B
01B5FFC9
001FFFFF
0063FFD6
01A1FFC3
01CDFFFD
0168003D
018A0024
01E8000F
001A0050
0063FFF0
0065FFF1
01AFFFD9
006DFFF8
01EA0023
0019FFD6
019DFFEE
0179FFFA
0042000A
00920002
0199FFE9
000DFFD5
0197FFCE
01F4004B
01800019
01DC003B
0056003B
01BE0011
00720036
00800010
007C0019
0043FFF2
01EFFFE8
003C0004
00A40004
01EE002A
00220033
01DBFFC4
00B60009
000BFFEC
01E80021
01AC0018
004A0002
01F80019
01DE0028
01D7FFD3
009DFFFC
002DFFEB
00200027
001C001B
01E7FFC7
01A5FFE0
00A00027
00120043
015BFFF6
0055FFEE
01C0003A
01E80009
001C0013
000BFFDC
01B60036
00340027
0060000C
00540034
01CFFFD8
0198002D
000C0004
0166003A
0197FFCD
01AC0050
005FFFB9
01B6003B
000A0044
00420042
0028000A
0061FFFF
01FA005B
01E4000E
00120033
0147FFCC
00120041
0000003D
018E0036
017DFFFD
01AE002B
00760036
0070003F
01D1FFFB
00880030
01660022
006C0028
01DE0023
018BFFD9
00720006
0055FFEF
0135FFE6
000DFFBB
017FFFE5
01E1FFDD
005E0013
01DA0013
01B9FFD7
01A9FFFB
0117FFED
0169FFFC
0155FFD1
01700013
01E3FFD4
01EE0003
004C002E
0043FFEF
001A0021
00500045
0087FFDF
01A60040
0027FFE2
01A60042
01B00023
01CDFFCB
0062003F
01580033
017BFFD9
0180003C
01920018
017DFFFF
007C0026
01700035
005A0010
0181FFDF
01C7FFE8
01EE001C
01C3FFF4
01F4000D
01E60002
0177FFC4
01960026
00560030
0015FFE4
01E9FFF6
005C0031
01EE0014
0191FFBD
0003FFE8
00220028
01AE001D
018E0025
01DDFFDE
01CFFFCE
01A8000A
0181FFC2
01D3FFE7
01E5FFC9
007A0022
01CC000C
01ADFFE2
0062000C
01F40038
01B9FFEC
0092001D
01DDFFDB
01ADFFD3
01C20027
002C0042
019BFFDF
01B20029
01DC003F
01AC003C
0055FFF0
0036002F
016BFFFB
01A4002A
0073FFDD
0001FFFD
003BFFC0
0000003C
005E001F
00320037
01D9FFE4
00180013
0045FFFC
00400009
01D9FFD2
0081FFDB
01C0000B
01B00033
004C002F
01F3FFE2
005DFFF7
01DDFFC1
005A0043
01F1FFD9
01CBFFFA
01FE0021
01880022
00480053
01E4001D
009A000B
00320023
01B3FFC9
01EBFFF1
017DFFBE
01E9FFD8
01900030
0043FFD7
007BFFF6
0090002F
01C7FFEF
004FFFDA
01AC001D
01BFFFD9
01F5FFFC
01AA0030
00660024
0039FFEC
019A0021
01A4005A
01BFFFF2
00700017
0065FFCF
005FFFCE
006BFFD4
01AA0036
01A2003D
01C5FFDE
0039FFF3
01EDFFCB
01BE002A
01E00016
00500023
01CDFFB7
01E9FFEC
01B7FFD5
01F9FFEA
0029FFFC
01DA0032
00980020
01FFFFF3
01FFFFBA
0054001F
0042002D
0197FFEC
005DFFCB
01EFFFEB
0023FFFA
018E003D
01FE000C
0016000C
01D6002C
01F3FFE6
006E0024
01600004
00540027
01D80003
01DE0001
0069FFFF
01E3FFF3
00760014
0050003B
01C1FFC5
01EFFFD1
01DE001E
016C0001
017BFFCA
00700018
006E001F
000C0020
01F7FFCB
0017FFFD
01AE0017
006C0042
0193FFC3
01F00008
0057FFEC
01BDFFE7
008DFFEE
01D00013
0064002B
01D00002
01F8002D
0065FFFC
0049FFF4
00240008
0187FFEC
0073FFFE
00300027
0000001A
01C4000B
00A7FFBC
01FFFFC8
01D7FFE3
018BFFB7
01FBFFCB
001DFFD6
01A5FFD8
007BFFE9
0089FFE0
01B4001B
01CBFFEB
015A0006
00380010
01BFFFB5
0061FFD9
0049FFFE
018C0019
01A40009
0181FFF4
01FE0018
01740036
00780037
019FFFE4
019C0001
018FFFE9
0173FFDD
014A0037
019DFFE7
001DFFEE
01EDFFF5
0199FFD0
00320030
00820018
01CC0012
00600026
00540016
018FFFE1
001DFFC7
0157FFDA
01E9FFF8
003DFFD1
0050001C
018E0033
01F4001E
01F4000A
0031FFFB
007BFFFD
01B1FFC8
01C1FFF2
0041FFB6
01FBFFC4
0059FFEF
0189FFFB
00700006
006E001F
0026000C
0033FFED
01C80029
00140032
01880024
01E5FFF1
0199FFCE
0199FFDC
008DFFF2
005A0051
003C0049
0195FFED
002BFFFE
005DFFBF
0039FFE1
0178002E
00680002
0045FFD9
01DBFFCD
00700043
0196003A
00100013
01FBFFFE
01D1FFE8
0024000D
01B80013
0150004A
002E003C
0009FFE5
000DFFC8
0083FFE4
006FFFC3
009FFFBE
0078001E
008FFFC0
01F3FFFB
001A0017
00520022
01A7FFFD
019A0019
019A0046
01720004
016C002A
0068002D
001BFFC3
0067FFB4
0079FFDB
01C60000
01EC001F
01DFFFE9
00300028
01BC0031
006BFFD5
01AFFFF5
01C80037
006DFFEB
003DFFFD
01A60024
01DE0008
01D2000D
01C60021
00560038
01B5FFF3
003BFFC9
01860001
005BFFC9
007DFFFD
005C0019
01D60013
000C0001
0031FFD8
00280020
0197FFD2
00380053
001BFFE6
004BFFD7
018E000E
005BFFC9
0009FFFB
01620040
01FDFFFB
01900002
0197FFBE
01DBFFCB
00100025
01B5FFE0
000E0011
0031FFCC
0055FFB3
016A002B
0036001F
0093FFC9
0185FFF5
01FA0020
0040000D
0047FFE1
01C00015
017A000D
00700025
0016002B
0077FFE4
00480002
001A0011
01DFFFEB
018FFFC8
01C1FFD9
01F00003
003A0030
001C0034
01A40034
006E001F
002E000A
00000017
005BFFE5
01C4000F
003DFFF7
004BFFF7
01F20023
01100010
017DFFFC
0043FFB4
00980001
001BFFEB
017DFFD8
004DFFCD
00700033
01FC0016
01F1FFE2
0070001A
0057FFCC
001BFFF2
0136001E
01960009
001DFFCD
0007FFCF
00900022
003E000E
01AA0021
01DE000E
00020027
00100001
00B9FFC2
00600026
01700007
01E60048
016BFFFB
0017FFE6
01F00004
00B1FFF1
00A20007
01F00037
000E0014
01E9FFE0
01D60016
00080046
01E20033
018DFFF5
005DFFD8
00120009
0017FFEC
01BFFFE7
000BFFCF
00740033
01F40031
007BFFF0
0039FFF3
01700025
01380014
01A5FFBF
002DFFEC
0080002D
01620034
01960030
01C00037
00020017
01C3FFD9
01FE0008
001DFFF4
0014000F
014BFFF0
017DFFF2
017E0010
01D4004A
01DA001E
018A0020
0035FFFF
0057FFCB
0041FFC0
00560045
0039FFD0
019DFFEB
01FFFFEE
000E0045
00200032
01DC005C
01AA0004
006C0005
005DFFF0
01FE003A
01F80006
01EC0004
0060000D
00180029
017FFFDC
0041FFCB
0043FFD1
01C80014
01920025
0005FFCF
001FFFDC
0196002E
0025FFC2
007A0024
01DA0039
0044001D
016BFFD3
001E0009
01FE0008
00240043
006E0005
000E0003
018C002C
01EE001F
0048000D
0017FFF2
019C0000
0037FFFB
00840040
01D1FFD0
000FFFF0
0091FFC5
00860011
01C7FFB5
006FFFF0
01A5FFEF
004E0035
01840035
01DBFFCF
0164003A
00380020
01960034
01A40006
006BFFFC
01C4001A
0195FFC9
00040001
004C0001
01A4000C
00060038
007FFFF4
01C4001D
017A0054
01D00032
0182003C
0023FFB3
01D5FFD1
01CDFFFA
0052002C
01AA0033
00660002
00060036
01EC0026
0193FFF8
01BBFFD2
019A0006
01B00017
0072000B
005DFFDA
0043FFE6
01ABFFEF
0086001E
007DFFAF
017BFFCB
008C000D
01C40010
000E0022
01C60010
0033FFFA
0053FFEF
005C0034
017DFFFC
01D0002F
018FFFB8
01B0002C
01BBFFE2
01F8003E
00B60024
01E80027
019BFFC9
00180004
0091FFE0
01DA0033
0043FFF2
019E004F
0169FFCB
01D8000E
00280024
000DFFCB
00220033
01BA0011
01FFFFCB
0024004A
008A0008
01B1FFED
002E0006
0006001E
0162000F
018E0007
0023FFE7
01AE000F
001FFFC3
0076001B
0187FFB9
01FBFFEF
01BE000D
01700030
0089FFF8
0179FFEF
01FFFFCC
003DFFCA
01DA0004
012C002D
01CC0071
0193FFD3
01D2001E
001DFFB8
0089FFF1
000A0004
01FE001D
018BFFCF
01EC0009
0171FFD3
001BFFEC
01900044
01CFFFE3
00180042
0163FFDA
0014000D
008BFFD3
01700015
00700030
003A0005
006A0043
01F3FFBD
01740018
003E0040
0182000E
01A60034
01F7FFC2
0068000C
009A004C
005C0003
004BFFE0
01DDFFC2
01ADFFC8
009A0008
017A0006
0001FFA4
01C7FFE0
0083FFC7
00480021
0194002A
01BA002C
0193FFBC
002C0045
0197FFC9
0193FFCC
01DE0035
01E3FFCD
00BDFFDA
00BBFFD1
00200016
01A80034
0048005F
01F60018
00020009
01CFFFFE
005C001F
01B9FFEE
01D9FFD2
0164004B
0187FFC7
00780016
018BFFBD
01DBFFC6
0043FFDD
01A80018
00640039
01AFFFA9
0053FFFA
00140004
01AA000D
01DBFFC4
01BFFFE7
000DFFF7
0173FFE4
01E40037
01A5FFC7
01AFFFB8
00020028
00300030
0189FFD5
01B20001
018BFFDD
018C0034
01C9FFDA
005C0028
01E80005
01FA001B
0046000E
0189FFCA
01DA000D
01A5FFF9
0042000E
01BC0037
01F0000A
01820015
01CA0031
001FFFE4
0027FFC8
01AE001F
002C002B
0189FFDC
003E0031
0157FFF2
0019FFF4
0061FFE2
01B6003D
01DE003D
01D8001E
018A0013
01B2004A
018DFFC5
006C004A
004FFFED
0047FFF1
0050000F
0044001F
0087FFDF
01A5FFD9
01C0000B
003C0037
0012000D
00820018
0037FFCB
0011FFE6
00820029
00660012
01EC0032
00A00016
01B80016
01B9FFE1
01CFFFE8
01D5FFC0
0004001E
00ADFFF2
009A0029
018E0033
0189FFB8
0029FFF8
01CFFFB3
01BE0023
00120027
00680029
0055FFF7
01B20003
002C003F
0065FFE5
019FFFC3
01FDFFD1
00740024
00220026
01F60028
0006002B
00800006
01C7FFDC
01A80023
007E000B
001A0027
00560033
005E002A
0029FFEE
00380007
01A3FFFE
01DC003D
0059FFC3
0061FFFF
01F8002A
0059FFE6
004E0001
01B60033
0049FFFD
01D7FFE2
01F00015
01E80025
01F40022
0037FFED
01B40019
001BFFE0
00120056
00180024
0045FFED
0007FFE0
01C9FFBD
004E0026
01D5FFFE
01DFFFB4
007E0013
0176001F
01C5FFD6
0042001F
01B1FFC0
019A0033
015C0033
01AC0017
008FFFF9
0079FFD9
006A0003
004BFFF8
000A0002
0061FFB1
0089FFB9
01C5FFFC
0188000B
01E60012
002A000E
005BFFDB
01C4000D
01840041
01ADFFE0
0199FFFA
00560009
01920020
003BFFBA
018A0016
01D9FFC2
017BFFDE
0170002F
01D1FFFB
00340012
01AE0020
01BA0040
01B1FFE8
01B3FFEE
01D9FFDE
016DFFD1
014BFFAD
019C0004
01FBFFED
01D8000B
0071FFDB
000DFFD4
01A80029
002BFFF3
0031FFD5
01BE0042
00380009
018E0039
001E0012
0173FFFE
018BFFE7
001A001F
01CC0028
006C0028
01F7FFE6
01DFFFEC
0003FFD8
0194001B
0084003B
01CDFFFA
01C80003
003BFFDB
01C00028
00ADFFD4
00820030
006E0028
00580009
0161FFD8
01BA001F
01F80000
01A5FFF8
0083FFD2
006DFFEC
003FFFD6
005FFFC4
001BFFE2
0056000C
0013FFE7
01AA0033
0059FFD6
01D2003C
00180039
005A0003
006E0004
001E0010
000BFFFA
003DFFFE
00980037
01EDFFDE
004FFFD0
00580029
01E60011
01A1FFC2
01EA003C
004DFFDD
01ABFFA8
01DBFFCA
01E80021
005E0007
0069FFEB
018FFFEE
0027FFFD
01C3FFF9
0057FFFE
01CFFFE6
01A1FFC1
01800008
01CBFFAB
01DFFFDC
0000001F
00500018
01BBFFD8
01900030
017C000F
00020012
0023FFD2
002C001B
0047FFB2
01C8000B
01DC0030
01B9FFEC
0014003F
01E20050
0185FFC2
01CC0012
01B1FFCD
01CA0013
00260043
002A0034
0051FFE8
01FBFFBF
008DFFB1
019BFFF9
0183FFE6
00180048
01C00025
01C80029
01A7FFC3
01E80021
0005FFF3
0002001B
01B40030
00980031
0099FFF1
0071FFDD
000DFFAD
004C0028
005FFFE0
00360007
00200049
01E1FFCF
01780024
008C001A
00A3FFC2
01BDFFE5
0099FFD9
01B7FFCB
01660031
0049FFE9
016A000A
0039FFCF
01B5FFE4
01E9FFDF
0003FFE1
01EA0036
0070000D
014E0028
003E0031
01D8000A
01E3FFF5
0189FFCF
01E0002F
0049FFD3
01F4000A
005BFFB7
008BFFED
01E0002E
00700006
01B8001C
01DFFFE0
01CE002D
01E5FFBF
0047FFE8
01CFFFD9
005FFFC3
0031FFB6
01BE0003
0095FFE4
002DFFD7
002FFFE5
01D8002F
01F7FFDC
019DFFF5
01F20005
01620025
0151FFE1
01720021
01F3FFD1
004DFFC5
01D7FFF0
0075FFEE
00660038
0179FFC6
01CFFFE3
0035FFD8
00600021
005BFFDE
004A0014
0016001F
0183FFCB
001DFFB0
00660013
019BFFE6
00260001
0088000B
01AFFFE9
006C000F
01960036
01F00035
01D60046
0197FFED
0033FFB6
01CE000D
0179FFE3
01D60019
019FFFC4
004A0019
019A001C
004C002E
01A1FFEF
007DFFBB
0071FFB1
00320015
0005FFDD
01920016
01780032
01CFFFCF
000A0002
01C80002
000C0032
01C7FFDC
01B3FFF5
01F1FFF8
000BFFF6
004BFFDE
0183FFE9
0036001B
0058000B
003E000E
01F8001E
01E1FFA3
003FFFBA
01CE000B
0059FFFE
01D9FFBE
01C9FFDB
00740038
017C002F
0066003C
00080045
01E5FFF5
00760041
018FFFF4
01A9FFE7
018BFFB5
0187FFD5
0037FFCD
0025FFCF
01D4003D
0065FFC8
01E6003A
008A0017
0010003E
002DFFC6
00180011
01EE0050
01F60031
01E7FFA4
0091FFFA
005DFFB0
01E1FFC2
019DFFFE
01DE0036
00540050
015C0008
006E0001
003E002C
0085FFEB
0013FFC7
01AA0040
009BFFD9
00700019
001E0004
0057FFBF
009FFF9C
01EC0049
01F00047
002C0039
00380009
01EC000D
01E7FFB7
0057FFE5
01B8000B
01F9FFAD
016BFFF4
01C60031
0166001B
00660028
007FFFC8
003DFFCB
01EC0019
00420019
00080036
01B60035
01D1FFE6
01BBFFC6
01CBFFAE
01E20042
01FFFFC8
007E0006
001DFFED
018A0033
01DC0011
006BFFD8
001A0018
0051FFB1
00500005
005DFFF8
01C00045
00B80005
000E0036
01F1FFDC
001DFFC8
01FDFFC7
00120020
0051FFC3
019A0020
0029FFAA
018DFFC5
01F40025
000FFFCA
01DDFFE3
01BFFFFD
001A000C
0039FFFE
0055FFE9
017FFFB3
01700014
01FA0022
0016001B
0179FFE6
01E3FFDB
018BFFE4
001DFFFB
001DFFEC
0187FFEE
0063FFD5
00460037
01C5FFE2
01BBFFF0
01AE001E
00720033
01A60005
018FFF98
0039FFBE
015BFFC8
01C4001D
01980030
01C3FFC4
0197FFFD
00880029
005BFFF2
01F3FFB4
00420033
0185FFE6
006C002B
003BFFD1
00AA0023
0036000D
002FFFC0
0073FFDD
0195FFFE
00020040
01E7FFE8
0017FFEB
01A60036
01FC0004
01AE0021
01C5FFE4
01E00025
0047FFF8
003A003D
0037FFFE
001BFFE3
01C9FFDF
01D1FFB0
0005FFD9
01640010
01DFFFC4
0095FFFA
01AA002C
0010001B
006FFFA8
0087FFF4
001FFFD2
01A9FFD0
002E0028
01CDFFFB
01FA003E
01AA001B
01C60014
000FFFE1
01D1FFC3
00A3FFA6
01DC001C
01DFFFD2
000DFFFD
016BFFF7
001FFFAB
01D5FFD5
01840006
01F3FFCF
0157FFF2
000A001B
01C80021
00500008
005C003F
00820034
005E0040
014C001F
0167FFE1
005BFFE9
01CFFFF3
019A0037
01EFFFD5
0065FFCB
019DFFD4
01BE000F
006E0025
0063FFED
01EA0037
006C002F
018FFFE7
01AFFFC1
01780037
01EDFFDF
002A000F
017BFFC6
0041FFEC
00640047
01D7FFDE
00020001
0015FFEA
01EFFFEA
018A0038
0157FFC5
0083FFDD
001DFFC3
01EBFFCE
0157FFF6
014E0019
002DFFEB
0183FFB7
01FC0024
019BFFDB
003DFFD6
0067FFEB
0012003A
0159FFFA
018BFFF8
0039FFCE
000E002D
01AFFFB7
01BBFFE9
003DFFEB
00CE0004
01CA002A
0157FFCC
003BFFFC
0033FFFD
0083FFE5
01940047
01840026
0034004B
0027FFD0
01A1FFA6
01D40008
01CFFFC6
0015FFFC
01760003
01DE0040
001E002C
0015FFE2
01CBFFF1
01A1FFA9
009BFFC5
01E20026
0059FFCC
0199FFFE
01880019
01AE0028
004A001A
01FE000F
0172004A
017C003B
0171FFEB
019FFFBE
0191FFDC
018BFFB7
0169FFDB
0175FFD2
01FDFFC6
0029FFFE
0064000C
0197FFFE
0064002B
0193FFDF
005BFFA5
000C001F
0141FFA6
0161FFEE
01960043
007FFFC8
0081FFC0
0090000D
001FFFC3
01BE001B
004A0005
0093FFEB
01E7FFBB
0008001E
011E000F
0101FFFF
01B5FFE7
01A1FFC5
006FFFC9
01ADFFF8
01FC0015
0047FFF4
0033FFE8
01980018
0007FFCB
0029FFDC
0181FFE8
01BE004B
01A7FFFC
0005FFD1
01E9FFA8
0085FFD6
000DFFF6
004A0010
0175FFFF
00780044
01A00035
004FFFDC
0037FFD1
01500031
0062000C
003BFFE6
01AFFFEF
0033FFC0
0017FFB6
01ABFFD4
003DFFDD
01820001
01780017
018FFFD1
0064002D
0039FF8C
01A40000
01BFFFED
01E1FFFC
01BBFFF9
0007FFD8
01620007
017C0042
01B4002E
01D0003E
0063FFE5
0037FFE3
01A20011
001A0001
006FFFF7
005A0007
000FFFED
01560006
004BFFEB
005FFFC2
01E20009
016FFFE0
001A0025
0046002B
0018000B
01EA002C
005E000F
0016001E
0159FFE1
01A1FFC7
01F40044
017FFFD8
0165FFE5
00720022
002FFFD2
0162000A
0014000B
01760026
006C0025
004C0023
01980024
01FA0027
01DA000D
0043FFE9
01EE0009
004E0033
015A0001
003FFFCC
01F0003D
00240043
0076000C
01F7FFDD
00AE001A
00900011
000BFFDB
01660023
01BDFFE8
0083FFC3
01EDFFB3
0092003D
000C000A
0066001C
00660041
0081FFE6
01D5FFF3
01E3FFD0
01C20000
01BDFFD2
01EC0011
0013FFBF
01C6001C
0089FFF4
00840011
01A3FFE1
000C001D
01C7FFED
01F60044
007C0033
0189FFE1
01FFFFFA
01B5FFDA
0073FFFD
01AFFFEE
0048002F
00460023
003E0019
01BBFFF2
018DFFF8
00880008
01C2000B
0033FFF8
01940034
01DFFFBE
0179FFF9
019DFFBC
00060026
00900031
0020001B
01B2003B
01EC0046
0005FFC4
01A20016
01D5FFC9
0043FFCB
01700019
000FFFFC
00380058
00300043
0023FFD0
00440015
018FFFDB
0035FFF5
017FFFD0
0183FFE7
01F60017
01EC001F
0163FFFF
01EA0034
01C80046
0060001D
01FA0040
01D1FFEE
00980000
0198000E
00240035
005BFFBF
01D7FFB8
0071FFCD
017E0020
01F4004B
01B20039
01DC0030
01EE003F
003A003D
01A9FFCB
01F5FFC0
01C7FFE6
0022000A
0068001D
01DC001E
01F7FFC1
0001FFF0
00520013
0063FFC9
003BFFEF
01A7FFCB
0084000B
01DDFFEE
01D9FFBF
0073FFC5
0019FFB1
0073FFD3
009FFFAC
01D0002A
0088000B
005A000B
0017FFC3
001DFFC4
007C002B
00460007
0052002F
0075FFEF
017DFFF3
01F6001C
01880025
002BFFC7
01D80021
01FE0024
01B7FFE9
00220025
01C60016
0189FFC9
01C7FFBA
0043FFDF
01C0000A
0008002A
003A0045
0196002B
0169FFD6
00200001
01A1FFED
00160016
01D8002D
01B60005
01940006
01A00011
01D40014
0171FFE4
0012000B
0160003A
00660048
0006004D
000FFFF8
000C0007
003BFFFB
00580023
0016000D
01D9FFFE
01F5FFC9
01B7FFFE
01FDFFFD
0056003E
019E000C
0079FFC6
01E1FFF8
0045FFC9
01B1FFB3
0083FFF5
0029FFBC
016E0029
0185FFC9
00520000
006C0027
01F80027
00BA003C
01CBFFC3
01F5FFE6
0005FFEC
005BFFE2
01A9FFDE
005BFFC9
01FC0018
00080011
01AA0041
01AE0007
00200016
0197FFD2
00440039
01E60012
00320007
01C00024
004DFFD5
00180036
01D6003E
000BFFE0
00020011
00380025
01F40046
000A0005
017DFFC4
01C9FFE7
00BDFFD1
0009FFF0
01C9FFFE
00280002
0027FFD8
01D3FFEE
0033FFE2
01D8002F
0013FFDD
01B2000B
01F7FFD5
00520023
003BFFFC
004FFFE2
01A40015
0056000E
0183FFB4
01960028
0014001E
01E9FFE7
01EC0029
01A4001B
01BE0055
019FFFEB
0033FFCD
0191FFD9
01E3FFDE
002DFFF9
0194002A
01620019
01C60021
015A0023
0161FFFD
01EBFFD8
01F20032
00160019
0013FFC7
01D1FFB9
01D6002C
0029FFAF
01AFFFFA
002DFFD5
0035FFD2
0041FFE8
01A20029
017BFFF0
000FFFE5
01EBFFB4
01880036
01C7FFF2
0170000A
0023FFCE
0176001E
0043FFEA
017A0015
003FFFBA
006FFFD0
0058002A
004A000E
005FFFFF
00340038
01EC0005
00660058
0010004D
001DFFC6
0017FFC0
0051FFF8
01A3FFFD
0009FFDE
0086002D
01B20010
01C3FFDE
01C9FFBA
0047FFAE
0041FFFC
01F80047
01A9FFBB
00860013
0027FFC5
016BFFC5
00860000
0030002E
01DE003F
0043FFBF
0053FFB8
00320032
01C3FFE3
01C3FFC4
01FC0028
00180025
