11C201D6C43BF53FECDC16E5C5C12BF3
0A39EDE7F0CC2B1701032C1549D2BD2E
FB33CEAC2F15144A19D0C6F2F2CCB40F
F0F50F0AB330E320F7524E4343F0B849
0723F4D2BFF3D70AC5230701D612DD2D
C2DBC3FFEDD309CCEAE0EEF40AE753F8
38CAD634FB16DB352A0019330C2ED01B
3FFCEED4D8101AE538E6D81F14211B39
FDBBCEFAF500E41DF436DD32B81A25C3
12E7EEF7233C1DBECD12BF3FD6D0F22E
2F43EEBFF30544FC463C11FE3E4A1B1F
B7D1E90F50EF55E90F381227C124C6C4
BA291EB122032D4BFABE28DB0311184B
12F4D833F0F4D2292DF7DAD33FFC28F8
423624E6CB0B1BFCCB17B943E7FF08C0
B91DF6FCFCE7BB0B1C3FEE300C2AF1FF
B5FDDFE0F2F3400ACFE50725D5391BE4
16E02534211FD5470E37190C23F031D2
14CDB805091AE2F2B4F62735E5EF4508
09FAD003DC3109391D36353057C01339
F92637E9C2CB3B3CE2FFD5CEF8DAF33D
14C7EAEE11FEF1D21A4DE1F8BC11D240
C6FC0DF7390A4A38E9FDF0D726140622
E0DA2AD8E7EAD420BEF63DE74325BF2B
3D15DAC34B05590B43562631083F34BB
1E19D04119DAD6F400FF2BEFCA4216F7
E61AC931CA4FF6DAC847BFF10C5AEAFC
BB1A0B441722B043BFC70FAF1B041CB9
F510D52E1122DB19ECC42E1A313C302A
39441AF733F1F1F8ECDAB8EB2D032CF0
1B0CF4332C08EF2A48F05B3E1C3CB83A
01ECE6D4CA39CC3F36D4EEC4F42EDDE9
301229195500F6E8DFFB28D0CF064FFD
F11DE8B4CA0B544014C7F14117FBEFF6
1533C2D324B116D4DEE8CAC61EC5D3EC
B83B053BD105D6F404CBF7D32A2D0644
09DA3AE9DEE6C7F102BBEB342AE62847
D6DA1BB80700EF29EAD738D2F9CDF322
DF03E80BECF1FA32D001E2F4FD43EAD4
33D82BD61E27E1E1D10301BC4F542EE1
BB1EDCD3371C00EA1AEFDE29DDF6CB21
E41B37391CC81C0CEBD9F527D2ECB921
3FBFC214EEE3420C1AE5C72EE83DEAF4
2326C7C9283C1CFC2EFC3C22FE042131
D4D6FD05121542E437C82240C9DB1305
3936E7BAF913CC4E33CACA2E1B3EDA2C
200AF2E0F417DDCB1538D6F32DD112D3
3BBC27ACBA4C251B2B042D000DCCEACE
06E713FAFF26EC420740FE001F47D8C5
C1D5FF2A26BBDB22E528DBE32EC22932
CF2FDD120439F912D51934CF24C70742
FEFCE3C6FFE9E40CF512DBE0C50C3906
D0331B3BEAD000050CF1D8B5D4FCE936
50E5E50C35EA31D5EEF3E7B1DBE6DA2D
13B8D706F7195A4C16C244D5D8281D01
D6CE402FDDD6FA1B20D5E24CCBC80D1C
E0D938E2CBD712D63CDFCCFBC0DD2E17
1E0717304EC843DD2E481418C0F8C0FA
1FD4DB0C2CBAEB0334DA01F5E718D80F
C4C5F901CD16C0CB29453F12211FB5DC
C424EE15E00DCCFAD71C1DB00C0CAEEC
FA1B0BCD22F041B71AFED0FA02C71BDB
34BC06E8BAE8CEACD028EDF0C8E415C9
3845FA0012332AB8EC470B2EFFD12AC4
D03799E90A1C1DD6CD1B3AFEC6022CD6
39D2312911D8FF07DFB20FE8F7C410F8
E60CF5FBA4B7C2FDA50F1CCF14E709DB
B0BB08C7F24629CCC9DBB834020A382A
DBFCECD825CC0346FA2DAEDAF7CB2DFB
F41A35E2DCBC422FC2C6CA120C03CEAE
FAC6C3B92A1E1607DC360706BAD4FF11
C629EECED015F0EFE01BDC01EEC5E336
1A0AD0BBF4FE05F0D2DE3BE915E7232F
202949EF0C4D2B0C08D339EB2232CAC4
DE19DC1CF124DB2F37205BE7D9E23249
32D435240FC035F803CAD9B3E1D14834
290F67D915123CC8544024E9CC416005
A9D6E1FE3F25DF441ED9DD012AED2ACD
E6482FF2E9221BCB0E164E4AD4CCEDBE
F9100DCD27F6C10263EACFC00E34BEBA
2F113DD131FEC8CCF8B9F2F926D95828
4B17EA3D0F36390DE2F73849D60C040E
0C32DEF927D226DC06CF2213E8D925E8
07AF27164014E4FB20E422C6D4F7E004
F01D2E1F37B4E502C34B0332E428CD27
4A4129F2EA0335D111ECDCBEC31DD30A
23AE04EA13BF3C3C0D07212BC0FCEC06
EA453DE304A8F706BA1B472730F81CCE
44AEC6431C20E6162E0F29483800FBF5
CBECC4B5F4D8E5E220D50FBAFB1C4720
0FC5C0223C3508B21EED2C37421B4DE5
18FFFBF33122420518EAF71E4020B60A
FFECD114CDB1DB372B22E332083B0DC6
44D708F206FE0CE5FAE9D006341C1854
E70117160F250CCEEAB9EEE6A949F714
0F04E3B9EBE5EDF63CE80709253EE834
47421DC030110B0DF736F21518371E1B
31243B08E9FCCAEC0E0DE1FF1AAF431A
DD1F43CE1BDDCA4627E9F72939260BE1
F7DED50A0105311FBDD9171E1657DB03
15C030ED14C2EA26F13F2723D1E426DC
C836A92DBC0108D5E3F635E944E8C843
2942E1D019C52BD9F6EB1AF4DCD54309
E2BB05F2B103AAE2B6F62F1A35E33408
371021DEFCED14C91C0B1F232F27C145
E9DD1A2FE900E7F2C73FB1FECF39DEF2
DBCAF5434210E32DE1D72446CAD956C6
40E4E34BBEBED20202F3C4CF07532E41
D2B7F90A0B0D13E11CF919BB1FE03A12
EC26432AD9C6EF390A2DDFE6D8E1F5C3
CF3BF63DF021F5FE20EDCADEFF1C3B1B
11FB473AC344E9FC0147DCE528CCDB15
22E731FD050E2BFADA1F03D7F3120A04
BBB3010E22D9E2F602C728F807352C25
34C9F630132B37D6E7DE41D1D2031BEB
EDBFE821FB2013D0F811EE360CBF010A
F8C0FDC9F71249D7EBE5D32CF830FA3A
35F75148EF13EE081B31CE142304CE1A
BD0BC1C82FE01ECE0F0CBE44DE2B37B9
FAF13334B7EE222EA9C7D5BE08EEDC27
56C7194A192414F8D0C5D60D58FBC2B9
2EC8F044E7FD06F623B9BD030FE3E5B7
25E6EB18F9EB36E8B3ADC4C027C4F6D2
0F4DCDD4FC1E523F0CE6B9F5D10F1ADA
B9E719FCC525E72E3DF5352F1CF2BDBC
C6FDD3F9FFC8F01441D1D112FD0042E9
DCF339013326EAC0ABC11FBBFCD4DEF4
10BDCF121A430DCC50F2EEC61D3C3041
4B22DEEEB1D625EC0BE6CA231A1D2D30
DCFC1F13C7FF4BFF48D2243DE8CA2953
1ECBE43D454C21EDDE32ED28BE49EADA
1836B4F42C31D2B842BE32C10031D803
D0C6B6DA4EF3DDD831C8203DDD3FBF1F
D82C311DF1D2C8B8EA4A00B5C634F024
F9FEDC3126E2B1EF2A0AFF4A3AC1E51A
BFFE2BFD2BF4E1033F071340EACA0428
2B17C9CDB7E2E9CED9C8EA0BF5D315FD
261FFBE7BF20FACEBF0F01FC22D5A91B
E738CDD4EA362915E41B11F7D910C028
14E305CE133230BEFEAC48EF0711E9E8
F32220422E46CF2437C4C4EA17FFF925
24F71B4351FEEB21491A35DC1812CA0C
F4BCBDF016463B08D8B73B23FC0D3CEE
1F1D404035C0B8F9C12A0C3619FBEDF8
43B8BFC1D820EEF439E200CD21BEF6E2
10DC022AC510D5C3F827E12AC637502B
2AC0D5B909DDC1CAE0F6F2F8CCF24121
06FE2F02EE0DB6EDF6EB33C725EF1512
D9E0DC31E5B4E624EBE4CEDABABC4744
0DCE3ABA41E9EE101107B027B625D8F8
171CF829C43CD6F0F1DE1AE3F3F1DB23
CAEE0704D612CDFE0721A21DC8E44626
C54017CB10F4B9B2D90B1826B5D6D3D6
3BFC4423BB1A391B1AB6DD32D936BFFF
27E8CCCE2B16D8D6EF00EA1DEBE2CBEB
F72CDBE53D33CD2CB5E511B808B5DD0F
05D1F32C301DBBFD1EEC0A181F10EFF7
15AF4605E24113EA2111513BF3062FB9
F7001A2BF52700DCB6FD313BECF445C9
F5FDF5CF37FBCAE1C7E53219E7D91D3B
DF34F9DDF2C1F49E0EB00CC4F23E0C4C
01C445DE31FA1301FC3A14B6DB28CDFB
E610D74FF93EE619E22AC6F43733111F
F808014BE6E849320CF0300C132B0BED
E83729A4BBF338F80F04C8EEF3C426D5
2DCD0FC323302D28D5E1112EE316D7E6
E8EAD1D14005D02AF0BC1CFB46EE34E7
C8F736D7BBF7A007E5FA10EFC11506E8
3D3B12C3D2EE300036C6FBB9381015EE
190BB6E8B3D3F705C2AC2229F5DE041B
9D0BDEC62124CF470CD6D2CABF1E3B11
204CCBE835BFC4C8ACA72BD319E5AB19
DC4124171AF814C929C1F317DF46E60F
E00C192F0D2028EBC311112BFA09323A
E6133A05C40D292F16CBF1CAD92FE0AF
E735E0E6030CD7D4C12CD4D1A8D1D8F2
3222FEC5B710CEC9B0D7D3CD23DE3037
3A17D1DEDC01D32DF924D809A60CFC1E
BF0140F704DA20331421F1D31ABAB3BC
CA4D1910CDF9041129DC33F5CE260D42
BAE1FD3AC0D304212A3F070FB7331C19
00401A35132AD22F03C93808511D0710
A1E00F0B370E3700C5F0C5EFEE28FC28
00E9F62917FB35400D1A0EC1E6DDDB27
3A04CFB69DE43631D2EDC1C615D8CBF5
D837CADEDB1E1924D80DCBFA1506BE37
3D501A3FC5BE0B28FFD22FD43B081142
CC11470A00352F1FDEDC222EC6FAF2ED
F6CA3344D5C1E7CA431334FB32E1D813
382734C5CABCD8F539E0FFA7CE2816D9
F8414AEEB7D1D325F41132F7324927B5
EFF93F250A32CAFBCBD0333DBD0635F3
F3B1233315CE30FBCBFD422EE522FB21
CC4209CAC42D24BFD1CE29CCC2361539
EEEECCC5FBE1D6D21728DC55CEC91BBD
EBDF0B50E03331E5E1D1FAFD92014D37
FEB0BD5509B5F201CDCD22BB0841FB2A
D847E50A4E24FE081616FC36D749513D
FD1F24CEF4064B02DD1EE3F42612012E
04B5073758051C1F3D533C3F6049DEC9
EFC7BB0E111F221FFB1A15F3F4B0092F
B01A05F6F035B6FEB500F6D71FF8382A
39125317414DCE1F1E07B6E8B9F5E217
25ECE4B919D0E9CE40310D0128351A35
3439F8C3E9BCDC21D0F831F04833E02C
CBC0B6B425AA2FDEEB3B46D3C73EC82B
14ACF214DABE3225C7FFE3FC36E62223
C2270CD41B36B625D3B7FC230F08E0A6
40E023E8C525F7404C05EF19B33DF83A
C2F8F80121382CF5F41DC2B7F6B81B10
CF15152FD21BC0F0D5F5BE2806FE1D21
E2BBE2C813F32121E5B2C914B9AEC734
FCB9D51321D4B73EEA2215BDF41C33E8
09D80ED13A50F53FDDE9E5EFF02F2C45
BEC20421FEF2DFF938DF111E23B4FD0B
10C228E42A2B3F28EF390F21E0F754F2
2A01EFBBD42D03E1CAD226D01D1AF8F5
C0353DF5F2D0D93BC817CCB115E3D11A
D721DF073614B5F93141F333180AF2DB
D03EBF272B11113C23295128FEC9D1F3
E320EB0727D749FCF5AF01B5AE2ADBFC
D3C7C34BC21F942F00BF0AF8C9122FF8
CD090701DA15B2432309D0C338E114A6
1D29B2FE182DFB38FAD60B14D9133025
F922BC1F39CFD7320C1F3CC8B81FD9B9
0AD54DECC83818030BD3CD1BB51CE9DC
2F01C3F8FCFD0F42D1C63E36C9F752BF
1CBA09E016DAEB1FBFDDE9BB39B1C7FA
29D12CD424EE213ACA1DC518F6F0CB2F
EA0441B6C8F104D7ED17EF150E12102C
35F2DBECCEF1F6270EFD1332262708E0
250240F4E237FAEAD037BDF1CA4109C7
C40EFCE2E1DA4D043613EBB82A22C60B
51F51333D5ED4437C5F80FD8CFF4CCF5
25230E0B1C29D8DAF8D52EE7E90A0CCC
EBEB14C2D22705D016D0FAF9F3F03435
E53C1F38152733B5EFCED84A14D0DA34
D654140EDDD335BE3DDFCE00FF0BFEBA
CD414CEF5AE1B43945D208F6FAF91154
09C5E7C0A5D108053A1DB739C801B6F7
36DD3AD0E758484D130EE900E9FF050E
E6D8F02CB6D429E5C205EDDDC039F826
E53A14190ACA1841C54702F833DDB839
2AE3CCDDC2272BDC09B320FE3517FECF
D80507C5142D390C0C4C2C3F1E291911
0F240F2DF20550D211FED202E8E7C32C
41D609C822C438CB25C61B10F6DF42D9
D7E834E4C7FAFF3136490D402034F2BD
E5CF02DCFC21E1E6311E09C712C6E73C
364BC5C5C807FB201DDADE2B26CEE03A
2BD31A0EC0085D12CAEFC52647DAEEF8
23F016F004E6D5CD21113921B82E48CE
0FCDD7D2D3EEEFB723C6F5DCF210E84F
03C8DBDB13E3CFED20F9F84BE3FBE847
15FD23C8B6E7D9FB27EDFEE946DBC007
E1FECEECDCD5053DCDF92F26EC103137
0049F6E82440EF0AE312DEEB2331DC24
A83BEDC6222904C8E217CC0EBC14F8E8
D719100E3FF5EBC1BFCD0D1EC201BAD6
D9F5FA032FD837E15257B5110A450842
382A4362F0FA27C1CBE1F4DA46CC6720
41C9B8ADB809350E4A461DD166FCF206
B1F6ECBDF8F6EA4C17C2FC380C063BF4
30D7EBC1E137F0CB1F05AF08ED36BED6
1D1915E40DB5CB23E4465DCE1EC8B919
AB2AC720FDE62CD1BD24113B1FD1ACEE
16D6E0DBE6D628CEC82AEDE322D92F06
4FE2202CC31E42364CD00937FB382CD0
D3ED2CB6BB20430616CEE403B00CD8B7
EA4CF9CC0DCB33FF2F44E2C7BF050A17
F2B2D5033DD5FC54D51B1B3AC8D3C8E7
0B051E2600370238D91453CDCBD5F7C4
35E3EE0905351FAE54FD01FE012ACDCD
D73BBFE5BDF5EBB004F93E0720C1CA1B
BF2C22DF101A1FBD23BFCF143410CC0B
C0C21137E0F41003DCD2C80AB7FEF5C8
E41A1E1BEF0EDB0AD80816E11EFA4D3E
BACFE9F1EAD5CBE5240DE72B0F2AE0CA
BB11D7D8CF12190F04053CFFEA0CE332
2D19042E3B04C9BAF332CAD50EBD2FCF
BC411602B73609C804EE4B3603B5070C
32352C3DF7303CD80331B4C4AB24BFED
C0263BD6D83A2F331B233A35EA2CC644
03D5E5DD321A163C0FFECA4727DC3726
DB120C27B9B334FA2B3AEE2E153FD419
1BE7C80A28002FDABC2ED5CAFDF43E1C
AED4E3DBD9F4E12015E0CABD3914C4D5
C1F4B4F8CCC3ED2AB3F115E12F260ADA
4EEF36D1CE122C183DCBDDEF3BC62801
DDE93BDC441C45B6F2EBE9D642410C29
1D3FDEECF6333FE4EABD4852FBD5AFFA
0BE9DDC6412A381E0F45E30B15EEB818
D9F613321F31CC0F35D50E17B921BC2D
1322F61001F7E2B51911DC0EE1422CD4
114018D0E323C7F0465A01E2FB1157E3
FB2E03E9D4DB030EE3C531C8FFD71B05
FDFD30D0FAF52302C13C2834B6ED3DC4
EE1DCE3B43334D11EA0D10D424CFF133
53F7E4ED09C8D63CFDC8DDB5CCF836DB
FFBFEC3009DCC4A9D13D52CB1F12D2B0
14D120F5061B312011E3DA18C61315B5
1A30333C02F1DFFEFEEBBCE51D35DC3B
F2033434C9F2D3F74AEFD411EA2505E1
BFE6FF2615BC4008DA4F19FB19E419BC
F3D41C4DCD270429C5E8503F40DE0DF2
44E6C4CD47C408EDD51FC116FD22E41C
42F24A23FD0460464341270A2120EB16
DD1CC24D09F213150F1B063528C635BF
34570210CA38CEDFB246491248132AE5
E02ABAF2E1302C141712370DCB203407
05C6FD0FD945C6C807E84D05D12DD707
04420E191E150F1119FCBE1929FF013C
C413002BDEEC0A42EA25D2D33DDB4C44
C3E92ED02A02C23F3CA1E3AF0E0D044A
05412727DA0C25DE11E60FB00D21D5D6
28C0DBF814E25447C32DDA35B2E4D520
4F4027F624362A27FF3D2CB7D3F6370C
EB28C8D42A290830C3F6D1130D314006
EB283E1EC4DFEFFC0EED4AD4CAC81FCA
1CBD440A0DEB38BAFCC1EA38AC0CF6EA
55ED04CBF3DD4C292C3618084C2DE11F
D5DBB938E10B3027FFF7C32B010BF6E4
D6FBF337162A13EDFDECBF113D40383F
2C1ADB1FFE2D04DA0149CC111624A51E
09DA29C91A27E4D60DE11EDDD6D8CC0D
07D8D4F6D91423E72AEDEDC452DD5237
42134A1630200BD9D4DE43D0F7EE2F28
C81541D1044E06E1F902DF38121F0C3F
E33AF231D2B342150519C72FC725C447
2335F7381CEB20FAF0D6F1EEBA19E31E
F4BEFAE4003D07D1CCE5252DFC1437E4
C2142524F70C41C84BC5D3B2D1D3FE44
F61F2FB7BC0D33E312EBC93C3A1BE921
DD1E4ADFDDF6BBE30EDEEBE20E481138
DD17F6E2EBD84314E8D9082F1BFF0E1A
CFE9F83BAD20C9DCDF0A350D1F3D3C2C
CAC4D02619CBFCDFD2DB0610062C0643
31E3D0231DE1C315EC28B82CBC030405
2B24B90F12EADB020557D0EA2B33371C
D627C31CEABF0DDED9F3CF2F350EF31B
130EF4B6E327B41F3134CCF7CED2F53E
0B290DD2DA0A221620113931C1D730D7
EB2EC2022305D9D434C92A062CFBFD0D
E6F713D42B27E6E12CBB1214F9F8F325
30254BF4F6291E2BAEF8E1D8EDECC3CB
34D41D3CC3F414DC08F418361CF7D733
E2E9CAEAE52CC1151CF0FAF02510E5FE
ACCFCDC5ED24261DECF3C301ADCE13CD
EF141AD036B810C91FFE0D231D3112F3
FA2B072AC316BCE0CBB80506B8300EC8
C51C26031DEFF2C0E116DEBC394D0F10
373AE22E3D20F7E4DCDF1D0C2A07E916
F52A0EDAEBFDD9E7E101F90256EBDAC4
252427181B0B012B544E1241C6EBC5E6
CD3D0924F9DCF102D0353EDBB8F930CB
140122DFDBCB2711DCFD602F043DD5E8
203ABCDAE53E2816E5F1355D1F241602
DD034E18EA5DCF2F28059C3738D2D0F9
BC3A2DF238E113C5E7CF0C0E3ADB4116
09C404C2F5C62102D9C3BB13B2E72301
DF2CE5CDE539E2484233F7C4FCEB2ACC
B102E3D7F6C6DE001CFA391EEB4C42C6
482CD23F16B228D9E5091628F9D1E00D
27FED3CF0602F1E0EA31C6C84BD9CFB8
D0CD282D2A55BE941A30CA1C07E90DCE
481800EED5FE13DDDE0213E8F0CB42FC
13AA311CC120072742BD22CE05AEEB14
F1D7254D1D0533C6DDCBDA1FC9C1DBCC
17071CD3AFB0E12CE0FCE613B04AC397
B2F609EC1F44F7D5F5ECB7E11723FA06
F40214E6E3C6BB1DE7F228050CED25E1
1720DC2E40CA22C407D7E9F0324603FB
FACC2C2B093832C4D5E9A5233444F036
29F227DA5B0625FF3C2DF11C27CF5D03
A912B2E325D6D5F40D34E53E1E3D22D3
BCBC15FA23C4D8FCF5AE1E0AF9C8FF16
B32C4648E7B31711F7D0C138182CDC27
BB3CE30E150CFCDC2B44F0DAEF2CD5F2
F1272C0910ADC01615B4B5C1D22134D9
38F2B7264138DAEF2FFDFBC8311AF94B
AE0FDE21E6E3D300EC200DEDDCA327AE
1118E5EFF7D8B804D2BFF70ACD2A1AA9
B601EA39D2BE08F1E95019E6D9DF210B
1AE94BFE0B1001C0C0FDD11405EBDE02
ECF3E92FB53CD1DFC12703DBF9F847D1
4E18F02923E3F44B19DBADEFF4C6161A
F0D83EC62FDD23DB0140FD5D40FBE6E5
FC422BF2D5ED2EFC0E4230E5CD07EBCC
11360EF40D17FACDE529FFCBC8D621FB
41FDC9C107F1A69CFB00DE432AB917C8
D1E64AB7CF29D2FC3F2B30ED5A3EEDFA
F4B3C5C3F5EC0221D40CE115B4F331F6
C13BBD961A491CD706CED5EED61A20C8
221AC43818501449CFD0DE153D00F9F9
FE1DDADD00B7BECFEF04EE2FD20F1727
4E1AF60BAD1639EE3529E542E422345B
E618DFF9CCFE0AFE27E42904224248EB
04DE1B1BE81A2BE236C8FA321B0FC904
FB383FB7CCCD0CC8FF091FCA3D032CFB
1129FB20BFC20EF72BE30737280EF92A
2E2B1E36D2301D27C329BF0402270606
FE3A15C70AECD5A704D90421523241F5
E92E29B3D4B5F62E003B0EECB712000F
4324D9CA21C51D341DE8FD2A1C28C7CE
1EC5B12A1624DC4501ED0DD2D9D228B5
2F352105D32CC0251CE7D5B70AB3CFDC
5AD915E313D328182C402953E936EAE6
CDE02ECED1201C2B3602A32D2F1FED02
D82FEBEA250F0328D70CF204342AE0CF
10B50F0E59D7EEEA26FD2B390921E1C3
0DD7C5140ACFF632DC41FCCD1A2BBEC5
42E9FEF72DFD3744E92B1A3728DA33CF
BD04D71007B54521C8C31428CCE8D538
D6C1D813CA330733D6021B13D226F903
05583CE3F8C9F0DCF108FB2E28D2F7E9
D8E123E5AF3A2BC80EE9E532BEB51A25
023EE4E62D0E23190E034600EE15E33A
36EF2FCFD9EC1F0EDBC2D61C110EFD25
1807C9F9E6F30BD712CF1AD3FEDCEB33
F8C830FC1AFB1BD0FA42062EEC21C6CD
0013C71A06EC542A2B13240BCB1911CC
F44B37EBEFE82C241ACF2ADBBF3C1ED2
CBD3B40BF2A2F817210DDC193B1DA5DC
0E17F4CE340FDCC5CBF7F333D61AD532
04240015130DEE2316EE11C82E01C4F9
633A0F02FEEBD8F91FDB242B5FC207F6
32301AD906F90D1721DC3EE8EC0DF1DC
2F194BE10DF0D621E5EFF805320A2817
F030CDFDCEF64A343D10E43512E94948
00FCABD417FE26D3E51C273339C7B311
BBC1B116E225D1FE35AF21C64E0BC9F6
AA08D33ADBCBD606200736122619DB1B
0B36F54C1DFD243041DAC5FB4F0B28BF
DFF33FC300B34318FA0AB52B05DC27FA
DF00DE0F13C2D72BCB1DAFEBF6C4CACF
482DC146F5040225A9F927F7E00E4CF5
ABE6FAD2CFCDFA34D224F3F705D7C010
E2C5532FD638F017F81210DAE3C31F0C
2C4625F8C4C015B508D31AE317154AFE
1527FEFDF0DF16E62F0FFE2B0FF1E3E4
E527622F07D11D3A3C4A0F1022CBC1F1
0EC8D440441CFFFEAEDB0DDCD8D8CE0A
DDF31057EDE2EF24D2FA07FBFFCBEA24
11C7421B1AE15A3CED4A4B5ABCECE606
3B3CDAC90AE1E23306CB1FE1CDE20830
09EE315317DFDB150BFFE4C2FEF414FB
D514D506C5F714F0112C07F0F8F527DB
0D1B0F0056E54931ECEB23DFE3E41F2F
0E33BB170FFB21BCEBEE12D2E71EC12A
BFC6FFF7F235E910C3B8EBFC25E812F6
19DF0BE7FAC40EDABDF7D22C29CFEE1F
3614D8371B2425B130472431EBBF17D4
3F24460FF431F0DC3C1CCCD1D5F6CCE2
10D010400EF308C23EF822F102BDF608
C000E7EC03C347D614E63E481ECFE139
19D52C18BF16E926E81B512436F80123
5CF4104C0CC42A3006D313E60E305518
0F43144FFAD5E4D2EA2F104E4A22002B
E50AE2E0E2D453CADB18EDDED9430256
E536143A45E32B0D275C4CE911214E22
3F42C932DDECF600FC2908321B2F0E27
C925D2F82C0839F0DB3BF104DD05C321
30D9D6102A0213EF55071CD3CFE2DAD4
F0D038D348C4092ED8C7070EBEE00C37
3E0D0614CA3735315B3D5643FB29E6F2
0B332EFBC4CDF5DC0E131ED74116FA06
1311E8CCBB25ED1946CD4F25CECE14E2
FBB6F13EC63DE8103144E90AB8E63319
E70D2B10BFBD15DF07C1F238F8D74727
16352AF531E7F3C2B835CEC308F92538
0B0B063504B1D40717EEABB1FCCD0F3D
35CDE5FCF93CBA22AF341F300650FF27
0D0C15C5BF121001DEFE0516CF17F2CB
CD16E3EC4A1FA5EDEB1447C1F0D40DFD
E32F3631EBB8E5D142121841D6CF093C
371B04041859442354C33AC6473DE736
5206F5EBEDF6E1CD2942EC162DF3103D
521E0A13EBFFEEF62D311513C91DBF50
F44553375308CBFCF920C5FF45DE3DE7
C4E612BE35D2C4E5AE32EBC5A8B6231B
2AFA3D055E0E16C9341E0B084E4646FB
C4D812D832FD37F82338C100EC15D5D0
9D26A9B71BE2BD1806000A0AC727C8FA
BCF8AD9EFEE7162909F5E60B520AAAB0
E9DEE7B51F2CB29107F50AEEE8DB1E15
CF05D743F83CC5E8B41FFFB64634B54F
F1FBCDFACD0326F81CE1F30E43E61EBF
D7272AF821F73DD3D2CEBFB21BDCEB17
CA4CFF1C0AE9FD3ADFC5D4EEE64ADA43
C001E51F3A3FD71DCCF3EEDBCEE9E21D
07B4AB28050F3E074C38BA26FABAFD3F
D2FF1C35C0FCD41CFD34F25C00BBE5BC
2922E431B81ECF181ACBC43CFDD4CD41
4618FD21B8D1E6002315112DFA33555D
AC102FA414E6E630D6AB143E370FFE11
3DB2DDF6DAE2E4205643D310F83B321E
0C23FC2BEFE1CCB53CCDD8055ADCDE09
36E7FC04CC02262E2A2818FAE11610E5
520FFFC7485E1A3620F523DDCFD323D9
B6F430EF14DF20CAC5BC2744C3CCB529
EE27D01EF1BE0436FE2841E9FBBBE92E
CC1DAF32413610EC2FBA19D3FAF3CEDF
E6B521B7BEE3F727EC392F00EFFD35F6
0005322F1DBFE8D7C5CE4414CDF5FE05
39D656F424EFD0FF39DA55E237371534
CECD3BC449FCCD34DEE31B521E2B3DB8
BAF13143FFD3531BC6DC11432FEA4C4D
1FCCCF2AD9F71BF12A10AFD20E08F541
24CAFA15F3F711F144F30F3AF602BB18
CA0DC7D207F72934F10905FFE1AB14B7
ECAF2C00C112ADBFCDB20DD61413EA2D
DC0F475800DCCBD4D83136F9EAEEF9EB
1CBBC3C71A1FDA14DBED02CC112AC2E9
380860D3EC3CDB53B9B8CC4851EFF3EE
34010E1BD026280B554C392E5D18CB3F
1CE6DBF41FE4E7D44216BEF319A6E9E5
16DF25DC45FA1536311411D13F0F64DA
DCDA40F92AEB301503DE330FD119D5FC
050DC0EA4E412B370AD3DCFB004B3706
CECFDB442A2B4B3DD826F5EDCAF511D3
351C40330220C8C53841F00BDCFD17EC
222BF2FC0F310725EFFABF06C91B0741
39ED513A394334E80B5CDE294F4E19BD
DFEB33EBD53BECB7F4CB1B2235C4F637
CBF7BBE5E7F107D9D7C13ABB294CF0D9
D433C4E7C6F03AEA2AB9CD14D302140F
D8E3012FD1D22EF138E7AC0806C4F7F1
AE2021350332FC28F44B25DA47D51CEA
F4FB15CD0CC1E9D0D22CC49E161CBB0A
D0F3DCD12FE6DCC7DA21D7ED1F0BBBFC
2FC9F3F5E705E6CD0C211F593B460027
E51321CDD91421F712E02DE9CFE01D18
D903EDB3BA0F160D372B3F15F9E23119
D858E9F2E4DE0A32EBF7ED32F8ED4E4B
0BD6D1F4244FF5E8FDDD172CBED1FD50
B7ECCC043D1F0F491934F3C3C4352726
29A1020600453D39D620DCD5050DDB43
D11B2F39CAB6D6C51A24DBDEEEDDF3D1
3FBCF2D0DB140916BA1E2EDFBDD2E415
24DB10E529DBE6E2F2FA51CC1BD825DF
FCE0F1BEC304CE31DCB5F75B2CFC06FE
442FF60D0512C009360B33D5EB4DCD1A
1711CFCFC3B73FD0C639383AE3F5BAD9
1339423F121CCE3C2BC23C0909050207
CF18613338FAD82DAB27412BED221531
C4BBD5E6FBE40804E2D7D6DF3B2B31DD
F4FFCF3DC0D201DD5239BFBF01EB23BD
1F35B9D5E8F2ACDC1BE0FD18EC06DA48
FC0B2C1F95E333E4CF28B70A3AF93623
2FF8010828E02D4C4529C7CF1A10A001
1BCD0B0EAC2AD5AE001AEBB1BDB9F2FE
4B10E4E60966EFE1F5500D3006DA180C
0BB21C36363748DFFAEABEE3F7FA17C5
2D522E15F0351ADF34F8DA15F43FFC30
21322E2ACBD44827E8245401DF01BDBF
EA3CF2F617D2430CBC2BBB21CFE8A52E
030D0311E6C23E02FDB7CCF3DC050D08
D00A4C35D5DABBEA1C21EAD30A010D1B
2FC6E6CF2F470702C957CBE900D1F927
F3E5DB2919FEC3F2271C211EF02F191E
3BC3EEFE08DDE32324B2323344E0C9CE
F8033246422AD5CB19C7D6E0303FEBEC
B21EF6D42B1803B9CAE622F00FE72DE8
35E31101031813FFC5D33D0CCE1DC6D4
C1E9F90B3F420524CEE60DA40605A909
E60D09FCBF3DC0D94401D6EACAD5ED13
1C29D5C8CEDAEBE1C2F1F9BE1D1415B5
1FDBB301DDFB0D0805E948F4D825B935
FBF3F3D535E7D1E142CF383E11E7F0D9
D846CF2BEF2212F2FDC520241DD8143D
2CD7EFFB524F1C5FCC2B2E271A4718D6
39EB132029D841B4E1061C231611F1D2
02DF122F23DBCFD9E4F20904CC1DB9F3
244720C445272C08060C20F1FB3A1303
EF0B1630EECD1C9FE10F9C11303D31FB
F4C23CEDFDE416F8103A33D0E8163E2D
11EE41FB0ABDDF37C1D0E31CECD5FF27
233634E9F00DBFE3EDF5F7BAFB00D33C
E64A2B46D9F7E31322BD1BBAE3FCC2C5
1D2ECBAA17B739CF0AB7F343C5CBC9B9
06B33C07031F6124E2091401163DEB4D
2E32F101C937FF03A8A6FEB72B0A3938
160AFF2B3BDE3A39E954D8E7EE01B630
0ACFC2EFE3D5C616BFD3E8BDD4CB2EB7
25C326C6111125E946431FCEFEE9D714
BFD923B93CED15FACCD4BCBECCF0DCAB
45EFE3241BDF2B2CF7DF052D3CD1083D
D9C7E908DEEEDAB7B8D6F0E441FFE517
4851DE400BCA1A43B80B2BCEE1355E44
0B30F430FD4F3EB60DF6F1AFEDFDC42C
00D3F44802E5B2FDF20946D023F6E9E9
ECF9E5441950FF113EC4CBBCC8232CFC
EAEAE4281E06C23FC814AC34CC06B937
03F3C7D9C93DC329B32FCD2FBC31221F
5759E81FFBEA22EC514441F8F72E422E
C6A9C8FEB93C08AE363429CA2E001033
DCCADE26EECECC2B18C9E3D6D6E556FE
26E739D01C2433F53BE7F5A0E7350BE1
FD0D380710D8CAFD43F333F1FAC2A1D5
42E9C414FACD1512BAFEF92BD8D71723
D72A3AF9DDF1B849C831EFEBF5B1F1F3
EFDDC4FD3833C5F0D22E30D70A15C915
ECEEC023EBF62AA9141F422D03294927
E5001E280BD82CC91BC2CE2A32E6E911
EEE333DF12230CD3152111EBE900CED1
EAC0D9C9D22BDAECF924CBF93E39CAF2
23DEDC0B0BF60EF1E3094306E8BA4DF7
F5F10C04D7D30F2E44D6FC4532EA21F7
DEE74EE0CECEAA10A9FAFE1DF2E12308
1A2EB0AEBE20F2D921F4E5F935F8F6A3
1B08E5EDD4FE0C4EC247BEAACFFCFB4E
27F1D5D401C21DE146CE4603343100CF
C903C6000538141C0F33E00FF730F62A
00E8D3D50BCEEAF53AFD11FCAF09F7B1
2133F0BD41C2352ED32D2BFE27C82E0E
E1E0403933430528C2FF18211AEAE0B8
1C310B22B3EDE9301B1D16BBC6001D10
20C632D53ED33D0603C71CCA12342835
15063A29C430F70D25FA39D9E5F0F9CB
3F12F6DB36E9B838C507E7F7E408C004
0D0CD4D451D62D13E31B0B1746363928
F7DCC53032261D1D2409DBF718F2F2D1
F3DA0BE91426FDD644D2DDD251C851FA
11B2E6C1DDFBF428AB3BF93BB734EAC2
D32025C72F23FBE1D6223FC4BBC41E0C
F7C6252CF5CB2DC6383E23C4EB3BF5DD
CB3CC4E5DAE211131BE2EEE1EB252003
3DD7222FD4F9C64138DC03022AC702F4
3DDEE10FE31A2C41BFDC25342425CE35
E220F643410C1700E7EBF8CB2043EB33
F1EB40054C29FA1512DC08D614DFD638
EF38FEE735C4EFE93712E333D1F0CD16
15F2445A081F280E0902B9F6FFCB57E8
1DB4D025F5E82ABC0122F00ED4F217E9
0FB1BD00EBDCEA3F4AF3BDD622F3FDF2
FD0E320423F8172C1C3224E1F318CF1E
21E2E11604AF1DBBE1C2CD434509E7D4
D82633B5EC2F150F59495AF3E3AA2328
B3014EE3171DD12D2D2AF04910D9D305
C906491A232748D62FF65B0650673B01
08001FDB193ED9D1222B0ADA34DE22E7
EB3CF246F13124231413EDFD0F291220
AF03E9FF150DBB372BDDB506C7E2BE14
154E2A4ECAFEBEF2211B44640C09E316
1E20E3B53139D5EDD2053EE03BE6C5F0
F7CBFFE85320F90B2004CCCD22F4F610
F0CBD9F4E80ADFED1B49CF0245BADB3E
2F143906D20314093715001BD8FFB3BB
F0D737B90634C84538EC0A1A04391C2B
27F71342F2B92C2BF326CBFA130BB1B2
1F6036230F1013C438CC312CF50162F1
A9FDC3C4D8EB25F2110BEBDBDE0CD014
BAD7F71CD7F60425F858F6C4F301E6F9
27D02FD9F7DB43EE2033F6BD041B08E8
C7D1D6FD14C501E327EC5B41FE10E1EB
32E0F209D5F24D090D1C1F19D516272A
BFE822DD32D545D2C4E71E1BB303EACD
4219183502D1D106D9F1F1D64DD8D709
0817E6EFDE1138E52644E2B05DC033F5
C6083802C343DE07CF22E2233BC40239
3126BE0EAAB0ED23FCCBCFC5ECE1CC2C
2D20F4060203BB0BBA47CC11B024164E
14CDBE33B4D1F7D93CF3101C1EF6D9F8
24F7DE3D253E2EF9B1A8A00EC0CDD139
DBDB1DD620E31DD51DE907BA340D39C9
AE04B2B5CAE80AE04ADA2CB6A719AC9C
3548EBB303D9F54F23D2401A4C48FE00
B2E00A093531230E1D16173DDCC9D827
37F9F617DF44C1ECD7FC41242533ED3E
E4C327C6F831C1C03611E22DE0F8E122
05230CE0145E674F48EB1DCA0CF01016
38AE1ECF12D1192A3EDC01CAD7D62320
C30231EDBBC3EE09261868171A3A44CF
200FE51909DB08BF05CC3E0307D24109
01E0C20F18CBBA454701E6CF30DA4810
BCE8011314E2D5F7D4E2FEA895FFE0FB
F830F12ED40CE8D3AE0010401605F109
F612DBF2E33928FCC2ECFD30BEFEB9C7
2BF70818C82D35BC1CE435E01A3A2142
352231352F1628D94242430ABCFD10FB
BDDD03540131BB3FDB32EE37BD1844B7
EA33CB411353F546CF2BC328F92C2828
DE0AD949F60C225A1F10B6E3ABED1CD8
CFF617F5F9F5421CC8BBF912C3F0F014
F0FF291DEC3E312E001ADED1EA2DBFBF
3A0F0D381ED0E7F647FD0A26DAEC1CF6
3F3ACD27E8180111D43F04FBEC232ECB
26CACAFCBE3236F5D9D5E6DCB8E2F335
06DDDA003417ED23F12D0D2F03184BE4
1A25FECD23111AF1C93AD434483C17A7
F1CF3DB4352B2C1AFDD02825F2DBC21D
4CE1FCEE0AB1FAF526133D10F0DB2600
E12FF735F046D5FC0ED42DEA01FAB808
0AE24D530008DCDD262EC2E5E3ECE65C
00CB1BE0EFBFD5C8C3DF2BD6D309DDE2
E81ECDDEFAD435D722E6CC32E9343910
E51201301AC7E1E33C13BEDEE20ABDC5
D818DB11B83F162C0538DDC4F8F8B80B
DAE0C812EBB9EE2804D3BB143427E601
1F16361551EF370823D20A33F3E8D739
F2E3FBE92720E7C90F1BEA16CABA3E22
352B2E1A150BE41FD4ED18F33200D113
C5C3EC26CFCFE51735E8FEF80ED10ED2
2ECC2FC3474C4F3E01B334AFD9E1F538
13F4083D1E47FAEBED29BC1FF0D0563A
F41BBD331CC10FB8DB440300280FE705
A9202D23D116C528C6C8C40005340CF3
4237DCC9DFCF16091602FC20C03CF2B6
0A2DD002FFE8221BCE2234D1D4B3D1FF
EC54D3E2DFF626E2D51BDEF70B34ED25
FD003FF6EAD10143022F0FC620D608ED
0DDD1DDFEE51E2DE1FF8C60BFBD8F023
C7F90A30C0EBB7CAF2DD474FFBE0E131
40F639330705F1B1E31418BFD0D51AF5
11BE0ABEA61C0AF83AE52322B1F52BF7
B72C38BF0FC3F749E6FBEA2BF6E8EECD
3627D828CF07DDAAE4F9470FEFE0C926
EDC02D1636F008011FF731EFCA36E712
1CFF0015D637E3D9454BDDE6DC25EAD9
F73331C5BAF7C3F4DD5B533AE4092628
450C17391DBA19C6FF34402C441F3440
FCEFF119F9D2D832C00ECE34BCEA0931
400211350D31ED1ADFD6D1F635E812F8
D43125D8AFC816F9DDC0E115CF1B4209
11E32B35F050EC1FE61101323207EF27
4E2803F7C8E1B1C3C6BEEED019E7C4D5
0AF61141FB3A43DA010AF534D01B2FD2
2C1B021B1E33EDEEF9ECD90A261A22F3
A2BD572BC309B611BBD1CD2C3E551A4A
E709242EF8EE5CCBA016C330080B1D09
CB2D401B12D628F5EDF409D4E2F3D1ED
1AC730D0183FBBC5EE5A0B0B3BEFE8EC
07C9E1F5A4DABD22B5CDBBD21724BF47
DD14D703FB1B30D91BD9D04B1815E50C
12213A2AD5C9313FDDAFE7BBC4444FDA
204042324A1C0CF02B2B13EBD8F0D5E3
C8250141CCE527D6C6BD2FBA3F22F703
DA0FE3BED8B90F351DE11A1D1ED630EF
C3FB0B0453D2EBCBBE4910C9D2EBCDFA
24E04134E0CCB8F6CBBB17CB04AEE22F
01C22DD6D94023E1C60927FDF63BC6DA
CEF62D17201408C2EFCFE1C7C7D5EBDC
4ECE2E0BD5EAE7AFD6B0CE061F282327
1E4F30E7443939F090B2E5D3DC4E0D2E
2709AEF0F6C707220A07D9DDFC03CDEC
E642FF21000CFFDFFCE5E1F20908F3F4
0FD6F1BFF919060E3AD2FB0713BECBE3
393ADD16390C18345359F6102334B70A
D20753C6F0F12733283A4A0611143523
B6C6F6082A29F5DFDF4241CF17CB0435
D2DE102DFAEAE1BF1FD525CD2FCA18F1
370140293317233946080CCEFAF7FAE8
2503F3D631BCAAFF3DD306CE332D2F2B
24D1D1FEF826DD1A0C02E22D1ED6F8F5
D4374CD2CB1DDE11D70CB0B027CDF7C9
02E00CE23948F4BA4735E825B4DA1515
F623313359421901E8F9454A2E38CBBE
F0360C23D532DDBB08D20BD000C627C8
01E4E4D0594C20B74BE9C5E417DE4437
292CF72944E0D5CC0C4FFEF947010BDB
0B03E6291117E0354402112E2800C411
3E0B0AF60BD9F4DD0416BB262D415F09
E5FA1544E2C02236CBDE2D2D010ACE04
E4352DBE39B1F8F89D0FC8E3FEC5D6F2
1FB7DFCDD0A018D8250612C016D6321A
4144D3C3FCD21AE3D1071BF1F0B5C3DB
0FF11528ECF525FE1618B938FB060A34
1CBBEB3C31E30C0201E4E81DB7E0C6CB
2A3BDC212DCE36E5CE082EE227421C40
2FC1D04B01C8C11B3C46452D17E0DDEB
DEC857023ED62EC206E4C6DC05441957
28D2CA3F06411CDF46C51ACE2446CD04
48225326FD5231E831FEE2D53AAFD524
D60DCC3A302603C1D81E4DFDB7D1D3D1
0D05F21543EC2EE62F031DD3CB37DF1F
F11CC1B9CFDBC6F3CAAFCA2136E2E44B
39251BD50D2F02E0B80FD10E10D4DC07
F2430EFFD7BE3ACF21192CF81A2DC1C2
189FC913262FDB180131C3BB0ABBFCFC
03D42F07EA51F5323CCFDCF9EAD628D2
162A1FB7FEB901D5F10309C601192CD6
D9FCDC22EED32D3AF20AE23B1C5234F3
E8F1FD0FE50ACF4D473E17F22C2ABD2E
36E7FE19FE3DB5FE2BF2C5FDE40A32DB
20FA48EDD7432652D5D016FB43FB3DDF
CEAE20DCCEC41D4BD4C5F916F70CECD7
423FEDCB070FF6F80F120E1A26EF39FA
18F52C1BD82CF6F8FC2E201EF108FF17
E307EC0A13DE040CEA03F617D1D5FB29
0F05434D50D5EDF6BDE022DC29C032F8
BCD8F2F1DA0C12043E320D2ADB28DA3B
361343D707D204C6E95049BC273406CC
F4AD03E047BC250EFEF8BCDA20B7F5CC
DEAB0B084544BE1FECB61529C834ECBF
ED1DA9FC1109D22B1EC5D301DFB92021
F5391018CEA1B52125F4E512EBC0D1FD
E1EA01F430A1D20DB4BBD6F258EEC51C
010E05D6032BEB060A30CEE4EF005A2A
39F1B5C3103D06FCC2F1A825AB2FC812
F1FC052C4F3EFF3CC03CFF45C2DAC0C8
DCC5BCF0F546EEF3C0D842EDCC05B5F3
B1D7DA0112C2403F1AEEDD2FC145E40E
14C01320F2DBCFC8160E181DEFE322D0
29D9E8C020B71F0EFBBD3A21F6E80A0D
33D3B8E4FD57CA1822F52D011A36323C
0E1344C7E107D103420DBFB0FD36424A
2CD62B38173BF5B2DA2705F8E9E2BDFD
0437FE002CEA1D1941D3C6EE3D3E4DE7
4A092ADBF6F2B309C7D7C7C8D2151DE3
F9FFD73DF221C74D1F4DEC542DC042D0
F722F509512A273C37BA23CF27F0ED12
C1CBE10E38DD2AFDF6E015D7E0BBE4E4
3BE72D18EA1A1725BA1627F8013E4448
E420313ED74133FA2CAD1D25FED90BBC
C2E3172409C7EE52521AD9BB20444506
B41AB0E4E7B3BA2E1F3AD0C91709D6BD
F9E014F31F38370F4DD82DCB2444E203
2ACB16CCD6D9F4E2E5B0F72F453337CE
D0D31C08FDE9FFF22305CD22CF2FD92D
142514493E121F431AFF29B9C2E8DE0A
E71ACAFD32150E47362AE8F5F3211BD4
D407D33C1229EE072929D011E80E222C
D6D328E1C3CFB4C144383E272FF4ECB1
D8EAE0C23D252A19F12D09B9FF2919D2
FF44DE3BC1F0E29F19FD0AF0F2E3D3CA
1EA9E1D2D5442D46043FBFEB03D2CE1A
42FE393E3C43150209F53525F3DD1228
2FCF18C3ACE838E856FEEB0BC7C717CD
532AD1BC3613B1BB382C36E8FCE30738
1308C7D8FCCE0AD11ADB30BEEFBEF603
583A0F76FBEF1B20FAB1DE36421A3850
D00CB1101611E7FF3FDCDC363814BFB9
35A7B4C3D9F8295F0FF7C322D8F5C9E0
15EDBFD1F49E3722FD1EDD05DE33E20E
1128EA40DE2A2FFDC7C6EC4BE7E61112
E33DCEE9A4286421CAFDECE5ECFD0F4A
B3C2F917D313F41420F0171840D02BD2
370128C9DFE72917C81B1BE20C21FAEC
D439D31227C4EC47A41F22E66753E12C
2345DC51E03FFBEF6756F7E12FE33330
0ED71A1C2BE928FDCBF2F411F9D8C745
E14021E94314C7D2CD21E41B2CCD5409
0D0BF7CCE5EA4208EED033EE22282EDA
0CED1C1F09DE2EDD37B70EE948D10B3C
2E3AD61CF0EE1D1817C2DB2BC20409E7
D4C3B0DDE92B14CBD2D5FCF2D1EFC410
D016331E21DCD21E142F3FE2DB2A2F2E
D8EDBE1ED4372C0A32E60E32FD2933BE
EBCEE9B0DABBF13D182CB7C332CF1826
DAD9C8DEC5C2BEBA041101BCCDC823D1
A6C0D63606E52E1D09CF2C1CC82728BC
041229011DCF3B093ED513FFE2DEC747
2CF1D0E5A80F0321130EDD0FD82E0921
E3280FE8AD24CDFC06D62F11E035FC10
0D421D12282E352C0B32E5D8CCF1091D
ECF803D200DC1AD1281D4EFE5212F6F6
ED030C1CF3C2C742380D3AE6F914CEFE
F2FE220D14C32120F5BADCCC0D18523E
DCC0F21E18BFBBE0C6B63FC2DAE227CE
3E11F1F6CA0738DABD36D34A1FF94722
08F82DC3FE0A3DC6131AFC35C6DDC927
0009213C24DA4EDEBC3BDDD9EDD1DFCE
4219F31936B62308FB24EC18CCEAF627
03CEE91A3E0F19D7341338B923FC27B6
4CEDDFF0F431212D04E60FDF292FE413
FF142DC02007E41630B83306FF193B29
FF44EBC937CFC822F7CEC1D73E1158ED
EB38B1C5150718D410E9B0EDFD2DC1E1
3440D337D4EB2620CC332F1707CF101D
F2F65DE02521CACDFDE83FDE200C22D2
463A30D1CEECEDB903FB5A4758CC3201
54DCD7BCBC4251E0D434F74F9FEBE841
0303D23608FE0635CAD19DCBBED8DB15
C243AB4BF3EC0C3FF3C7FFC809144D02
F6D21D092D49CB1BD31729331ECFEC41
F5C9B7D6F8DEEC1A2254F70E17EC183B
E8B500E00701FE255603CCD119183615
D40613CE254527C7F115D5A9E063350E
50FED32015B013CED012C0D5DF250C0E
010D001742BBBF17CABD2432C6F81CEA
B421380C38FF1BE1F3D433E115233B23
BDBF07C4E2B9D6F61A291BE7D01A0710
E522D53636DA2727C9D3F5481F3448DC
08F4E909EC0CF9A32200A8CBC739AEE4
CF43421F4B4228524BFA4642FE301D4D
E3A70540F6FFF603DAE900CCDC0DFBB3
17C0FDCEAAD2253FED2022E55007FEB4
3CD81BB0BAFAF0C7FFBCE2EE09E9F8E0
1AE346FB3929C3DF2EE0C800474FCBE4
D9202C1B0E1921ACBF3F18111EC62705
38E0DB4AD8FAE2E01D30F9EA19380C1C
1112040C1FC012C025C4F0013B5EE509
184A2816431F1136CCD01A2C2CF2CD0C
F0F8B91126D6E2C63735DB4538D8B8FD
EBD4B1FDE8FA2FD83A34F1C44C03D3C9
070E1425491CE4BC08F6E1C70114EEEC
E9D0C1EDD2C11E3D08F9D81FED451805
E221CD1D06EB3EF1F43AE20712E71B07
341BC00902A9C6CA4A41ADCF45D61702
E44818EFFFE2D62BEE3E1CC7D7B9F518
DDD104165D0E36242423E1DF41370B24
F7F33316B42BC81D2316D40CEE0122F6
03E9E4452404F6C2ECCB07FB24EBF7ED
E3F728D8233CECC5FBF3002C22D2C310
E4F30BCC31E40DF1EF16241B0EEED4F6
E1E71BE82CDE17D83F1ED540EC3934DD
F622E8E83FC0300FFDE50B2CE13EDC0E
CFF5491623DE2B23021DFDC4D717223B
CD14D2EF24031D220E2A0C14262D1B45
D51A17272B01C6F1F512DC1A46F0B534
242BF328E4E7F6D41A27E61C3AC31B21
D9FB44DB38F62521D9400BECFDDDBCCC
2303EE2DE206FBD0D720ECF644FCCCC4
2412EFE026C9D909172A020BBCCC11D0
BEC137E719D2F939B0D7D919ED0E2B3B
24DB1F11F5C02038CCD6B8FB0BB4E22B
15CB222604C92DB9CBED313014F4C029
D8C5F21B2AF3CB180E24E4FD24C52D16
ED013F46D52841EBE7DF2D37EA07CC01
4011D9443203E9E6E81A2E1D12ECC2E0
E2DDD3FFA420C3060E1F3037F8BFF7D7
D3DE60280A49382924D4DA2B20112841
1DD1BB12E6BCAEE7BCEEE1B3380139C5
ECD8222A4017354110FC3AFE0FD2D711
11F4C7C3D428D4C83DB60920F6C8131C
FA03FCEDD91C0813F6C7FDFF25383037
41D617C0D6BBD52AC935290EF70CCA33
AFB3AAD31B0BF5423834E80BB818ADF4
ED10FD22E4453F11E3F9DAE81F1EF62A
F4D628D117C8FBB82C22EE43C92315C1
1CE9DFC0DFE0070DEDE2020ADD2DC7DD
D5CDE9EED622BC3E2ACD1A06080E14E2
3BDDFC334EB50A07ED0AF6E33A3EC51A
F1EE1419A8D5BE1BCA12C4D8CEF9E2DC
283DFDE1DFE0F432E4CBE9C3DCBAF5E3
415435F7173B3E13B6B21B45D9C0FD3A
F3DA3B001A2819BF0F0EECF6EA52241C
0DE021DF37AAD4FBF930B634B22B133D
CEB8BAFF30EF244EC932FFE0A3F3C328
14E4D7FB2519054A23C00E3C09F01A2E
01D9F69EEEE205ECF62FC8D8CC4E1D9B
ECEAD4B9E7B6C3EBFFBCD238D724E746
29FA53495637083DDA1A152ED1F2CB3A
DE16CED620FAE91E49BA46CF9F0524CB
CCEC30D7FFF0E5D60BE30FC308EF34ED
C2CE0351FBC525C82E2F1A1FE1D4C63B
0BC3EEED50F938FA05F4ADD2340C493A
ED1E200ED0CB2EB0E9462729EC2913BD
ECCDBCC0EED41E1FC643E32309E6BDBD
1ACF2ADE2BC731A6CCE2F0EF11F120E2
050F0CFD3C1CFD1224CD03BAB23401F7
FB50D1472A0039E109321444D72436CF
0423BCF320C3C448CC2A3D0230FF23BA
E6E2EADB3249DBF04D2DCA2F05D33058
33120441CED5E31AE45952CFF6FD2AC5
DE08BBF114BED2D815CBD0BBC414D3F9
20090825F044D1CF141DFDD1035D1332
FD1F2AA7ECF92B44F02E3E34B5FBE1AA
FF0A11DAF2F61DE8BAD0E9D14CC708FC
D8CDD9F41F0342FE1403D933B830C33B
1A281D02DB16DAC00553D638361ADE30
B9013035D7EE12F0E32F47139BEDEAF0
323E20E1492CDEC6521AF8F0AF45F1EE
05ECD22748EA37482CFFF43328DC2506
292ACDFBF72642EAF1170CC9DB21DDE9
BF382D28193C3AE36436EDDFE0E30BE4
CCB31C1E094C20F3FE0303DF09B80D15
02D02323D3043F20F4FADDCEE7D4C74A
F840E541C441E0EBBB37D7E455FD06BD
C0350BDA21031EC6CFFD1CF31FFBFBFF
C9CDDDD512CFCA4507B8C7E72345DDFF
230034D55D1F01F34BE93F00F9D330F2
1934EE2F04F74D3A4916DA05E5CED2D9
0B20DCD632ED18D8E7F5283708D0CDCC
C92B3EEB1FD01DDCD14710FBFA192106
F921EC2510E6F4E2DAD2FBC517D10404
09EC0F2201B7C223DD38F9CD33DED004
49203017C10EC9BF323BE9E032FDDC38
D2F3CFD0B4C1C2050C0FE4F3F133FE0D
E318F01E2E1AF416EF294919362D0A0C
BD2B4331E5DB030AD3282732E4EEF7F3
4248F7A4E241FF3D43BC201C08DEFE30
21EA20D1FD3BF44347CE2D25E150F3CD
2A45EB3C38E841F8AAF9F32EBCBC3D0B
F1C4B601AC212DF2213F22F033164029
033B10FBD921C103BA31D40008CDCBE0
3204CED0E822ABA839121F14084A22F8
2EEC003612C80A25F4C915D2CCDD4906
B5DDE7B8C2FFF6FDC743ED3528F3CF25
EE4E43C516D8E9CBC1202A33F3090C43
253DE129ED1B35451C215A4B3ACD0C1E
25E8E0330A0AFDD915C3AE281136CFE0
36463BD7011431C90A2D42BCD326D422
1D0E1C1BBCC90C3D06361D17DFACEB04
F2E7D6B5FDD4CB20F3E611D54716C815
DFD2F439E1FA2C0029C3D1563C11F129
AD2EBFED1FB10FAEAED0C5CFDA32F13B
E5CDD411D6C9EF1DF3F4F8F5FFFF4D37
F94900D121E20DE9E7E4090ACE09B930
262ABBC80F410D20C2FA3F081F141C40
1F29BDDF08CD47E22FEBF8C1C9E70AF4
CE1E29FF1ED4CAFBFB01C103F1310E34
3326C62532BAF832E3ECF5FEFA20F5D9
FB0A0BBE4DE7FCF4CDFE0E1C1C2705C9
2748DC26F0CE3AF8D1F53C2DC3CDC9D6
2C18EFE7C7B9B6000FBA032626C1FFD4
0FF0051E2F22CBF61D2CD5BD04E61837
234032E83C0F5027E136D01D10D9B7E2
CAE8BD1ADF3ABB06084330C71F4131C1
F960DA451D29C421D8E52AE9A9270107
FBE4CCD6CEEDBEB800DEF035FCC2C716
E8CEEB35055D2BD1ECBFFFD02D2AE9BE
C9E6DF10C72D02B8362DAB1CADF6D1AD
22BCC9E3E8F7F14FDD4FE8CAC5FD4509
362225C31631D213DD0509EBD51DAC3A
00BB2600CB2804253112E1AF03BCE637
53D2E4F32ECAD1E5D9C5F93447D1D507
11E02FFC3C102E05B7FA06045504B6FE
BA39095401BFCA33DD30EF0DFA2BECBC
3C38E5E417C91430D3EDD6B333F72E25
F14212360AE72FF6F2052BD5470E1A26
10EFE0C2371FF5BBD92CBF2D27C4DD24
431F19DFEAD32E0403D9D60E42152CB5
E527EDD2CE0FF3F4221F07EBFB49F5C4
D2F8D1D43020B6CD3309F1DF0EBEB902
C827F42F1C504A3B4BEFD6C9D644D707
F9C1F0EC0EF62D044305D4EA11CEF3D6
D6EDF0CA40E69AD009F90AD031B3CC1E
C50BED29EEB8F9B94633C526C81404D1
0514230EDEF0FD28CC33CC3EE1CF2029
EEE04B514520D20D2619C24002EF0435
DDE81BD0FEED071C48E7D0C617AF1406
210CD32CF742E7E8133DE8F4C4B602C0
48DCC937DE2721342223F50E2E1CDE4A
27E820CB180326B1C4C1F114D314F2D3
421AD4F0F705115BF0E1391AF8F93940
C91F3AF02B0620D0B516341B30E8EEB7
11D933113DFA09F6DCF84406D3C7480D
23EACA251B18CD0FD9DAD6E807EB33E5
100DBE361217FA2F1206E3C6482E0212
4E4D59C92B2BB4C4E0F03840F3E913E8
CADC14EE20E0F02E22D1D9F4E9EA162E
F00712B5BEF5D94913DDE711C1E80AF0
FA3DB1C835DB1927C3F2220A1A0BEFD9
DFCC3AF85BBCD9BEB7B3C6F8D941D112
1DFC1C44DDF4A7DBCE2FF41529E9E801
CC32DEC8E9E51C1602210442481BCA30
02EDD640D72AED36F2CA50DA091122D6
EE2C1C3FFEDBDC1102CF37F6DC35C01B
08E3FCC6DC13CE0AC425F7D70E2EFA29
F451D543F80F38D1E3F20B2F295848FA
F917A93B1EEFEA2BFBCFE8EFC8AE1DDC
2DE5C643D7E421060134E5E5304BF644
CB3EEB5F10F839062136D9442D11582A
E4EAD04E4DC8E9D23E3F38CDF829B5B9
0E19400CD0FF1712235DCA13B03049F0
A9EF25C6DEC34A521EC1B403A8051616
5C04C7BA300A0F20CB0F43662C4B5302
F1C8F41132DB16FF2BD116F44EB50DE8
2335FD41E606B51EFD101D1FFE34F53E
F9F6D2D53ABCEC3FFA3402DEBA32D603
EAFECFDDC630EE24EF0AE6E0FC2C21DC
BC1051C14E1DF114D2B3161F0823C8DC
0BBD47D5CF14C5E0E8CDE0FA17243510
2DED0FC9161B39F63C4327A4F1FC1DEA
22C8E418ECBFE4E4410817E7B5CE2EE0
CCE94CC5FC32CC2012EBECD8CC3C1CC1
2233BBAF3D19C6202106EA1F33BA2DB1
18CBE110D834F7DAE4A93038DA16FF16
0911C5C7DD2C19C6E31C370CF7D8DEB5
08E702FB40E8F6D0BCD21D0EBEB0FE2F
C0E2BD02EECCE6F4F0BCF714D929CC03
49372E3911100038F316D4AD3519DEEE
B54801302EE7DEFCAD063CE5C3DBF008
F8EDD0E4BC13023926F5440CE90BB8C4
DDDBDB11E1120025D611F3C9CFDB17C1
4D442BDBF3E0EE08FBB529EFC43E4643
BC3C0FCA05BDF9FD081EFAD5D0D4C5C7
DAC0CC03090213C5BDB01FD1FCD415D5
1DD307AE0CC6F016EA24082F03E83DE0
113D19DD144BC33E51C4ED302F300D48
2F090124D043E415D50909FD16442B0E
FF104BC2E4F7262F31042DFEF4E2411C
1000D60038EB4717C0CAEFCA3DBAF312
E929F10DF20DD23C3A0E1DC20B2612E2
4EB82ED64D0D05D2D4DE33F3E41D24E1
3B0CC309261ED52E28FD3915D9D3D2DD
033835FBD70BE00DDCD5C6ED0B21C926
0EC1D3EA1437C8BEEE3620B42A2319C0
28C037BFE2E8FEC3EC0FD1330DC7D0DD
D50FC6DECE131505EAEFD91BD445E228
EA01290906BA13CEC3BF38E0420A2BDE
E335C2B604C9BE3A2B320D50EF2F3316
00129EF5E7E3E9D926FA36BDE226013D
EC0AC4F2CFEBFAFD28FAF73DC8FC361C
BFBEF1D3F7CF10A9C0E61304283AC331
31C4E4C9C8250342FF00EA0FF21D2B04
350AAD1E11242B2A3A364EFEF2C1EA10
01F3C7F9C0CB04ED371CE6104447E919
D1D800D839F1DED136BC28202EC83439
2F3627FCC4EE20F4071FE3E8091EFE20
F1BEFD011C19F606D2FD05261933FEC3
F7E81AE5B1E2EFDCFA2821C70DDBD1BC
B60EBB24F6F0340141DFD2C8081134D5
CA4EE71957E2E523C5F3D5D03E4DC1E4
25F2BA2D3EB62BB73ED8C12204C0BF42
2FE1D7343311F5E7C311F239B7D51428
41D5E2F5D1321515E4FAC10FCAC6DCF0
BA1BC135CBDDC318E7FC3633DC3EE513
38D713D1D646361606F3E93719453BC7
3F1B3E240EBEB7FBFFFC2C48EE27CCDA
0FF6152D141D18F5C5FDC41EE6D7DB20
FC36402E3ABFBE2B444825F0C4FCD722
D129344428D8DEF1AAD1BD1CECE5D1FF
341FE6B9FBDAE1DB483FB0DCCEDA17EE
E1B21BFFE7F73F26ED314510B337D1CE
DF18CAFF57442123511606C24A372F13
F2CD3AE8AC1AFFDC20ED12D4313735DF
E4F7C1EFCD3EE2E40BC6D600DB2AFD05
2202BE0CDC1BF8F1B4B03CC9200204E6
2AD8F59E96AD06421E04FC3706B83014
BA433C1DE113CF32DD0449185BD618FE
07CC51C214D4D6A3B21FB2E007DD27CA
15BA331626E6C62D2C3AB8E420B2C7E0
D212CDF3313C3D2606EA02D6E2E25A1B
EEE0DBDEFEE0153915C30F3EE8183414
28BC300C2D3CB6B61BC91DF8F7CF5539
49261AC92E3F10D0ECE6FC2B37F9BF30
37C63621D41ACC33B44032E9DDB32B3E
F31DDD19D0B801C831C8FC1432D02409
04E6C4C21BFC312034DC2FED18FE02BA
550A1AB006CA0DE008411FE2423435B9
1FD8BF37F4211B09FB03EDDB052FC9EE
19242620350817D846191E34F209F109
C3EEEBD05CD50309D3EC2FE5CBB706F1
21C6BD4ED219A4EC1A0B3A0AAE32EA00
FA0D21D6BAD9CC1015FBFCE3E0E622D5
3F4E2DF7F1E3F9CDB1C6D418F4331BFB
D82CB010142FB926CD0915152CE2B42E
01DC3A152B3001330FF6E2F121F0C0DF
D7F2E5DD1EC000F41E20F8D039132428
E40A0CEC3E3CF70730D3D03529E1CF2B
C2D934CF4DE1D232370E1DCCF4FEFDF9
1922B3EE03CDB9CD1DEBC7010CB608EF
33372AD13E4F1407EB20B8CFD8CACCC8
E50A2C10D4C90E2031D313CA454A180B
4EFEC81D151B0CC93FC536FEF0F33211
E704E129454402C527F4130EFE35142F
CA34CA22B630BBBFB0CC2A1CDA2A35CF
40D7403F1F295A38C215D5D2B519FF36
1E0A370EB71BE8DC2B43193DBCC9073D
2736D60636504E005C38E152F9D1FF2B
072B07230CCA0CCCB440EB0B29BBDFEC
F2F7E917DFDD4121CAD026F6CC0A01DB
0CEFD30FF223CAD3C2FAD024413438D7
E6331837B524293D2AE21A31C83100D2
D901F31DBEA3AFC9F9E5D6382408F5D6
D8CD22B92BC4450B1A0CDAD237C0D8DB
0A0622DDF6FA2AD04F0A9DDCECD316F3
DEFF13160D15BDDB4098B5C8F31115D4
D4E2FDBEC8D3B2FCCD0F0BFAE0F6B409
DF152BE2080D2B1827021D091533C5D9
DCCFDCCD2C10EC0C191105E4BE242EF1
C2C5FA55E3FB0BCFF3A9F3AFEEEE0320
D0A89503A6B0E4001CE3CAFEDD5220C4
DE31E9F4BA260247E0083B05CAC70328
FB0104A8DFDEC1FFC92E221DF1E0BCA3
DC30FD17530CCEEB0004C8D609D828FB
2C15C7D4CEDADFB3D6C9DD4FBB390D26
42F7B1E82EEAF11FEE1EB4F21DC1C90A
D623F8D9F1F0500F243DFDC3D6FFC93B
0DF537D833320DF4C5B4E7D13210DBDF
F2191036113B3B194BCED5E9020AFAEE
223E4039DF2BEEC0FACC07CD4921BDCF
EBFCD32819021821EC09C4332A0404E8
174FECEFFC25D6F4065BEE11F7521EF8
340C2736DC13093AEEF64327E0C71B27
2A301ADB060EF4E02BAE0950D3F40E10
CC330E5BFF0A42443BB950CD3A042DD8
A409F2FD31142105DB30D6CCB306CCE8
E6EF06D923282230FB3F362BFD363D41
9B2B39C6EF36B344E9383BD7BFC70009
21EF2E03D413D1FCEDFBD71313DDE5BB
0D2226F7F2B8ABB58CD5DDED2FF1C007
103526FF183CD9333FCB2342E240DF45
2DB83EBFC9C0BEAC31E7D8D314D34428
28E8BD1431F6E43026C4020DF41CE8DF
1102C9F72EF50B2BCBBCF3FAE2F7E4C1
DB1DEC380CE20C22C9E7C20ACEDE251D
EF49DDFA31D7E63DF3EAC1D4E8EFC7D7
1F3CC0FDDD2AFB2FF03C3F29DF4227D3
2F001E013AD2B61B2BD6EED9CE16E1D7
FAD943C1F7E22F330BDBD209FC13E437
E6F92DEF2FFA26D8E041ED20230CED19
DAEF2FF6D730D8BEF1C9230B1D532221
28E4483E22C8F5BFF6DA194DF224C4FF
DE3D36D4CECF17F25A21EC2430FCD91D
E3D1D536303338E0D2CD1D33D5FBE0D6
2D1FBAF32032FCEAD5ECB723162ACBF3
212A00004CED15FDDCF5E728F0DFF71D
F3FF0103270424E62C0C0C3DFAEBCBEC
F235EFEC2AB037FAEB0BFFC712F82FCC
08C34217FDCB201F18CA011ED1C53B14
F8CA36D70CFC063738BEB6EFF8E1283B
BC0B1A27FEEC08F4FC2D022B13EEE7EC
54E200183AC4122533FCE832E847DF2C
19FED9B51006EB1BE0E9D8D6CBB7E3C8
C62531E01CADE6DA453ED30FFEC6EC00
1830D0F5EEE737DDE901E4373618F409
4119CDF70FCFA5BAC8CED03CBAFFC1D2
F2C8FDFB0A1E331CD1F8DAC7E1162612
E1D93E19FAFAC7281FF5AC0FC82A30E6
51F2DCCEF1243229ED0C1F06FBEFC4B6
2D47CDCDF3C40AE41A133738C52DFE21
130DE8FE133A43CDD9022EE1BFFEED49
DC12E9FE08CB38EE2334BC1D2F16CB1E
044619FD2217FBC01EBEC3E4C8E53C4A
B9CDCDD4290DFA483C503842070517A8
24FDEB37F5D53128E91F00DBB4C32D2A
D31F37E4D836DE18F0F6E33D340E34B6
53D220D8011319FDC901C9F338210D08
1CCC141906EB2E3F2EC31EDB2BE3E9EF
2BB3CC11E025CBBE02FB40FBC90ED7E6
B52B1907DB08EECCC8FFB1052EC7260E
D9C8EB1102E42B250D15E10D20F5C91F
E1C8F00D243C0B38BDE02420FDC34A1B
01B4FC1023F7F70FE5170A1F34343003
4C22BF88F9261FE22E001737D20E1DF8
210E22CFCD091EF2CC1AE21633CDD8EB
D51F48040FCB9B0E2C38F9FE3827BF0E
16E0143707F104E6FB480726C201270E
EBF507F85159F80CB6F3B8305D0801EF
ECBF1425F3F03133CFE7EC09D8F53346
17D39CB81D3EFA3A06E00C092FC7F104
FF201E4A10F2F00FF408D9173730342D
1BC5EDEABFBFA60A0FFFE201E0CBB140
0D04063AF005045C3245EEEBD045C0CB
30F6FCFF2F36D5EE100700CF1D2B212C
0809D31D3924C22EDCCF2514D1CBDC29
FF0FB622ED3D13CB1003C9E42221C00C
F0B511C5F0D040FB00F20D1F2C030543
38E4434908E9421CCE0C24F7C6073712
F4380C0101C91AFC0634203ACF3535EF
4003D22602CBE236D2CB1CB2EEC227D3
1706D2F8263602332CFAD1B33C32541D
D8CDDECAF60333D529E7EB12C1E8BDE2
2FFC34EFFA1022100DCBAF1EEFE6DA0B
E8BF2E2A1AE307E246BE3F43D6222F39
CB240ECB4FF233E004C927243EE22CB8
0714ECB5CF22ED490CCEF45BFCDED8C8
EFB91BC30FE7070F1E06ED084ACB1133
FEC43B10D712C7B10317D9451200DD11
CF1D04F1B81ED3712D04CACCEFF8300D
C6FF05450FE9CAE696ED1F00BD45B8DF
4018BD43053015D30DDA42E344ECD309
1FBAFA351D38B8460AB20CE8C80EB9F6
2A21C7E0A40608C8C2E0034C0CC2340E
CA2442E401BD4DD7EF262E4D34FCD3C1
1FFE09185F3416D1DACD35CCC945BC2C
2EE801FB24D4105E5FF2EFCACC16CADD
E7C40D04FAA93918DDC6BD16C74BD2EE
E0EED50A2AD832D422EEC63CC4B2EDDD
0E1B0528DA34DD01D53028B8C737E4F7
23FDF42EE5C6C6D9C51801D8D3F2BA07
F4F231DC2B1FC8E431150A370EF90DCA
0DAC1FC516D71410E5C1F8DE21D3EDC5
370BD9DF1F0FF1ED4AC54A131E3D3DE2
1EE0D3442228242836C7D9C5ECEFDB31
3329F21EC0E8E11616321229E6CB180D
C74D5702EBE8DDDC50F63341091C4109
2B282624D1C3E53F03F7292723B3F8B8
03FB113AFFD03316D92B3409DFE815C5
01E62AFFC33DFE07EE2A33270B23DC06
272DFC312DEED21C152F2B0D3FD4E440
FE26BDE0ED2456E019ED222515E2FD33
EB27E504230C090EDA1CFAF4F8EC25DB
B9B102F803D9F9173333C01FD61F13B4
45310526353D48D6AECDD921E3BB3FF0
2FDEC216BA2009FAE0410DDB0E120BFC
B8BEEDC51EC92BCDD7C2E22E15F3C4E3
F329D4DB0BED04ADD1DEEEE8402012FB
16D40739ECFECEA6B7EDDAD9DDD71AE9
FA3B1BD8ECE628281FE7FE12390942D5
E742CA02F0FC36E60DC6BA0FC71CDF19
E2C4D6ECD2F8001FD8092830D428DB03
0E30203742D3FCDDB12C374157E01EE4
1129D0DE37FEFA100403393CD633E70C
F32C28F74C1F060F372D0CE92DD50A2B
AB08C1E6FEF9FDEEEB0721CAA8DD3CC2
E6C0D1E82CE214C8352FF4EED627F5D1
C2503FEC300BB21BD2120F30D8181FDC
C3F10ADDEEE424161201BEC8DE2800F0
F321C3292548E6F9B1BFE8344313CD12
03F4D4E4E00CC2CE47FE291513E5D9E6
D9E5C21A24CF4907E028ADDDF131301B
4DDF5246BCF1101B302607394D4CDA01
2FCFF50A31280D36E1DFE4CF0AE931CB
F0C5F2EC1FA738F502F5DB1DB525B3DC
E403B6C3D9E8BF2DE01C062EEDB70AD3
4BDF1930E824F3E7F0DC38F0462EFA25
E3C638EEF0C5D121E12505F5DC2FE5D7
E8BD333BEC27FAB9A9B1F9CFFCEC1817
4635360FE90B01E613B0CB1F14DE21D8
EBF8CB36D84413CE330FC20B252E301B
3216DD15B1BBEF2E1C19C419E30DB6ED
BCC90319393FD126CD25D0EBBDE71ACC
BAA31E0E0B1BE9DEF6F8F5DC320202CF
20F1FC1F2C1BC22606F9DAE406E405E8
CFCDD5B5E7F441F5453C2F38DBBEFE0B
131CC4C6D5C83BF30433BE3AE5ED2DE7
5036FEC2B0FAA4315011C63E173AC83D
2AEFCFF12F49F4FBF70C170845F333EA
0D093947499CBF0419D940C7EB2C0108
F61C16F8F6502C0F384ED50A431F37AE
C6E635361919CBC8281B31F4AD0BE5B7
DEE9DB0421F61F4033B3E3B6FDDC2CF4
DC360545F805B118D81133ED06C842AE
F9075CE02F28290D36EEC50F3F00F1E6
14B3E9FE0CFDE3CA25C5AA20C320C7C8
B8C02B1D0DE0EF08FAC715CD2909FF0F
9805331EF0E237D5EEECFBE4DBE61B22
C8D339D7DEE32332C40F0FC6F2BD0BFD
C00D23D12BE633B4F229FDC4301DC8BE
181B551E36C321FA2E44CCE2CCE2AE1D
B0DFE3FE3DF825E4210436EBE840FEDD
E9E50E1C1D24F0E3D7FED30CF401CB3A
E1141B3EFB28D0D2F4A81B2CFAC410D9
08E3D5FDE717D510443808D54BF0B203
343F08211BF2CF06D5ABF7FDD21CA6C3
412E28E405ACFAC2EB10B607F0EE52E9
C1E72F37ED250FD4CBD537F3E9E11F40
D8C836F53237DFCF33F8CDE82EB4A62F
F6CEC3DDC538EAEA01DE47ECC60FDF37
ACF60F42ACC5F80B01EC3221BE15F7BC
04EBE9B72DCEF8FA3AEBD6DB24B7EB19
671FDED8071DC6AD09341FCEFEC217A7
2C4003FCC608A6D04B2647E5FDFCCC2A
0FEFBB0BE8EAD1141AC2CA421A1EACE5
DCBEEB3B4A0F1A2819FECC26C5A9F1E2
C9D0B9BEB9FF25D7C4CD2DF14ED1E60B
C0C843EEA61FA5DF2BFE0CFEC6D2DBB7
4140CBB1A1062ECA32CC3215FFBBB5C6
E8F415F8C9C5E7FF0F1EBBEB051BC30D
1A24FED738D1DB818F04F44A25DF1048
D1DC3544FF10F6D6A8D1FC4BE8DCCB18
1C28D03CBB250743F503D4DFC11504CC
FCED008C2DD11701DDD4B6C0EFE60C31
F1E0D21D32C8BCC11FD60C1AD81E31A8
C2EB06ED07F70111E3E53E2E4207D8F9
3026AB082D380DD11C32E8DABEB104DE
0AD222E5D844C7E11E0F2C0B2B25E009
B11839B3C0FAD1AD0B2FF50C230DB8F1
DD0C433DCC013309E90D27242325260B
FC3B12F820AD27F722EDFDCC2636BB0A
D200D0F3E6411C0A3DB3C3E823DB111A
DFE1F2EB4133330649F742DFB3064857
2FEEFDDAFAE13344ED1DE111F41CBF11
24D83ADB00C53EFBE406D24245E30AF6
463B1B3126BCF9BE34F80B08F8F21923
F6D9104803CFBDF0CA1AE144C7DE1F23
1F17E7D0F5DB15D04358FC19CBC916C4
F6FBC2C01BC82212181C08B822EBD103
30394B20CDB8BF350E00EE401D4634FF
EED9FABF39EC2E12CC4CE9FD30E4F5B2
EE0BCBEFC913F0C11E1D0AE6C0CB3D3F
EF42D41E322901FCEE3411E4FBD51DF7
1CF3EF2F072BC4C30B0B2AACD3B1C5BF
FBBF3B29233E0F0C2D44E8503A0D3AED
01D62B452A0ADFBAC91625E92421C725
10B5CB1D04E022E4C5E311DCFFEC16C4
23FB07F84D483A0BE4141106052D16ED
2C1E06080333B009B9EAD0CADBEC0BD1
00C929BCF5B3C9F8C60C3EFDFEC9FE0D
29C3B71542D923F13DCF2BFFDCFBED0B
39D21607411118C9DEE2ECE6C33C2727
22CC10D7D504FE2ED52E03FBE65DFC36
FEF0D1E7C405462511E03E36D5240712
E5055FE5BF05FA1C0106EB0C27E019F3
1E28B40E15E2FC23D50BDD2FE2EED802
0ACBC22BD2281E29FCD90AEC1AEA1414
32D8FD2321192AF9DED9CDEB551B29E7
F9F6B1ADE3B1CA17F2C91AD0DFD2F6F5
0AF236B4E5F029E8D2D5FAAF2CB9C719
B8E4C4F608BED1211B17D815EBE90A0B
F8C0C64D580538FF0E2AD0BA15EA1ECE
290C0F0833F61A30252C3820BD22BB12
3F2E00C5C513BB47FCAEBADE102DDEFD
EF1843B61443D5FC2124E5E2D94305D2
2245D9D8E5B6DCF2332528C4E332B8BF
F533E2C5C43DBBD3B40CFEE2E2192A22
1940DCD438CED13B2A46172F17C3400E
DFBBE20F2710E7FE2D3034F7B525DA10
C5FF1AF5390A25222D3635D0FFFD3BD1
E8052EEFFEEDFCF91948FBDB3A131CE4
F3DAE2D3294908362C2BC1E615F12BE0
C7471028EAFBCFEEDF212243B6ECEC3C
01DBF8E72FC617CDD512E0FB00E8AD32
39DEFDD4E82A09EBDDE43B19CAF045C4
373DD4302F0BD3E01F4237C1E9DB5AEA
17BDD2F332FFD603C4FAD00236D21309
2BF6FEE330CE363D2B38FA23D8C94432
DB2AE63CC5B1EDD0C73130C3DE000D08
0FE52434BB1F1DFEEFC9C5F7DBFB4830
E9C9CAFB15E4471A27D3391BCE36C920
3D28473BE724F22722DED51CCE27EEE8
0318F8D1C6F2F0EBC00C012BDFFB20BF
ACC21C1EBFCE0B3BC419D2D0E42B200D
E338F9E2F50ADA092441F0F02E24C5FF
051B24DFAB2C0EF5DC24CF38C6B74000
E7BB3D167005F5C5FEFEC1D01110BFEE
182E2BF9E9D208C396C1EE2CEA1922D8
E1FDCF27F0FDE84515B7BC38C4BDD9CD
0CB4E41EF1BBB7E017C5C91EDEABDF28
F3FCF708E95046ED4FE04D3D0A169CF7
2C0825310F051D8C9105FE08F2FD1ADB
D7D9E6B21DFB13DDFD100FC4030B2BDA
DDFE1A143A41C6EBF0C9F7E10FE029E0
FD2AE3BE140901D5A0A30D1ADCBEBBBD
2DBB0B2CD40803E5B504E30DFF1EED04
47F02AFB1D39EBDB0DFE1ABECEEFF7F8
BFFAD444C40BD61F171A31224ADC29E2
C933CA295CE0CABB3F023EDA3335F32A
E7BCFCFE09B5E0E611EE40FBD5E33320
0E4ED3C40BC2FB04BB0B2ACCCBB9DFB4
F0B7F204071DD0C3E7C206BDE732152A
CCF714F0F1E1C7F50BF2E4164B03EF0B
EFE521FDE10F0AFFBEBEE20F15F0F216
1138C4FBD1EA1828FEE43FE20BF143C1
28461432DA0BC82E3CDCEF30DC0F12D1
E708EEC8EECF4A1A63E1EBD7D937F641
FBD0CD31D648C5C42E28C4FAEF54CDF4
CF00B82C070E29BFDC13D3EBE7F7204F
DCBD16BA2CFAC9B913FC0CEDE621EB12
FDC71CD1DDBB1BC641F5A93403E030EE
4A37D7C1F822E72FCEC70009DC04FAE8
ECF632B31A4C0F40F3D606DC2CC9C1B4
19D648CFD7EE30121C3A0ED73018FB22
B1200CEE17E5E14DBF250CD1F3C6DA1D
FE3C483AEEA8060FB8E2D32311C0EADA
2EEB27D8D42226DF281FE6DEDE0E3432
